, 5779297
. 3895587
die 2809267
der 2699214
und 2555945
in 1369118
zu 1034227
den 971419
von 939885
ist 813501
für 792399
@-@ 760796
das 673173
mit 665542
auf 646540
des 633735
eine 579711
nicht 520881
im 516317
Sie 498744
werden 496556
dass 488353
- 459022
es 456636
wir 454291
ein 451923
dem 451908
&quot; 437041
sich 435189
Die 426105
auch 393845
sind 358768
wird 344834
an 329814
( 317615
) 315161
ich 315008
als 305940
um 296487
oder 284069
haben 280342
: 278198
über 275737
hat 256653
einer 254028
sie 252071
wie 250562
zur 237230
einen 228619
Ich 222909
bei 220833
aus 213115
Das 211556
können 203934
einem 180905
diese 180179
Wir 177103
nach 175651
uns 173941
zum 172369
nur 169516
durch 163687
kann 163377
dieser 160429
er 159801
Kommission 159742
daß 159593
Der 153326
so 147032
vor 146456
Es 145944
! 144410
noch 143309
Herr 141855
wenn 137721
aber 135809
müssen 135726
wurde 134065
sein 130188
/ 128200
? 123598
sehr 123328
Union 122235
Europäischen 121033
diesem 120321
am 119531
In 114520
alle 110107
möchte 109685
mehr 109151
was 106965
man 106452
eines 99671
Präsident 96796
bis 95609
ihre 94347
EU 93149
dieses 92691
war 92349
ver@@ 92324
vom 90381
sowie 88717
gibt 88376
Bericht 87513
unter 86875
er@@ 86263
Parlament 86023
muss 84441
zwischen 83752
hier 83496
Mitgliedstaaten 83381
Hotel 80481
unsere 79817
an@@ 79532
keine 79503
a 78648
&apos; 76870
Europa 76829
anderen 75281
Ihnen 74409
; 74142
Wenn 71889
... 71004
te 70289
diesen 70008
dann 69726
immer 69447
damit 69140
Frau 69058
ten 68998
dies 68991
gegen 68488
de 68348
un@@ 67464
Europäische 65924
da 65696
wurden 65611
habe 64603
en 63868
Diese 63820
sondern 63226
Im 62968
ge@@ 62959
unserer 62879
Zeit 62174
jedoch 61064
ab@@ 59954
Ihre 59155
Menschen 59130
heute 58921
europäischen 58884
s 58880
seine 58695
neue 58091
mich 56897
Rat 56825
bereits 56606
sollte 55559
en@@ 54932
ihrer 54768
Jahr 54744
% 54605
denen 54433
neuen 54241
k@@ 54203
ein@@ 54109
Frage 53926
aus@@ 53884
Entwicklung 53488
sollten 53257
ohne 53117
Ver@@ 52744
andere 52727
Jahren 52632
be@@ 51711
machen 50186
ganz 50127
finden 49638
allen 49480
zwei 49433
weil 49031
2 48737
K@@ 48727
geht 48465
An@@ 47677
denn 47511
t 47203
Maßnahmen 46957
dazu 46822
e 46815
Unternehmen 46562
jetzt 46521
viele 46274
darauf 45821
Welt 45763
Herrn 45562
sch@@ 45195
t@@ 45005
S@@ 44979
Mit 44961
the 44821
1 44699
bietet 44533
Bereich 44515
dafür 44082
i 44011
liegt 43822
Ein 43544
einige 43392
P@@ 43274
T@@ 42994
B@@ 42963
Ab@@ 42928
wieder 42738
seiner 42656
Informationen 42384
selbst 42346
bin 41939
ter 41900
meine 41843
Arbeit 41714
sagen 41702
auf@@ 41580
s@@ 41457
schon 41439
mir 40867
allem 40827
Lage 40791
ihren 40761
würde 40594
zu@@ 40523
wollen 40397
ung 40144
ihr 40061
Dies 39957
ob 39730
3 39473
o 39383
and 39310
viel 39229
Länder 39118
f@@ 38912
Land 38844
Jahre 38823
unseren 38705
F@@ 38693
über@@ 38652
G@@ 38405
geben 38395
insbesondere 38118
Parlaments 38090
doch 37625
Eine 37496
M@@ 37415
Wie 37210
stehen 37205
H@@ 37080
während 36893
nun 36814
D@@ 36726
&#91; 36646
Und 36635
&#93; 36532
vor@@ 36501
Unterstützung 36404
etwas 36381
Ein@@ 36343
in@@ 36298
Vorschlag 36205
möglich 36178
Rahmen 36079
gen 36048
ent@@ 35965
z@@ 35920
d@@ 35870
Zusammenarbeit 35826
kommen 35792
stellen 35758
Ländern 35677
lassen 35554
wo 35515
Für 35267
A@@ 35217
Bürger 35205
of 35090
ungs@@ 35042
Aus@@ 34996
gut 34959
E@@ 34902
ab 34526
politischen 34364
seit 34288
n@@ 34270
g@@ 34262
waren 34232
wichtig 33875
Namen 33793
Sch@@ 33781
m 33773
tun 33764
erhalten 33729
Fall 33636
ungen 33589
also 33524
L@@ 33436
N@@ 33404
steht 33331
soll 33304
st@@ 33225
besteht 33199
Teil 33162
Kollegen 33043
Ziel 32969
wäre 32898
Problem 32888
ersten 32794
Fragen 32651
W@@ 32443
al@@ 32406
einmal 32233
Recht 32174
sten 32115
Fraktion 32086
ern 31931
ch@@ 31833
R@@ 31774
letzten 31724
4 31604
beim 31444
sehen 31378
deren 31307
Art 31287
C@@ 31284
Vor@@ 31203
Bedeutung 31170
Sicherheit 31126
to 31104
drei 30929
tes 30916
worden 30735
muß 30531
einfach 30450
Staaten 30386
dabei 30384
Was 30338
Seite 30334
b@@ 30294
seinen 30099
m@@ 30087
große 30079
Regierung 29987
großen 29930
Zimmer 29792
Kommissar 29718
weiter 29336
5 29297
Thema 29276
Daten 29231
Bei 29222
welche 29205
Probleme 29197
-@@ 29094
darüber 29017
bringen 28961
Möglichkeit 28912
wissen 28907
ge 28877
Politik 28858
Richtlinie 28617
daher 28534
um@@ 28531
davon 28510
meiner 28505
Aber 28496
Verfügung 28414
könnte 28171
Weise 28070
eigenen 27923
führen 27820
Auf 27801
unterstützen 27696
Zukunft 27691
ischen 27646
aller 27556
Z@@ 27502
el@@ 27465
sowohl 27409
Auch 27398
Ihr 27377
System 27377
wirklich 27362
Nach 27261
eren 27222
kein 27118
enden 27112
Er@@ 26998
Er 26963
liche 26949
e@@ 26938
10 26925
O@@ 26902
du 26821
Als 26783
Stadt 26761
ihnen 26749
natürlich 26735
stellt 26673
Beispiel 26667
alles 26608
weitere 26578
re@@ 26529
Rolle 26517
europäische 26388
gegenüber 26377
o@@ 26356
ja 26283
erreichen 26247
Euro 26210
besonders 26186
on 26170
Frauen 26168
Ende 26157
politische 26066
zwar 26053
innerhalb 26044
ende 26030
bieten 25946
&amp; 25845
Ihrer 25827
internationalen 25781
V@@ 25701
verschiedenen 25593
unser 25564
Seiten 25563
Kunden 25488
Weg 25451
ische 25340
hatte 25285
d 25156
möchten 25125
gehen 25100
le 25063
vielen 24992
lich 24943
Meinung 24917
USA 24758
Artikel 24460
i@@ 24423
kommt 24289
u@@ 24234
Situation 24190
Zusammenhang 24190
E 24119
befindet 24064
l@@ 24057
Lösung 23686
entfernt 23643
lichen 23600
Mittel 23582
dort 23543
gesagt 23512
as 23324
Präsidentin 23220
Programm 23212
J@@ 23161
chen 23041
erste 22898
Tag 22893
Rates 22891
Ihren 22877
nehmen 22736
arbeiten 22734
is 22708
ens 22685
r@@ 22610
Re@@ 22607
nämlich 22597
ste 22581
daran 22580
de@@ 22567
g 22567
Hilfe 22539
beiden 22523
&#124; 22494
Um 22493
Deshalb 22387
weniger 22289
Un@@ 22160
Alle 22159
n 22150
Schutz 22105
h@@ 21987
Europas 21974
di@@ 21952
2009 21948
direkt 21908
Be@@ 21894
ts 21861
li@@ 21808
p@@ 21805
l 21686
Hier 21681
In@@ 21633
all 21606
Uhr 21603
unserem 21583
ins 21570
indem 21561
bar 21555
pro 21542
Aussprache 21518
I@@ 21493
Dieses 21406
Millionen 21394
v@@ 21382
Ebene 21330
Auf@@ 21305
Grund 21271
a@@ 21220
Region 21131
jeder 21122
ert 21116
end 21098
Produkte 20970
st 20965
glaube 20943
gemacht 20934
gilt 20898
k 20897
dessen 20882
Punkt 20879
sogar 20873
unter@@ 20869
ale 20854
Leben 20853
schaffen 20811
hinaus 20769
si@@ 20674
einigen 20655
nationalen 20601
bitte 20575
Gemeinschaft 20562
brauchen 20536
ar@@ 20531
darin 20470
20 20465
darf 20461
unterstützt 20373
Rechte 20362
or@@ 20319
macht 20259
el 20225
30 20168
Haus 20157
halten 20146
Abstimmung 20140
ter@@ 20140
So 20109
bzw. 20081
öffentlichen 20057
at 20006
z 19967
Kinder 19944
ebenfalls 19933
betrifft 19914
will 19864
dürfen 19845
Dieser 19828
es@@ 19795
on@@ 19766
sicher 19717
6 19700
Wirtschaft 19640
ti@@ 19632
gerade 19615
ger 19604
erten 19517
etwa 19493
sollen 19411
Bezug 19396
ihn 19341
weiterhin 19284
sen 19197
erte 19165
ihm 19116
Menschenrechte 19077
St@@ 18997
keinen 18990
nichts 18929
Form 18928
genau 18915
Qualität 18895
Personen 18860
Unsere 18860
Strategie 18850
u 18840
y@@ 18803
seinem 18790
ihrem 18731
Über@@ 18707
gute 18684
wichtige 18671
klar 18616
würden 18548
solche 18508
handelt 18449
deshalb 18430
Ansicht 18413
Internet 18402
Umsetzung 18402
der@@ 18312
bedeutet 18289
deutlich 18281
meisten 18275
Arbeits@@ 18254
.@@ 18252
gen@@ 18203
hoffe 18189
Zugang 18160
sei 18151
7 18122
Software 18108
jeden 18099
Hotels 18082
besser 18037
em 18027
setzen 18013
aufgrund 18000
w@@ 17985
Da 17975
Kosten 17948
Finanz@@ 17933
Vertrag 17922
ere 17906
at@@ 17888
Deutschland 17878
Gesellschaft 17844
Demokratie 17810
gemeinsamen 17791
Ziele 17786
nutzen 17769
Vorschläge 17747
A 17732
se 17721
Website 17688
weit 17685
Verfahren 17665
la 17643
Verantwortung 17611
le@@ 17589
nächsten 17581
sozialen 17576
� 17555
schen 17420
zusammen 17414
Um@@ 17403
Rechts@@ 17396
2010 17391
Grundlage 17355
Bedingungen 17328
beispielsweise 17322
notwendig 17284
Dank 17239
Zu@@ 17238
Debatte 17178
Herren 17154
Richtung 17143
8 17132
politik 17120
Aus 17119
Anwendung 17112
vielleicht 17103
alen 17102
15 17090
wirtschaftlichen 17074
Markt 17071
ers 17014
j@@ 17008
Ort 16979
Institutionen 16970
Interesse 16902
recht 16887
Daher 16855
be 16850
besten 16813
schnell 16801
sprechen 16783
ler 16775
findet 16746
werde 16694
führt 16682
erst 16668
gehört 16660
Hinblick 16654
hin 16651
U@@ 16624
2008 16605
Reihe 16593
Berichterstatter 16546
allerdings 16521
statt 16472
China 16424
Abkommen 16420
Gebiet 16410
r 16372
ä@@ 16333
gemeinsame 16328
könnten 16312
system 16301
ri@@ 16284
ro@@ 16274
et 16259
Auswirkungen 16208
Haupt@@ 16193
Damen 16117
lange 16116
gestellt 16110
Verhandlungen 16108
bleiben 16104
erreicht 16059
Regionen 16040
danken 16038
Möglichkeiten 16028
elle 15998
ei@@ 15963
Tatsache 15949
bereich 15921
b 15905
fen 15836
isch 15831
denke 15806
The 15754
bekannt 15715
sk@@ 15667
verwendet 15666
zeigt 15657
Von 15608
ger@@ 15556
I 15528
or 15526
Service 15514
am@@ 15511
Ihrem 15509
licher 15504
erung 15479
50 15478
Änderungsanträge 15472
erforderlich 15471
kleinen 15464
zurück@@ 15436
Kolleginnen 15427
Dienstleistungen 15393
Al@@ 15345
y 15313
Änderungsantrag 15300
Geschichte 15289
ra@@ 15284
Doch 15282
darum 15272
wenig 15268
ten@@ 15226
nach@@ 15189
Abgeordneten 15172
Mitglieder 15133
Durch 15081
Entscheidung 15066
al 15062
Unter@@ 15045
Schritt 15028
gesamten 14995
Verordnung 14989
Beziehungen 14986
fragen 14950
2007 14947
ken 14945
2000 14899
bereit 14899
Vereinigten 14879
ie 14837
Nähe 14828
ermöglicht 14812
ch 14805
ischer 14802
Version 14787
gegeben 14787
einzelnen 14757
ebenso 14756
Bereichen 14751
Ergebnis 14727
voll 14699
Antwort 14687
oft 14680
liegen 14669
Liste 14650
te@@ 14640
unternehmen 14634
verschiedene 14615
Krise 14612
f 14609
hätte 14609
Ausdruck 14608
ser@@ 14604
3@@ 14584
hatten 14584
alten 14579
sp@@ 14564
Förderung 14530
Türkei 14530
durch@@ 14509
dar 14430
weiß 14410
spielen 14390
gestimmt 14388
Bevölkerung 14381
Ausschusses 14373
wichtigen 14365
et@@ 14357
weltweit 14336
leben 14299
ü@@ 14288
US 14282
wegen 14282
tragen 14278
enen 14257
c@@ 14225
internationale 14204
C 14192
geführt 14177
helfen 14161
ange@@ 14149
verfügt 14135
Zu 14114
Grund@@ 14109
Am 14089
heißt 14081
weiteren 14077
gemeinsam 14053
Außerdem 14045
Aufgabe 14037
gel@@ 14037
Entschließung 14027
vier 14005
Gruppe 13961
Man 13938
meinen 13923
km 13908
Ausschuss 13892
Behörden 13890
los 13888
Neu@@ 13885
gleichzeitig 13877
x@@ 13872
x 13869
Kontrolle 13858
fast 13853
Forschung 13817
gleichen 13808
entwickelt 13776
ar 13771
Erweiterung 13768
jedem 13766
12 13735
Erfolg 13725
ne 13698
nen 13681
Geld 13675
bleibt 13658
zi@@ 13639
th@@ 13617
ges 13616
mit@@ 13602
ellen 13597
gab 13580
gebracht 13546
gt 13542
Minuten 13536
kon@@ 13533
verbunden 13531
_ 13482
100 13469
Jahres 13463
os 13449
che 13446
per 13436
je 13429
Wirtschafts@@ 13400
Beitrag 13391
se@@ 13379
unseres 13341
hinsichtlich 13329
ben 13326
Schaffung 13239
len 13236
Ge@@ 13231
ene 13230
zen 13200
jede 13199
enthalten 13192
Preis 13160
men 13158
Projekt 13154
Verbesserung 13129
Sicherheits@@ 13127
zeigen 13121
4@@ 13060
ziehen 13052
bekommen 13028
Rück@@ 13019
Mal 13008
EN 13003
Verbindung 12987
befinden 12971
em@@ 12965
Verbraucher 12958
konnte 12954
Einsatz 12948
us 12887
* 12851
Notwendigkeit 12850
richtig 12826
Blick 12825
eln 12817
Restaurant 12807
Lissabon 12800
ber@@ 12793
ur@@ 12780
Lösungen 12773
S 12772
it@@ 12768
h 12762
besch@@ 12753
derzeit 12748
ermöglichen 12738
Zum 12704
lässt 12701
Nach@@ 12664
wichtigsten 12661
Nutzung 12650
fördern 12634
soziale 12633
jedes 12613
au@@ 12592
Russland 12591
wohl 12586
Gelegenheit 12568
18@@ 12561
ö@@ 12540
Zentrum 12531
9 12530
genommen 12523
Interessen 12521
Geschäfts@@ 12515
2006 12492
wobei 12483
enthält 12476
ko@@ 12473
Bau@@ 12462
is@@ 12453
legen 12443
Ergebnisse 12429
B 12422
Ent@@ 12418
Kon@@ 12418
Wasser@@ 12417
Damit 12407
Seit 12387
wirtschaftliche 12385
verbessern 12379
25 12363
Mar@@ 12335
00 12333
Regierungen 12309
kleine 12298
Wort 12281
Vor 12278
neu 12256
den@@ 12230
Platz 12213
sche 12201
angenommen 12170
for 12164
+ 12162
meinem 12137
völlig 12125
Text 12106
Landes 12103
liches 12103
la@@ 12101
ak@@ 12095
D 12079
cht 12072
Unser 12044
X@@ 12009
Verwendung 11974
Gesundheit 11960
mehrere 11944
ke 11925
gern 11921
tatsächlich 11909
Di@@ 11908
Themen 11900
ganzen 11900
schriftlich 11900
großer 11855
Zeitpunkt 11844
zusammen@@ 11837
bestehen 11830
wei@@ 11819
Änderungen 11814
ck@@ 11813
T 11802
gerne 11799
Einführung 11781
Umwelt 11754
ganze 11718
eigene 11708
Darüber 11704
hin@@ 11700
Initiative 11689
Bitte 11687
me 11686
Bekämpfung 11683
us@@ 11678
Woche 11665
tige 11623
Ar@@ 11620
ung@@ 11616
gewährleisten 11615
verwenden 11598
äußerst 11584
gesch@@ 11549
Sp@@ 11546
sorgen 11537
baren 11535
Erachtens 11524
z.B. 11490
Frankreich 11477
guten 11477
Kommissarin 11459
halte 11448
verstehen 11431
Prozess 11424
verfügen 11419
zunächst 11418
dern 11415
stand 11413
bei@@ 11412
Partner 11407
Kultur 11395
tischen 11393
fünf 11387
meines 11381
Stunden 11366
gehören 11365
gi@@ 11357
zurück 11354
entwickeln 11353
Fortschritte 11345
Kampf 11345
fest 11331
bestimmte 11311
ber 11269
tern 11266
Umwelt@@ 11253
rund 11252
anderer 11246
treffen 11230
bisher 11226
Person 11223
gemäß 11217
Mail 11204
lediglich 11201
ationen 11181
2@@ 11175
sen@@ 11172
versuchen 11157
neben 11136
einschließlich 11128
gleich 11118
obwohl 11110
her@@ 11104
Industrie 11097
Ro@@ 11085
ag@@ 11041
Mitglied 11038
Wert 11032
24 11020
O 11011
Bestimmungen 11006
5@@ 10993
bi@@ 10976
ation 10974
Steuer@@ 10972
Dinge 10963
Mehrheit 10950
40 10946
ändern 10943
Erklärung 10935
bare 10930
sagte 10921
Wachstum 10902
Juni 10891
Programme 10889
p 10869
bestimmten 10860
scheint 10853
zeit 10851
Aktivitäten 10845
Vorschriften 10845
gesamte 10840
Zahl 10836
c 10830
ausge@@ 10822
Dialog 10819
gung 10811
Integration 10804
zweite 10778
as@@ 10770
2005 10769
gesetzt 10767
Anfang 10746
tung 10740
Anzahl 10737
Entscheidungen 10719
maßnahmen 10711
Gewalt 10709
bringt 10701
fordern 10699
Erfahrung 10690
aten 10687
solchen 10682
it 10674
geb@@ 10673
Tage 10666
hohen 10659
tigen 10624
Haushalts@@ 10607
000 10600
nimmt 10599
somit 10585
Standpunkt 10580
land 10574
Beschäftigung 10564
erster 10562
vergangenen 10554
Herzen 10545
mein 10536
Punkte 10535
ot@@ 10525
Familie 10523
Angebot 10519
Handel 10519
Dabei 10513
ek@@ 10512
Mai 10490
är@@ 10484
Während 10463
Sprache 10455
Wahl 10448
ieren 10439
stark 10415
aufgenommen 10412
chten 10410
gar 10404
lichkeit 10404
systeme 10402
Raum 10398
® 10388
suchen 10387
Aufmerksamkeit 10386
Produktion 10381
anzu@@ 10380
2004 10358
europäischer 10356
ges@@ 10349
Freiheit 10346
später 10345
tet 10336
einzu@@ 10332
Y@@ 10327
nie 10318
Funktion 10311
Energie 10306
Gefahr 10300
Bild 10298
Landwirtschaft 10298
Mitarbeiter 10284
ff@@ 10281
außerdem 10275
Hand 10272
Berichts 10271
ß@@ 10269
Investitionen 10260
are 10259
geschlossen 10255
leisten 10244
sti@@ 10244
Position 10232
dadurch 10228
tische 10218
Bereiche 10212
fahren 10166
Dezember 10164
Nationen 10158
ma@@ 10156
ad@@ 10153
Par@@ 10145
einzige 10137
ts@@ 10134
Stelle 10128
Transparenz 10128
insgesamt 10105
é@@ 10105
eb@@ 10088
versch@@ 10085
Grenzen 10084
mal 10070
programm 10058
Diskussion 10044
schließlich 10043
Gemeinschafts@@ 10041
Präsidentschaft 10041
Wettbewerb 10041
angesichts 10040
op@@ 10037
zweiten 10031
setzt 10012
Markt@@ 10008
Auswahl 10003
ster 9999
ul@@ 9990
ed@@ 9985
Bo@@ 9976
zahlreiche 9974
Schlusselwortern 9969
Folgen 9968
Regeln 9966
ta@@ 9959
Macht 9956
September 9954
sieht 9954
isches 9951
Auffassung 9948
iert 9948
hohe 9947
Anforderungen 9943
leider 9935
ell 9925
Bildung 9913
größten 9902
Präsidenten 9899
getan 9897
begrüße 9893
Spiel 9861
2003 9857
6@@ 9854
Meine 9853
Umgebung 9847
Wasser 9846
Tagesordnung 9838
Preise 9834
Projekte 9827
Online 9810
innen 9810
weder 9791
wichtiger 9785
frei 9762
neuer 9747
tiger 9707
lei@@ 9702
Anfrage 9700
Natur 9691
Gründen 9668
all@@ 9665
eigentlich 9660
leicht 9644
Bemühungen 9639
Ma@@ 9638
bezüglich 9632
2001 9624
by 9624
morgen 9610
Bürgern 9606
Meer 9595
Kraft 9590
März 9588
beitragen 9585
ender 9581
bevor 9561
führung 9539
Nur 9537
genannten 9536
Bürgerinnen 9520
zehn 9517
diejenigen 9509
Öffentlichkeit 9507
eingesetzt 9506
ne@@ 9500
En@@ 9499
Änderung 9488
Bar@@ 9484
verfahren 9480
Sache 9465
durchgeführt 9463
Benutzer 9453
Sinne 9451
lang 9437
kannst 9435
Ansatz 9424
allein 9421
wer@@ 9400
benötigen 9391
öffentliche 9390
Entwicklungs@@ 9379
konnten 9370
Fehler 9366
Linie 9361
Pro@@ 9350
del 9321
ihres 9320
teilen 9320
di 9312
erwarten 9308
stimmen 9294
18 9292
Mo@@ 9285
Gäste 9279
Rechtsvorschriften 9267
aktuellen 9266
ker 9259
G 9254
lo@@ 9249
berücksichtigt 9235
erneut 9229
11 9227
hätten 9220
hoch@@ 9216
Fällen 9214
gelten 9214
eh@@ 9190
Monaten 9189
verhindern 9183
ru@@ 9173
K 9167
ations@@ 9161
behandelt 9151
tungs@@ 9145
fer@@ 9137
möglichkeiten 9133
Druck 9132
Januar 9114
genießen 9111
Design 9107
Server 9102
weisen 9097
Reform 9080
Ex@@ 9079
entsprechenden 9075
Tat 9067
kurz 9067
.com 9057
det 9055
gefunden 9053
M 9044
ausgestattet 9044
geworden 9044
weise 9039
Höhe 9033
Welt@@ 9030
Nr. 9022
weiter@@ 9011
freien 9003
ing@@ 9003
om@@ 9003
Finanzierung 8999
wenige 8989
ens@@ 8975
Se@@ 8969
größte 8949
Sozial@@ 8939
2002 8938
P 8935
folgt 8934
16 8933
Heute 8923
Jahrhundert 8919
Republik 8917
TV 8915
vergessen 8915
eher 8907
Zweitens 8896
Bar 8890
frage 8889
Oktober 8887
14 8879
7@@ 8876
vertreten 8874
Insel 8864
1. 8863
Konferenz 8853
ap@@ 8852
0@@ 8850
hei@@ 8846
einge@@ 8839
Ressourcen 8831
lage 8825
Aspekte 8823
8@@ 8813
Ch@@ 8801
Berichterstatterin 8787
warum 8765
da@@ 8754
eg@@ 8753
Bi@@ 8748
ach@@ 8741
ali@@ 8738
Arbeitnehmer 8733
one 8728
tungen 8725
Sicht 8719
Team 8719
Angelegenheit 8718
richtige 8715
demokratischen 8714
tliche 8707
Angelegenheiten 8704
ka 8693
Behandlung 8689
ze 8689
Natürlich 8688
sch 8679
versucht 8677
Lebens@@ 8669
ol@@ 8650
ut@@ 8650
zumindest 8646
eben 8640
Basis 8639
Organisation 8635
vi@@ 8632
Man@@ 8622
ner 8615
mittel 8612
Lassen 8609
Zur 8604
entsprechend 8604
lösen 8599
fallen 8589
überhaupt 8588
ca 8585
est@@ 8582
&gt; 8577
geschaffen 8574
il@@ 8560
Strand 8556
Fach@@ 8555
L 8555
gende 8551
kosten 8549
technischen 8543
0 8528
Italien 8525
erfüllen 8520
Solidarität 8514
schützen 8511
erklärt 8503
Windows 8499
Spiel@@ 8495
gesehen 8493
Spanien 8490
Werte 8489
Schwierigkeiten 8481
besondere 8481
Vertrauen 8480
Dateien 8473
tig 8471
Musik 8469
Tagen 8469
endlich 8469
aufge@@ 8468
Küche 8460
sektor 8455
9@@ 8452
IT 8450
zahlen 8448
Parteien 8443
ums 8440
EUR 8437
F 8437
mo@@ 8437
Datei 8435
Herausforderungen 8435
ine 8402
Vergangenheit 8391
heit 8383
gewesen 8382
Annahme 8381
sofort 8366
verpflichtet 8366
Arbeitsplätze 8363
bessere 8363
Beginn 8359
Hinsicht 8352
nahe 8350
Verkehrs@@ 8349
AG 8347
lesen 8343
verantwortlich 8334
GmbH 8331
Mit@@ 8324
Vertreter 8321
Juli 8317
anderem 8316
erinnern 8307
Schritte 8297
Bilder 8292
Wochen 8286
fest@@ 8286
hinter 8283
tieren 8282
Firma 8280
vollständig 8279
sh@@ 8278
Hoch@@ 8265
Forschungs@@ 8258
Frieden 8250
Gruppen 8244
Systems 8244
falls 8233
Land@@ 8227
paar 8223
wählen 8219
November 8214
Inhalt 8200
Opfer 8197
erfolgreich 8193
vorgeschlagen 8191
her 8189
genug 8188
hoch 8188
Erfahrungen 8187
hören 8183
häufig 8177
13 8176
60 8176
Verpflichtungen 8171
begrüßen 8169
treten 8166
Du 8160
erfolgt 8160
genden 8157
Gästebewertungen 8155
with 8150
Armut 8139
cken 8137
V 8136
Technologie 8134
Erstens 8130
tan@@ 8127
außerhalb 8118
Verfassung 8115
Information 8113
darstellt 8112
Nicht 8106
reichen 8106
heutigen 8092
Staat 8090
Anstrengungen 8089
stets 8088
Handels@@ 8078
ben@@ 8066
Gra@@ 8059
Praxis 8055
allgemeinen 8052
jeweiligen 8051
Co@@ 8050
bewusst 8037
An 8035
privaten 8021
Daten@@ 8020
Binnenmarkt 8014
unten 8010
genutzt 8007
Unter 8004
un 7994
ft 7987
Sonder@@ 7986
1999 7980
Allerdings 7980
beste 7979
letzte 7978
modernen 7975
eindeutig 7974
Sitzung 7966
Terrorismus 7965
Kriterien 7961
Organisationen 7961
tem 7960
bitten 7955
Protokoll 7954
X 7946
wi@@ 7944
entscheiden 7936
mi@@ 7932
deine 7930
ern@@ 7927
ente 7923
zahlreichen 7920
trotz 7919
amerikanischen 7914
gekommen 7914
B. 7906
Milliarden 7905
Berlin 7900
aufzu@@ 7893
Wahlen 7888
vorgelegt 7888
que 7886
übernehmen 7885
danke 7880
R 7879
neues 7879
ell@@ 7878
do 7876
folgenden 7874
Viele 7870
= 7863
Aufgaben 7861
historischen 7859
Denn 7858
Wann 7849
Groß@@ 7846
April 7843
Ausschuß 7828
hotel 7824
sechs 7822
Vereinbarung 7819
v 7818
Selbst@@ 7817
Gesamt@@ 7815
erwartet 7815
ate 7814
stärker 7804
Anerkennung 7800
U 7788
tre@@ 7788
Li@@ 7785
ina 7785
fe 7778
im@@ 7777
schwer 7770
Haushalt 7768
Zustimmung 7764
folgen 7763
bilden 7749
Folge 7745
weg 7737
Einige 7733
nationale 7727
aler 7725
kennen 7725
Den 7724
Einrichtung 7724
Instrument 7721
Mittel@@ 7721
€ 7721
Urlaub 7718
größere 7715
Krieg 7704
Partei 7697
scher 7694
cher 7692
Adresse 7691
Obwohl 7691
volle 7679
Flughafen 7677
Dazu 7674
persönlichen 7668
teile 7663
gesprochen 7661
gs 7659
ing 7657
erkennen 7648
Gipfel 7647
hinweisen 7644
Staats@@ 7640
überzeugt 7638
Reformen 7635
berücksichtigen 7635
Falle 7627
Wunsch 7625
erlaubt 7616
Stabilität 7615
welches 7612
denken 7608
ausschließlich 7599
end@@ 7599
offen 7596
to@@ 7589
Mitteilung 7584
Tra@@ 7583
seines 7582
prüfen 7577
deutschen 7576
voll@@ 7558
tion@@ 7555
gleich@@ 7554
zudem 7554
dringend 7550
La 7545
tions@@ 7545
beide 7543
glauben 7537
sicherzustellen 7527
Verwaltung 7525
chte 7523
Volk 7521
alte 7520
Unterkategorien 7517
Nun 7516
ort 7515
fer 7511
erwähnt 7508
Atmosphäre 7506
Flug@@ 7505
Sektor 7505
zusätzliche 7499
Site 7496
auszu@@ 7490
Rei@@ 7485
globalen 7485
De@@ 7473
Durchführung 7463
wert 7462
unbedingt 7459
wahrscheinlich 7453
bau@@ 7452
tiert 7437
Systeme 7436
Dann 7431
beginnen 7430
Ihres 7429
Gesundheits@@ 7428
sa@@ 7427
oben 7426
industrie 7423
Idee 7422
prozess 7422
stelle 7421
ati@@ 7420
Le@@ 7413
gleiche 7413
N 7407
Wettbewerbsfähigkeit 7407
selbstverständlich 7400
kam 7394
ständig 7390
tete 7387
les 7384
werk 7383
gezeigt 7380
Vertrags 7373
tlichen 7368
kl@@ 7366
automatisch 7365
erk@@ 7365
so@@ 7362
au 7354
hoffen 7352
mer 7350
ären 7350
Mon@@ 7349
ging 7346
ir@@ 7341
Aufenthalt 7340
ac@@ 7339
pro@@ 7338
braucht 7336
200 7334
akzeptieren 7325
Falls 7316
bald 7312
tsch@@ 7309
Lo@@ 7307
Kinder@@ 7305
bestehenden 7305
ant 7304
abzu@@ 7301
zer@@ 7298
Haltung 7292
qu@@ 7292
ergreifen 7289
hält 7287
finanziellen 7278
Gebäude 7277
bau 7277
Sterne 7267
erzielt 7267
stell@@ 7266
gerecht 7265
ur 7264
entspricht 7263
getroffen 7262
wesentlich 7261
ran@@ 7258
Vorteile 7252
stimme 7252
Schließlich 7251
benutzt 7239
ck 7234
gel 7234
Hause 7229
Bei@@ 7219
Nutzen 7217
17@@ 7211
lagen 7201
Leute 7194
Restaurants 7194
wieder@@ 7194
Menschenrechts@@ 7188
umgesetzt 7186
Her@@ 7180
möglicherweise 7176
ig@@ 7174
Osten 7172
Technologien 7170
Ist 7169
kommenden 7169
unterschiedlichen 7157
eller 7151
abge@@ 7142
kaum 7138
festgelegt 7137
Zunächst 7136
men@@ 7133
notwendigen 7133
man@@ 7131
mindestens 7129
Ber@@ 7127
Einzel@@ 7127
entsprechende 7119
Prozent 7114
Produkt 7109
wünschen 7108
Medien 7094
Wer 7094
Ko@@ 7090
Preis@@ 7089
80 7087
and@@ 7086
anders 7081
tz@@ 7069
form@@ 7068
500 7051
Homepage 7049
par@@ 7046
Augen 7044
Frühstück 7038
lernen 7033
Spieler 7031
Tri@@ 7030
schaft 7026
geändert 7024
jene 7022
Kultur@@ 7013
moderne 7013
richten 7013
Irak 7004
Th@@ 7003
laufen 7003
platz 6997
alität 6994
Neben 6988
ra 6987
Funktionen 6981
Po@@ 6981
Fahr@@ 6976
aktuelle 6975
Israel 6974
beziehen 6974
pf@@ 6974
Produktions@@ 6973
än@@ 6958
Produkten 6950
nachdem 6947
übernachten 6944
Mitgliedstaat 6941
www.@@ 6935
Karte 6927
erfüllt 6922
Vereinten 6921
stärken 6917
zuletzt 6916
bedarf 6914
Chance 6912
senden 6911
lose 6910
Stadt@@ 6908
re 6907
politischer 6904
dar@@ 6900
Ak@@ 6896
Forderung 6891
Inter@@ 6890
sage 6888
aktiv 6877
ni@@ 6877
technische 6865
Initiativen 6861
Computer 6860
betonen 6860
dienen 6847
Lei@@ 6843
Abschließend 6841
freie 6838
Ru@@ 6832
barkeit 6832
mehreren 6828
New 6827
vollen 6824
Kar@@ 6813
hal@@ 6811
besonderen 6808
äre 6803
verfolgen 6802
Instrumente 6793
ales 6791
genannt 6789
ster@@ 6785
erfahren 6783
Management 6781
bel@@ 6781
erzielen 6777
sicherlich 6775
fort@@ 6774
handeln 6769
Kenntnis 6766
no@@ 6766
vermeiden 6765
Abgeordnete 6758
klare 6749
siehe 6747
17 6746
wer 6743
bestimmt 6739
Berichte 6738
rechts 6728
Regelung 6727
z. 6726
tu@@ 6721
Inhalte 6711
Kern@@ 6708
Zudem 6707
Zeichen 6704
trägt 6702
.. 6699
arbeitet 6692
vorgesehen 6685
verfügbar 6683
hi@@ 6681
beschlossen 6679
ssen 6678
siert 6669
Stimme 6668
à 6663
kt 6660
arbeit 6656
erhöhen 6653
entschieden 6648
wären 6645
Vielfalt 6643
Qualitäts@@ 6642
erungs@@ 6639
anderes 6635
gefordert 6635
nisse 6634
Verwaltungs@@ 6629
tra@@ 6625
Ausbildung 6622
Dollar 6622
Anspruch 6621
außer 6618
Kor@@ 6614
Währung 6613
ans 6608
Tätigkeit 6601
Monate 6596
Ausgaben 6594
ier@@ 6594
Wahl@@ 6592
Einrichtungen 6589
San 6587
Fonds 6585
benutzen 6584
verbessert 6582
stoffe 6580
lan@@ 6574
Produkt@@ 6573
konkrete 6571
Beitritt 6569
Bad 6568
Hand@@ 6561
Anwendungen 6560
Konzept 6549
H 6542
So@@ 6537
freue 6529
mon@@ 6523
Hotel@@ 6520
ß 6516
Abschluss 6515
els 6512
gend 6510
do@@ 6498
sagt 6496
é 6492
po@@ 6490
Über 6486
Veränderungen 6485
schreiben 6485
Informations@@ 6474
voller 6467
Ri@@ 6466
Qu@@ 6463
klicken 6460
ci@@ 6458
Gu@@ 6453
Einfluss 6448
rä@@ 6448
systems 6448
Engagement 6444
Einigung 6442
Kindern 6440
rechte 6436
darunter 6431
Stellungnahme 6422
Wege 6422
Gebieten 6421
Achtung 6417
Besuch 6417
finanzielle 6416
bes@@ 6411
Suche 6410
verkehr 6410
Kur@@ 6407
ari@@ 6406
sierung 6404
gelangen 6398
Familien 6395
hen 6388
Gemeinsamen 6385
funktioniert 6383
wollte 6382
alisierung 6378
enz@@ 6377
erter 6377
Vi@@ 6370
Lesung 6369
Zeitraum 6363
Natur@@ 6360
darstellen 6359
Web 6357
fällt 6357
euch 6355
Dis@@ 6352
gten 6351
freuen 6348
Zusammen@@ 6343
Dienste 6342
ausdrücklich 6339
Fischerei@@ 6334
Wohn@@ 6334
teten 6334
Privat@@ 6333
ma 6329
enten 6325
Antrag 6323
Web@@ 6321
Car@@ 6317
entweder 6312
richtigen 6312
Einhaltung 6308
Programms 6308
Prioritäten 6302
endes 6302
online 6301
gewährleistet 6300
erstellt 6298
möglichen 6297
ha@@ 6296
möglichst 6293
ob@@ 6284
durchaus 6283
zeiten 6281
me@@ 6279
Modell 6276
Standards 6274
erklären 6268
konzentrieren 6267
Sk@@ 6266
Rede 6263
ang 6262
Kontakt 6261
Zweifel 6259
Worte 6258
Jetzt 6257
Stärkung 6253
wider@@ 6250
Wein@@ 6243
dagegen 6241
ismus 6239
Forderungen 6238
gelegen 6237
Leistungen 6235
bedingungen 6235
Herausforderung 6226
eingehen 6226
geleistet 6222
lokalen 6221
Warum 6220
diskutieren 6219
welcher 6219
stellung 6217
Straße 6215
Sprachen 6212
Park 6207
21 6205
tionen 6205
90 6202
Menge 6196
PC 6186
Sommer 6180
per@@ 6180
Paris 6179
ent 6179
kan@@ 6175
kulturellen 6175
Ober@@ 6173
1@@ 6172
mm 6168
spielt 6167
langen 6163
ex@@ 6158
ser 6158
Arbeiten 6157
Kunst 6149
ation@@ 6148
ER 6143
positive 6142
1.@@ 6141
00@@ 6133
jederzeit 6133
Familien@@ 6132
mu@@ 6127
Dennoch 6125
Iran 6118
enn@@ 6116
geschehen 6113
Wei@@ 6112
speziell 6107
Vielen 6106
pp@@ 6106
prä@@ 6104
len@@ 6103
und@@ 6103
warten 6102
Aufnahme 6099
einiger 6094
regionalen 6094
Vergleich 6092
eng@@ 6092
Afrika 6085
Reise@@ 6085
Sorge 6082
verb@@ 6082
Mio. 6080
Hauses 6077
70 6073
angezeigt 6070
Arbeitslosigkeit 6069
feststellen 6069
informieren 6069
erenden 6064
erfolgen 6064
erungen 6064
teilweise 6060
Zweck 6059
Aspekt 6054
Bild@@ 6051
betrachtet 6050
Standard 6048
erleben 6047
gelegt 6040
laden 6038
Leider 6035
anischen 6029
Schweiz 6022
Webseite 6020
Februar 6019
achten 6019
Dokument 6018
wenden 6018
gewinnen 6012
Analyse 6011
zei@@ 6010
schi@@ 6009
unabhängig 6009
Paket 6008
Teile 6008
demokratische 6008
ons 6007
ator 6005
gegenwärtigen 6005
zwei@@ 6005
dank 6004
fi@@ 6004
hingewiesen 5998
schwierig 5997
geeignet 5995
verfolgt 5992
eu@@ 5991
oren 5988
programme 5988
Tier@@ 5983
gegenwärtig 5979
teil@@ 5977
Zeiten 5973
angesprochen 5973
nächste 5969
Berg@@ 5967
Partnerschaft 5962
Stand 5962
unterstütze 5961
chen@@ 5960
Kunst@@ 5949
starke 5940
gte 5937
ungsp@@ 5937
Or@@ 5933
sches 5932
WTO 5931
tätig 5930
ah@@ 5927
Überwachung 5927
fall 5926
19 5925
liebe 5925
Ad@@ 5922
Kunden@@ 5919
Angesichts 5917
20@@ 5916
Gen@@ 5913
Agrar@@ 5908
geh@@ 5907
Ja 5906
Status 5901
erscheint 5897
Luft@@ 5896
Debian 5892
Bel@@ 5887
markt 5884
tlich 5883
ie@@ 5882
22 5879
Angaben 5879
daten 5878
jeweils 5875
Entwicklungen 5871
Großbritannien 5871
Meiner 5869
ungs- 5868
folgende 5866
usw. 5865
dennoch 5860
ok@@ 5856
fordert 5855
Hintergrund 5852
entstehen 5852
Irland 5850
übrigen 5849
II 5847
erstellen 5847
Schutz@@ 5843
wenigen 5843
Richtlinien 5842
gestalten 5840
W 5839
Priorität 5831
Texte 5831
Verpflichtung 5830
führenden 5829
lin@@ 5823
benötigt 5818
Su@@ 5807
überprüfen 5803
unterschiedliche 5801
á@@ 5800
Wissen 5799
besuchen 5796
Beschäftigungs@@ 5794
absolut 5791
Bewertung 5790
Problemen 5785
Regelungen 5782
veröffentlicht 5778
Con@@ 5776
losen 5772
Brüssel 5768
raum 5766
vorliegenden 5765
ana 5760
Herstellung 5753
erforderlichen 5750
täglich 5746
Gleichzeitig 5743
inter@@ 5743
Globalisierung 5742
Personal 5740
Polen 5740
einsetzen 5740
ses 5740
Pi@@ 5736
19@@ 5733
eingerichtet 5729
ften 5728
legt 5724
lau@@ 5720
Griechenland 5717
Zeit@@ 5717
Kosovo 5716
CD 5710
Japan 5709
sichern 5707
AN@@ 5706
läuft 5703
profitieren 5700
Österreich 5698
Fortschritt 5697
vorhanden 5694
ler@@ 5693
Linux 5691
Rechnung 5690
mer@@ 5690
Mitteln 5689
Meter 5685
eingeführt 5685
Stellen 5684
ms 5684
acht 5682
positiv 5682
{ 5681
art 5679
ou@@ 5669
Entwurf 5666
Beteiligung 5664
bo@@ 5653
16@@ 5651
Ukraine 5646
Energie@@ 5641
ER@@ 5640
Geschäftsordnung 5640
Worten 5635
Formen 5632
gebiet 5632
Schul@@ 5631
persönlich 5631
Gegen@@ 5625
Mitte 5622
teil 5619
gew@@ 5617
Barcelona 5616
sicherheit 5614
27 5613
ess@@ 5613
Innovation 5612
Gesetz 5611
Arten 5610
weiterer 5609
ann@@ 5607
Grenz@@ 5605
aufmerksam 5601
werte 5600
Do@@ 5599
Sa@@ 5599
umfasst 5599
Sport@@ 5598
Verkehr 5597
Elemente 5596
links 5595
verbundenen 5592
miteinander 5589
Kompromiss 5583
Wel@@ 5580
Erklärungen 5573
Märkte 5564
führte 5564
umfassende 5564
Agentur 5561
beteiligt 5559
Bedürfnisse 5557
spricht 5557
w 5557
Kommunikation 5551
wesentlichen 5543
ertes 5542
Maße 5541
15@@ 5538
Moment 5535
Prinzip 5530
Booking.com 5526
Video 5524
Fest@@ 5520
offensichtlich 5517
August 5515
Garten 5515
Hersteller 5513
gruppen 5513
300 5512
no 5511
Jahrhunderts 5508
schutz@@ 5506
deten 5501
Sinn 5500
Kritik 5497
französischen 5495
nennen 5493
bestätigt 5492
Indien 5489
angeboten 5489
Abend 5486
sämtliche 5486
zufrieden 5486
Beihilfen 5484
Besucher 5478
Entschließungsantrag 5472
verlassen 5472
ce 5470
geschützt 5463
Grundsatz 5457
Europäer 5453
Aktionen 5447
stellte 5444
ität 5441
garantiert 5439
zentrum 5439
dient 5438
Installation 5436
Vielzahl 5433
größeren 5433
Absatz 5432
Ideen 5430
Euro@@ 5424
Regel 5422
ierung 5422
internationaler 5422
Empfehlungen 5420
1998 5415
stattfinden 5415
UN 5413
Fraktionen 5407
Gründe 5406
ad 5404
zug 5403
kaufen 5401
ep@@ 5400
zentrale 5399
Am@@ 5397
ca. 5394
gelöst 5392
keinerlei 5388
Au@@ 5384
Banken 5381
Stil 5380
gruppe 5380
mittel@@ 5379
alismus 5377
rechtlichen 5366
Anteil 5361
anlagen 5359
Umfang 5358
lichem 5356
Ni@@ 5355
ss@@ 5352
heiten 5351
stre@@ 5351
tiges 5348
Druck@@ 5346
Komfort 5344
su@@ 5342
ologie 5340
tsp@@ 5340
EN@@ 5338
land@@ 5338
bel 5337
schließen 5337
London 5335
gra@@ 5332
nationaler 5332
Gebiete 5327
solcher 5327
finde 5324
fahrt 5323
vorgeschlagenen 5323
Bu@@ 5320
Mi@@ 5319
sieren 5319
ausreichend 5318
West@@ 5314
cht@@ 5312
Treffen 5308
politisch 5306
La@@ 5304
Terrasse 5303
Verhältnis 5298
betrachten 5294
stehenden 5292
ven 5290
Agenda 5280
jüngsten 5277
IN@@ 5274
Mor@@ 5272
Ö@@ 5267
schlagen 5265
gang 5262
schönen 5262
überall 5261
Botschaft 5260
Flexibilität 5255
länger 5254
Ereignisse 5249
co 5249
großes 5249
est 5248
spezielle 5247
garantieren 5246
fähigkeit 5245
Klein@@ 5244
ausschuss 5242
erhält 5242
ph@@ 5241
Realität 5237
Kirche 5233
starken 5233
wirken 5233
Mitgliedern 5231
Liberalisierung 5229
res 5227
einfache 5223
} 5223
Lu@@ 5222
ßen 5221
du@@ 5220
Hoffnung 5217
tik 5214
Grunde 5209
d. 5209
Außen@@ 5206
staatlichen 5206
reden 5202
vorschlagen 5201
Zei@@ 5199
allgemeine 5199
ST@@ 5194
betroffenen 5191
h. 5191
ES 5190
ungs 5190
beinhaltet 5185
britischen 5184
rei@@ 5184
entsprechen 5181
festgestellt 5181
übertragen 5180
danach 5179
nachhaltige 5177
elles 5174
# 5172
Betrieb 5172
ho@@ 5171
Verständnis 5169
Beschreibung 5166
tr@@ 5166
Risiken 5161
enz 5160
groß 5156
Leistung 5154
Wer@@ 5153
schutz 5150
einverstanden 5149
Niveau 5148
gu@@ 5147
No@@ 5146
Eindruck 5145
unbe@@ 5145
Per@@ 5140
abgeschlossen 5139
from 5139
rechten 5129
uner@@ 5129
Koordinierung 5120
gegründet 5120
Unternehmens@@ 5117
fahr@@ 5117
tisch 5116
Auto 5114
Gesetzgebung 5114
Titel 5112
schaften 5111
daraus 5110
stra@@ 5110
kraft 5108
betroffen 5106
feld 5106
Gas@@ 5095
Monat 5094
geschieht 5092
angeht 5091
gem@@ 5091
23 5090
mittels 5090
35 5089
Diskriminierung 5085
san@@ 5084
Patienten 5081
verloren 5079
ia 5078
lä@@ 5076
Erhöhung 5075
Risiko 5073
ren 5072
Aufbau 5069
Methode 5069
einerseits 5068
erfordert 5067
Jeder 5066
informiert 5062
Voraussetzungen 5056
zählen 5056
See 5055
Nord@@ 5054
Gegenteil 5053
Überprüfung 5053
Prüfung 5052
länder 5047
Name 5045
Br@@ 5042
ta 5031
Ho@@ 5030
Business 5024
Hinweis 5024
Sal@@ 5023
End@@ 5021
Politiker 5021
besitzt 5021
rat 5021
gutes 5019
Sehenswürdigkeiten 5009
bezeichnet 5007
ori@@ 5007
Größe 5006
Klima@@ 5006
min@@ 5006
mann 5005
strategie 5002
trag@@ 5000
Tre@@ 4999
rück@@ 4997
Geld@@ 4994
ien 4994
dung 4991
satz 4991
you 4987
speziellen 4985
Villa 4982
empfehlen 4976
nahme 4973
He@@ 4972
zuvor 4972
Bank 4970
Prä@@ 4969
erhöht 4968
gehalten 4966
Tradition 4963
Gegensatz 4962
besseren 4962
sor@@ 4956
cke 4952
son 4952
go@@ 4950
ES@@ 4949
Kontroll@@ 4949
einzigen 4949
beginnt 4948
mel@@ 4946
Bundes@@ 4944
Unabhängigkeit 4944
Phase 4942
diskutiert 4941
fung 4940
zen@@ 4940
Grundrechte 4936
reisen 4936
kre@@ 4931
wichtigste 4930
ich@@ 4929
punkt 4928
geschrieben 4927
All 4925
manchmal 4922
AR@@ 4920
Netzwerk 4918
Bank@@ 4917
1,@@ 4908
zusätzlich 4907
Klicken 4905
2.@@ 4904
Museum 4902
Königreich 4901
ör@@ 4900
Technik 4899
Universität 4898
$ 4896
haus 4895
Film 4894
wirtschaft 4893
echte 4889
greifen 4889
10@@ 4888
aren 4887
andererseits 4886
produktion 4886
lig 4884
Not@@ 4881
einander 4880
ters 4879
Mindest@@ 4876
betont 4876
digen 4876
wodurch 4875
Innen@@ 4874
Wirkung 4872
Bestandteil 4871
Amsterdam 4869
bewegen 4868
EG 4866
globale 4866
mp@@ 4866
reagieren 4866
sicherstellen 4866
Kre@@ 4865
ländlichen 4864
Betriebs@@ 4863
Vertrags@@ 4863
Anpassung 4860
Durch@@ 4859
Internationalen 4859
ün@@ 4859
ren@@ 4858
Zahlen 4857
hauptsächlich 4854
lungs@@ 4853
positiven 4852
ener 4845
steigen 4845
spezifischen 4842
Willen 4841
Mann 4839
Teilen 4839
Dimension 4837
tik@@ 4837
Gar@@ 4836
Nutzer 4833
ständigen 4831
tel@@ 4830
Begriff 4827
Welche 4823
alt 4820
vollkommen 4818
bezieht 4814
glichen 4813
seitens 4813
isch@@ 4811
jungen 4808
onen 4806
Bedarf 4805
Fuß 4805
derzeitigen 4803
Musik@@ 4802
reich@@ 4802
To@@ 4801
anten 4800
International 4799
Q@@ 4799
tn@@ 4798
Klimawandel 4797
Infrastruktur 4793
reicht 4793
lich@@ 4791
rü@@ 4791
Fälle 4789
Ebenso 4788
Führung 4788
Einklang 4783
ino 4783
zeit@@ 4777
Ger@@ 4776
komplett 4775
stimmt 4774
Voll@@ 4772
Kollege 4768
sse 4767
Vorteil 4766
ischem 4765
erende 4763
AS@@ 4762
Öl@@ 4762
Anlagen 4760
Reaktion 4759
trifft 4758
zustimmen 4756
bekannten 4755
sobald 4755
mü@@ 4754
Hei@@ 4752
Post@@ 4751
Bedenken 4750
Dienst 4748
ausschusses 4748
war@@ 4748
kur@@ 4746
Meeres@@ 4744
zugleich 4741
kürzlich 4740
tri@@ 4738
akzeptiert 4736
neu@@ 4736
IT@@ 4734
Zahlungs@@ 4734
Ratspräsident 4733
Übereinkommen 4733
Mark@@ 4726
Pal@@ 4723
Diskussionen 4721
welchen 4720
regionale 4719
1997 4717
Gott 4715
emp@@ 4715
Links 4714
go 4713
Fotos 4712
guter 4710
Grundsätze 4709
Gesetze 4708
persönliche 4707
Berücksichtigung 4706
Struktur 4706
nissen 4706
gestern 4705
Option 4704
unternommen 4703
Sanktionen 4698
Vorbereitung 4698
Leitlinien 4697
Unterschiede 4696
UN@@ 4693
Anliegen 4691
Kraft@@ 4687
nis@@ 4682
Portugal 4681
mag 4681
befassen 4678
AL@@ 4675
Wirtschafts- 4674
service 4673
beschäftigt 4672
vielmehr 4670
Nacht 4669
konkreten 4669
Männer 4668
praktisch 4666
Si@@ 4665
Hälfte 4664
nochmals 4664
schneller 4662
Umständen 4661
Methoden 4658
kostenlos 4658
Reise 4657
relativ 4655
spezifische 4655
gezogen 4654
gewisse 4653
Ku@@ 4647
Fähigkeit 4646
weiteres 4644
betreffen 4634
Sport 4633
Strategien 4633
behörden 4633
äu@@ 4631
mögliche 4630
Fischerei 4627
ve 4627
Firmen 4626
fühlen 4624
damals 4623
sto@@ 4623
Cor@@ 4622
entwicklung 4615
jährlich 4613
bern 4612
Seine 4611
Beifall 4610
ergeben 4607
ec@@ 4606
Kan@@ 4605
gewählt 4605
mes 4600
regelmäßig 4600
sm@@ 4598
beachten 4595
Min@@ 4592
komm@@ 4591
u. 4591
testen 4589
Charakter 4587
verstärkt 4585
verk@@ 4582
Erde 4580
abhängig 4577
geöffnet 4577
14@@ 4576
Versuch 4575
herzlich 4574
verlieren 4574
Verträge 4572
co@@ 4572
welt 4572
System@@ 4571
management 4562
ländern 4561
berühmten 4557
net 4557
El@@ 4554
Völker 4554
Dokumente 4551
lung 4551
Plan 4550
tel 4550
behandeln 4547
hand@@ 4546
Zwei@@ 4545
Landwirte 4544
Waren 4543
anerkannt 4543
wichtiges 4543
DE 4542
pl@@ 4542
Nachdem 4541
tigkeit 4541
Inseln 4540
gef@@ 4538
Städte 4535
he 4534
Beim 4533
dritten 4530
Aussicht 4529
see 4526
lt 4524
Verbrechen 4523
ys 4522
tä@@ 4517
zer 4517
Haup@@ 4516
Bildungs@@ 4515
Licht 4514
Ordnung 4511
einzelne 4511
verlangen 4511
Trotz 4510
AT@@ 4509
Empfehlung 4509
This 4509
Effizienz 4508
Unternehmens 4508
Bis 4506
Gefühl 4505
Maßnahme 4505
Weitere 4503
Wieder@@ 4503
FR 4502
arten 4502
ei 4502
ierte 4502
umfassenden 4501
une 4500
junge 4499
Club 4497
Rechts 4497
sonst 4496
zeichnet 4495
Antworten 4493
Wegen 4490
gek@@ 4488
Bewegung 4487
Teilnahme 4487
Unterkunft 4487
berg 4485
Liefer@@ 4479
fra@@ 4479
berei@@ 4477
basiert 4476
liefern 4475
Services 4474
früher 4474
künftig 4473
Laufe 4472
Tiere 4472
anbieten 4470
last 4470
übernommen 4470
45 4469
Lebensmittel@@ 4469
Voraussetzung 4469
bar@@ 4468
Amerika 4467
dienste 4467
Vielleicht 4463
zufolge 4463
keiner 4460
hafte 4457
rufen 4457
Grenze 4456
traditionellen 4456
fälle 4453
Untersuchung 4452
Delegation 4451
seien 4451
gelungen 4450
pi@@ 4450
ks 4448
Schlüssel@@ 4447
Ä@@ 4447
Teil@@ 4445
haften 4445
Agrarpolitik 4442
nis 4441
Sprach@@ 4440
deiner 4438
sam@@ 4438
en- 4437
Ausland 4436
barer 4434
stoff 4434
Generation 4433
ds 4432
lö@@ 4429
ehr@@ 4428
grundlegenden 4428
haft 4428
ür@@ 4427
uren 4426
Ti@@ 4420
ist@@ 4420
seite 4417
unver@@ 4415
Studie 4412
heraus@@ 4410
schöne 4409
he@@ 4406
Absicht 4404
World 4404
Aufgrund 4402
ideal 4400
stes 4399
Entwicklungsländern 4397
for@@ 4396
j 4396
Mein 4395
Tagung 4395
Rezeption 4394
Test@@ 4388
room 4387
glich 4385
Absch@@ 4384
Ratsvorsitz 4384
gest@@ 4381
Definition 4380
Mehr 4379
breite 4377
ideale 4377
karte 4376
Geist 4375
bildet 4375
cher@@ 4375
hergestellt 4375
bezug 4374
Por@@ 4370
mitteln 4362
fonds 4359
nötig 4359
Allgemeinen 4356
angemessen 4356
wiederum 4354
elt 4353
genauso 4353
menschlichen 4351
Ju@@ 4350
19. 4349
iz@@ 4349
wesentliche 4349
niemand 4348
deutsche 4347
Ferner 4345
leistungs@@ 4340
schwierigen 4340
Dr. 4338
Freude 4336
Veranstaltungen 4336
bildung 4335
Vom 4333
va 4330
zweifellos 4327
ernst 4324
regeln 4323
ehemaligen 4322
Wettbewerbs@@ 4320
Gel@@ 4316
av@@ 4315
etz@@ 4315
liste 4315
jemand 4314
stoff@@ 4313
dlich 4312
tut 4312
istischen 4310
War@@ 4309
Friedens@@ 4303
Angebote 4300
Regierungs@@ 4299
etc. 4297
lu@@ 4297
Apartments 4294
Abkommens 4290
IS@@ 4290
staatliche 4288
gefördert 4285
Center 4282
Zustand 4282
frei@@ 4282
Verhalten 4281
Normen 4280
zunehmend 4280
legung 4279
inen 4277
Bal@@ 4276
Sti@@ 4273
Schäden 4271
dr@@ 4271
Buch 4270
Verfügbarkeit 4269
York 4266
Op@@ 4264
Wahrheit 4262
gem 4261
weltweiten 4261
soweit 4259
Sehr 4257
Internet@@ 4256
rasch 4255
fand 4250
höchste 4244
Teilnehmer 4243
län@@ 4242
wissenschaftlichen 4241
Freunde 4240
Download 4239
tritt 4238
Eigen@@ 4236
Strukturfonds 4236
Kapital@@ 4235
Farben 4234
Stunde 4233
ligen 4233
For@@ 4232
bedeuten 4231
21. 4228
Harmonisierung 4228
ou 4228
sofern 4228
Anti@@ 4227
international 4227
ast@@ 4224
des@@ 4223
vier@@ 4221
Gedanken 4220
sieben 4218
Doppel@@ 4217
Liebe 4217
tim@@ 4216
fte 4214
Altstadt 4213
hervor@@ 4209
höhere 4208
met@@ 4206
staaten 4206
Pan@@ 4205
Pflicht 4204
private 4203
Versch@@ 4200
ard 4197
betreffenden 4197
gene 4196
Anfragen 4195
Format 4193
ckt 4193
Regime 4192
Überzeugung 4192
Eigenschaften 4189
Nahen 4188
genen 4187
weshalb 4187
Kombination 4185
zusätzlichen 4185
1996 4184
Datenbank 4183
tiv@@ 4182
Hin@@ 4181
Schaden 4181
Haus@@ 4180
Klimaanlage 4180
ppen 4179
Schweden 4177
32 4172
Z 4171
Lebens 4170
í@@ 4169
gh@@ 4168
fordere 4165
hoher 4164
amerikanische 4163
Festlegung 4162
ton 4162
schätzen 4161
aufzunehmen 4159
fassen 4159
Drittländern 4158
Ur@@ 4157
Dadurch 4156
künftigen 4155
eng 4154
umzusetzen 4154
Verbesserungen 4152
italienischen 4150
por@@ 4150
umwelt@@ 4150
grundlegende 4149
Code 4147
Farb@@ 4147
Landschaft 4145
Projekt@@ 4145
Wirklichkeit 4145
gratulieren 4145
organisation 4144
Zugriff 4143
Microsoft 4141
Telefon 4141
kulturelle 4141
Änderungsanträgen 4139
Erwartungen 4136
ergriffen 4134
very 4134
Waffen 4133
essen 4132
stadt 4132
näher 4128
Bürger@@ 4126
Ta@@ 4126
ziemlich 4125
aufgefordert 4124
Angriff 4123
wasser@@ 4123
niemals 4122
allgemein 4121
lungen 4121
KMU 4119
lebens@@ 4119
Mess@@ 4118
Minister 4118
Ne@@ 4118
Ruhe 4117
Kom@@ 4116
ef@@ 4116
bek@@ 4115
begonnen 4112
Süd@@ 4110
bu@@ 4109
kurzem 4109
Vorschlägen 4108
Werk@@ 4107
abgelehnt 4107
entscheidend 4105
historische 4105
@ 4104
Innen 4104
sionen 4104
lang@@ 4103
Ski@@ 4102
sel@@ 4102
qualität 4101
entwickelten 4100
EL@@ 4098
Formular 4098
Westen 4098
Stellung 4097
Auftrag 4095
NATO 4095
Übereinstimmung 4095
Einstellung 4094
Mittelpunkt 4093
Ratspräsidentschaft 4092
Nor@@ 4090
produkte 4087
Best@@ 4086
Karten 4086
enst@@ 4085
führende 4085
bekämpfen 4084
chs 4084
kämpfen 4084
Spiele 4081
Bahnhof 4080
Material 4078
sions@@ 4076
anstatt 4074
ingen 4074
Ohne 4073
Strukturen 4073
Zimmern 4072
interessiert 4072
bt 4071
mm@@ 4071
entgegen@@ 4070
iger 4070
sehe 4070
Mal@@ 4069
erscheinen 4068
Beispiele 4065
begann 4063
Kenn@@ 4060
gliche 4060
Verhandlungs@@ 4058
bahn 4055
Berufs@@ 4054
Rumänien 4053
Emissionen 4049
Fi@@ 4049
eiten 4049
riesigen 4049
werke 4046
Bus@@ 4045
hervorheben 4045
ordnung 4044
erheblich 4042
sion 4040
Fra@@ 4038
beglückwünschen 4037
UNO 4036
ausgezeichneten 4036
van 4034
Entwicklungsländer 4033
freiheit 4033
Körper 4032
Des@@ 4031
Rad@@ 4031
Experten 4029
Mehr@@ 4027
Punkten 4027
wunder@@ 4027
Unterschied 4025
Dar@@ 4023
teilnehmen 4023
Arbeitsplätzen 4022
we@@ 4022
75 4021
Ziel@@ 4021
Justiz 4020
Roma 4019
unmittelbar 4018
Holz@@ 4017
Kategorie 4017
St. 4017
zugunsten 4017
2020 4016
verlangt 4016
vo@@ 4015
offenen 4014
Besch@@ 4013
Standard@@ 4013
bequem 4013
ver 4012
Google 4010
Süden 4010
bemüht 4010
falsch 4009
Sitz 4008
hilft 4008
kleiner 4006
hängt 4004
natürlichen 4004
Ausführungen 4003
Du@@ 3998
af@@ 3998
heraus 3998
nung 3998
spanischen 3997
Nachfrage 3996
wagen 3995
wirksam 3995
ette 3994
Lehr@@ 3992
are@@ 3990
nachhaltigen 3990
Bau 3988
zentralen 3987
20. 3985
wirtschaftlicher 3984
Fre@@ 3982
Krankheiten 3981
ierten 3980
bestand 3978
formen 3978
Ba@@ 3977
annehmen 3977
weg@@ 3976
Nein 3975
durchzuführen 3975
Serie 3973
komme 3973
ursprünglichen 3973
Tatsächlich 3972
dete 3972
mar@@ 3969
zuständigen 3969
hol@@ 3968
Ob 3967
² 3967
Hauptstadt 3966
Pa@@ 3966
zeichen 3965
Anlage 3964
Architektur 3964
schafft 3964
trotzdem 3964
stellungen 3963
zieht 3963
San@@ 3961
BIP 3960
Tod 3959
angemessene 3959
lautet 3959
ed 3958
berechtigt 3951
ausgezeichnete 3950
preis 3948
tere 3948
26 3946
Atom@@ 3944
ik 3944
Stadtzentrum 3943
bauen 3943
tt@@ 3942
inzwischen 3941
Pre@@ 3939
schicken 3938
sorgt 3938
Kunde 3935
Verbraucher@@ 3935
installiert 3935
leiden 3935
Beweis 3934
Materialien 3934
verabschiedet 3934
erer 3933
atoren 3932
gabe 3932
Drittens 3931
öffnen 3930
DVD 3927
Klima 3926
CO2 3923
Steuern 3923
Mitgliedschaft 3922
Verringerung 3922
entwurf 3922
Kooperation 3921
stand@@ 3921
tion 3921
Plenum 3920
verstanden 3920
vorgenommen 3918
elten 3916
Gästen 3915
eröffnet 3915
verändert 3914
Com@@ 3913
Regierungskonferenz 3911
Schule 3911
führ@@ 3911
28 3910
ener@@ 3910
besitzen 3908
eter 3907
Aussch@@ 3906
fel@@ 3906
straße 3904
sinnvoll 3901
stoffen 3901
willkommen 3901
Freiheiten 3899
hervorragende 3898
2. 3896
tenden 3896
IC@@ 3895
Kann 3894
preise 3894
Einbeziehung 3893
Vereinbarungen 3893
Außenpolitik 3891
Weiter@@ 3890
markt@@ 3889
westlichen 3888
notwendige 3887
Kind 3886
weist 3886
gre@@ 3879
klaren 3879
Details 3877
behalten 3877
tät 3875
Afghanistan 3874
Ziffer 3873
rein@@ 3873
Gleichgewicht 3872
derartige 3872
zuerst 3872
eigenes 3871
vollständige 3871
bericht 3869
Dem@@ 3868
funktionieren 3868
pre@@ 3867
enti@@ 3865
ano 3864
führer 3864
ruhigen 3863
RE@@ 3862
erlauben 3862
Minderheiten 3858
fre@@ 3858
Problems 3857
Fl@@ 3856
Charta 3855
Projekten 3851
fach@@ 3850
verursacht 3850
hinter@@ 3849
form 3848
Leistungs@@ 3846
stan@@ 3846
echten 3844
Konflikt 3842
Verkauf 3839
,00 3838
Partnern 3835
äl@@ 3835
Sonnen@@ 3834
anische 3833
dritte 3833
enk@@ 3833
schlägt 3833
zählt 3830
its 3827
Prinzipien 3825
Verbot 3825
ches 3823
zugänglich 3823
Küste 3821
Fer@@ 3817
rate 3817
reich 3817
Straf@@ 3816
einfachen 3816
Politiken 3815
Forum 3812
gegangen 3812
kostet 3811
beträgt 3808
vieler 3807
Drogen@@ 3806
erhältlich 3806
spiel 3806
Ausnahme 3804
Vorschlags 3803
buchen 3801
hr@@ 3800
Abschnitt 3799
ini 3799
Gesch@@ 3796
Programmen 3795
cker 3795
sta@@ 3795
tive 3795
bild 3792
Beratung 3788
Austausch 3785
Ha@@ 3785
Y 3783
Nutz@@ 3781
Winter@@ 3781
pa@@ 3781
tigung 3781
Ka@@ 3779
systemen 3779
Dem 3778
ls 3778
Sen@@ 3777
neuesten 3777
schnelle 3776
bestätigen 3775
geprüft 3775
Nachfolgend 3774
bereiche 3774
Werk 3773
dliche 3773
früheren 3773
begrüßt 3772
erweitert 3772
ste@@ 3772
Maß 3771
IP 3769
Kal@@ 3769
ausgesetzt 3769
gkeit 3769
durchführen 3768
vorlegen 3767
eri@@ 3766
98 3764
Link 3764
Institution 3763
Verteidigung 3763
Kamera 3759
sichere 3756
Mikro@@ 3755
11. 3754
Element 3754
age 3753
Pra@@ 3751
not 3748
institutionellen 3747
Reform@@ 3742
Faktoren 3741
ini@@ 3738
lat@@ 3737
dir 3734
ub@@ 3734
Gi@@ 3733
rechtliche 3731
entdecken 3730
verleihen 3730
haltung 3728
wollten 3728
Ausführung 3727
gespielt 3727
Boden 3725
Mu@@ 3725
Bemerkungen 3724
Tisch 3724
Fernseh@@ 3723
zimmer 3722
beschränkt 3721
geltenden 3721
aktive 3720
mehr@@ 3719
schön 3718
cks 3717
AC@@ 3712
öffentlich 3712
hilfe 3711
Gespräche 3709
tens 3709
ven@@ 3709
01 3707
Gerichtshof 3704
ferner 3704
Pat@@ 3703
ft@@ 3703
Har@@ 3702
Einwanderung 3701
Fähigkeiten 3701
organisiert 3701
leiten 3700
gearbeitet 3699
rechts@@ 3699
entstanden 3698
Immobilien@@ 3697
starten 3697
Gebrauch 3696
ausgesprochen 3696
chinesischen 3694
etten 3692
om 3692
vorschriften 3692
teren 3691
verringern 3691
Gesellschaften 3690
gerichtet 3690
vers@@ 3690
Angst 3689
sodass 3689
il 3687
Schwerpunkt 3686
13@@ 3685
hinzufügen 3685
höchsten 3684
Ost@@ 3683
höher 3683
schafts@@ 3683
einheitlichen 3680
Bucht 3679
Militär@@ 3679
that 3679
Arbeitsmarkt 3677
Handeln 3677
Marktes 3677
Sub@@ 3677
verehrte 3677
sischen 3676
Mobilität 3675
Energi@@ 3673
Motor@@ 3671
Sorgen 3670
Anbieter 3669
Vol@@ 3669
Tor@@ 3668
Zentralbank 3668
organisationen 3668
Fenster 3667
ier 3666
produziert 3666
we 3666
Konsens 3665
Norden 3664
Netz 3661
Zielen 3661
kurze 3661
Verbindungen 3659
inn@@ 3658
erleichtern 3657
Zentral@@ 3654
Hostels 3653
Vorgehen 3653
Alternative 3652
Gast@@ 3652
ark@@ 3652
solange 3652
assen 3651
fa@@ 3651
Ges@@ 3650
our 3650
gli@@ 3648
verhindert 3647
Wird 3646
eins 3646
ide@@ 3646
fl@@ 3645
Websites 3644
gehende 3644
Win@@ 3643
dienst 3642
mitten 3642
Nachrichten 3639
page 3639
Tourismus 3637
amen 3637
definiert 3637
Beiträge 3636
verschiedener 3636
Le 3632
ment@@ 3631
tlicher 3631
Signal 3629
Garantie 3627
wann 3625
Besorgnis 3624
Gestaltung 3624
OS 3623
übernimmt 3623
Umgang 3622
entlang 3622
Kommunikations@@ 3621
grün@@ 3621
passiert 3620
Maschinen 3619
Wien 3617
wor@@ 3617
bemühen 3616
unmöglich 3616
ausgeschlossen 3614
zes 3614
wachsen 3612
Spezi@@ 3609
Ban@@ 3608
Hohen 3608
Nicht@@ 3608
Sach@@ 3607
aktivieren 3607
rein 3607
bin@@ 3604
Beziehung 3603
res@@ 3603
Fu@@ 3602
prozesses 3602
werfen 3602
è@@ 3602
Kopf 3600
aufnehmen 3599
nieder@@ 3599
Deswegen 3598
Wissenschaft 3597
EL 3596
zahl@@ 3596
äußern 3594
ige 3592
Kauf@@ 3590
° 3590
gezwungen 3588
nor@@ 3586
verurteilt 3586
1995 3585
dlichen 3585
fern 3585
ett 3584
fehlt 3581
ris@@ 3581
Künstler 3580
Gr@@ 3579
Dra@@ 3578
Geräte 3578
schönsten 3578
wesen 3578
bl@@ 3577
breiten 3576
welt@@ 3575
ro 3574
einig 3571
Pap@@ 3570
Super@@ 3570
Werbung 3570
Eltern 3569
letztlich 3568
sicher@@ 3567
welchem 3565
Straßen 3564
Optionen 3559
gan@@ 3558
extrem 3557
gr@@ 3557
jenen 3557
eingesch@@ 3555
bezahlen 3554
™ 3554
Wohl@@ 3553
Komponenten 3551
Lin@@ 3551
Mensch 3551
Staat@@ 3551
Hel@@ 3549
Jedes 3548
fläche 3548
zus@@ 3548
Video@@ 3547
anlage 3547
lie@@ 3547
LE@@ 3545
Hal@@ 3543
ner@@ 3543
ats 3541
aussprechen 3540
rau@@ 3538
SP@@ 3536
ativen 3534
tin 3531
Schlussfolgerungen 3530
Tur@@ 3529
Zusatz@@ 3529
pe@@ 3529
gesellschaft 3527
Dort 3526
Schluss 3526
abkommen 3526
setzung 3525
Kontrollen 3523
Des 3522
präsentiert 3521
Ausgangspunkt 3520
ili@@ 3520
musste 3520
Sektoren 3519
son@@ 3519
Untersuchungen 3518
kurzen 3516
nunmehr 3516
Klasse 3514
Beschluss 3513
überzeugen 3513
Luft 3512
entscheidende 3510
ausgeführt 3506
abgestimmt 3505
Asien 3504
Erzeugnisse 3504
gewährt 3504
esen 3503
übrigens 3501
Planung 3500
jegliche 3500
400 3499
wal@@ 3498
Hilfs@@ 3497
bestehende 3497
strategischen 3496
sorgfältig 3494
tor@@ 3494
direkten 3493
heutige 3493
AKP 3492
Kl@@ 3492
gsten 3492
lige 3492
halt 3491
str@@ 3491
mt 3489
Vorsitz 3488
sei@@ 3488
erinnert 3487
werten 3487
Identität 3485
fähig 3485
Jahres@@ 3481
höheren 3480
zusammenarbeiten 3480
Übersetzung 3480
Rechtsgrundlage 3479
scheinen 3479
schließt 3477
Wider@@ 3476
City 3475
Te@@ 3475
De 3474
ass@@ 3474
ständige 3474
erhebliche 3473
Chancen 3471
Chi@@ 3471
chter 3466
Plattform 3465
russischen 3465
Plan@@ 3463
RO@@ 3463
verändern 3463
ic@@ 3462
na 3462
Sozi@@ 3461
beruht 3461
verdient 3461
All@@ 3458
Golf 3458
tten 3458
bestimmter 3457
Spar@@ 3456
br@@ 3454
Aktion 3453
wiederholen 3451
Wi@@ 3450
ll@@ 3448
tierung 3448
lag 3446
Also 3445
Start 3445
Veranstaltung 3445
Verbreitung 3445
Ambiente 3444
Förder@@ 3444
sprachen 3442
Veröffentlichung 3441
pr@@ 3441
bestimmen 3440
Bereitstellung 3439
nahm 3439
Bemerkung 3438
Kapitel 3438
verstärken 3437
Gro@@ 3435
eingereicht 3433
fällen 3431
betreffend 3430
Flu@@ 3429
Met@@ 3428
Morgen 3428
außerordentlich 3428
El 3427
Kräfte 3427
Winter 3427
reiche 3426
Pol@@ 3423
gebiete 3423
interessante 3423
Insbesondere 3422
150 3419
ets 3419
ise 3419
spiel@@ 3419
vorher 3416
istische 3415
Ausstellung 3414
Beschlüsse 3414
ße 3414
Mag@@ 3413
Me@@ 3411
nahezu 3410
Geschäfte 3409
National@@ 3409
sion@@ 3409
Multi@@ 3406
0,@@ 3405
Costa 3404
effektiv 3404
Umfeld 3403
tief@@ 3403
99 3402
Sol@@ 3402
fs 3402
tig@@ 3402
vorhandenen 3402
beschäftigen 3401
betrieben 3400
Einstellungen 3399
Zwecke 3398
Englisch 3397
är 3397
Pu@@ 3396
beigetragen 3396
lig@@ 3395
dürfte 3394
2011 3393
sucht 3393
Transport@@ 3392
Farbe 3391
stands 3391
unverzüglich 3389
Ausgabe 3387
Alter 3386
reduzieren 3386
this 3386
druck 3385
ara 3384
Bedrohung 3383
Bestellung 3383
Männern 3382
vorzu@@ 3382
sicht 3381
läßt 3380
ron@@ 3380
schlecht 3379
fu@@ 3377
dert 3375
anbelangt 3374
toren 3374
Dorf 3373
Go@@ 3372
PL 3372
Wein 3372
ff 3372
mus 3372
3. 3371
Datenschutz@@ 3371
lösung 3369
sierten 3367
umgeben 3367
ungefähr 3367
Vorstellung 3366
ante 3365
gespeichert 3365
nahmen 3365
liefert 3364
gender 3363
Kosten@@ 3362
Selbstverständlich 3360
finanziert 3360
britische 3359
sa 3359
Rau@@ 3358
š@@ 3358
entscheidender 3357
Studien 3356
ant@@ 3356
Geb@@ 3355
jener 3355
aufen 3354
Bus 3353
Katastrophe 3353
anwesend 3353
aussch@@ 3353
wünsche 3353
ó@@ 3353
Ben@@ 3352
eignet 3352
Ausstattung 3351
Chinas 3351
verhalten 3351
Krankheit 3350
Zivilgesellschaft 3350
entsteht 3350
gestaltet 3350
Wohlstand 3349
Erholung 3348
fäl@@ 3348
theit 3348
beteiligen 3347
har@@ 3347
ker@@ 3347
chs@@ 3343
versorgung 3342
Entscheidungs@@ 3341
Buch@@ 3340
Hafen 3340
laut 3340
Kol@@ 3338
installieren 3338
Badezimmer 3337
kor@@ 3336
Auto@@ 3335
Nieder@@ 3335
tierten 3334
lokale 3333
12@@ 3332
igen 3332
23@@ 3331
Bas@@ 3330
95 3329
Gründung 3328
PT 3328
d.h. 3328
einzigartige 3328
wa@@ 3328
az@@ 3327
eingehalten 3326
eres 3326
Gerichte 3325
fin@@ 3325
serviert 3325
Poli@@ 3323
einrichtungen 3323
ings 3322
Glaubwürdigkeit 3320
Zoll@@ 3320
beraten 3320
tiven 3320
ersch@@ 3319
tur@@ 3319
wahr@@ 3318
sprach 3317
direkte 3316
position 3316
Staates 3315
äm@@ 3315
Haftung 3314
Kollegin 3314
schauen 3314
größer 3312
Browser 3311
Schlafzimmer 3310
Kontext 3309
Volks@@ 3309
stellten 3309
vorbereitet 3309
nden 3307
dre@@ 3306
fe@@ 3306
sätze 3306
Vision 3305
derer 3305
einbezogen 3305
Konsequenzen 3303
Selbst 3303
Spa 3303
Dom@@ 3302
Mangel 3302
Transport 3302
angebracht 3300
gebieten 3300
Ra@@ 3299
The@@ 3299
getragen 3299
grundsätzlich 3299
ss 3299
mut@@ 3298
zt 3298
mal@@ 3297
verkaufen 3297
Foto 3296
verkehrs 3296
zy@@ 3295
Hinter@@ 3294
sicheren 3294
stu@@ 3294
täts@@ 3294
unge@@ 3294
Studenten 3293
holen 3293
lebt 3293
Stück 3292
eck@@ 3291
Überlegungen 3290
Gewährleistung 3289
erei 3289
ffen 3289
genügend 3289
out 3288
sozialer 3285
pres@@ 3284
machte 3282
Noch 3280
vorstellen 3280
Genehmigung 3278
Jede 3278
ba@@ 3278
dungs@@ 3278
ther@@ 3278
angegebenen 3273
Straßen@@ 3272
2,@@ 3270
ativ 3269
Zwischen@@ 3267
kamen 3267
Reduzierung 3266
genannte 3266
Bahn 3265
Dek@@ 3265
Gewicht 3265
Alles 3263
ersetzt 3263
tt 3263
uli@@ 3263
zieren 3263
Zwei 3262
erlebt 3262
Sollte 3261
Ansichten 3260
Pakete 3260
ban@@ 3260
bereitgestellt 3260
WLAN 3259
Besonders 3257
recht@@ 3257
Bulgarien 3256
Ab 3254
kosten@@ 3253
Enterprise 3252
hängen 3252
ktion 3252
niveau 3251
Gleich@@ 3250
einfacher 3250
up 3249
97 3247
Pool 3245
erfolgreiche 3243
liegenden 3243
wiederholt 3242
Polizei 3241
Ungarn 3241
gemeinschaftlichen 3241
solches 3240
verbringen 3238
Buchung 3237
Rot@@ 3237
begrenzt 3236
IS 3234
Einkommen 3232
Entlastung 3232
Vorhaben 3232
Auge 3231
herrscht 3231
standards 3229
bislang 3227
Nachricht 3225
zurückzu@@ 3225
Gegend 3223
Gegenstand 3223
Positionen 3222
rech@@ 3222
technik 3222
Webseiten 3221
wissenschaftliche 3221
organisieren 3220
Vo@@ 3219
AD@@ 3218
Versionen 3217
min 3217
ors 3217
stehende 3217
EC@@ 3215
..... 3214
arbei@@ 3214
französische 3213
Dusche 3211
Praktiken 3211
con 3208
künftige 3208
Tages@@ 3206
öl@@ 3205
Korruption 3204
innovative 3204
Wünsche 3203
gebaut 3202
del@@ 3201
Im@@ 3200
Zi@@ 3200
selbst@@ 3200
ßt 3199
Eisenbahn@@ 3196
verteidigen 3195
Stimmen 3194
Verletzung 3194
Erstellung 3193
Fo@@ 3193
ade 3193
menschliche 3193
Mitarbeitern 3191
18. 3190
Darum 3189
mittleren 3187
gro@@ 3185
ore 3185
gewissen 3184
Anschluss 3183
Kilometer 3183
schlag 3183
vorzulegen 3183
EZB 3182
zw@@ 3182
Übergangs@@ 3182
Jo@@ 3181
letztendlich 3181
stolz 3181
stände 3180
versichern 3180
ek 3179
ev@@ 3179
Einheit 3178
illegalen 3177
investieren 3177
gar@@ 3176
bedeut@@ 3175
internen 3175
offiziellen 3175
stein 3175
Pro 3174
Systemen 3173
ppe 3172
29 3171
Sicherung 3171
sinn@@ 3171
arbeits@@ 3170
gemein@@ 3170
ließ 3170
wohnen 3170
Verfassungs@@ 3169
elektronischen 3169
Brenn@@ 3168
Gefahren 3168
Dienstleistungs@@ 3167
aller@@ 3167
Prozesses 3166
bereichen 3166
unterstreichen 3165
Finanzierungs@@ 3164
Ware 3163
etc 3163
vorgeschlagene 3162
ach 3161
individuellen 3161
0.@@ 3159
Beg@@ 3159
Syn@@ 3159
via 3158
gs@@ 3157
Gerechtigkeit 3153
Red 3150
Zuständigkeit 3149
verkauft 3146
großem 3145
individuelle 3145
ure 3145
München 3144
Organe 3144
aufs 3144
geboren 3143
meist 3143
za 3141
Casino 3140
vermitteln 3139
überprüft 3137
Sollten 3135
Schulen 3132
vorgesehenen 3132
abstimmen 3131
effizient 3131
gewonnen 3131
96 3130
Stoffe 3130
wirtschaftlich 3130
Preisen 3129
Wirtschaftswachstum 3129
material 3128
raten 3128
u.a. 3127
zukünftigen 3127
sprache 3126
dich 3125
zuständig 3124
160 3123
Brasilien 3123
probleme 3123
tak@@ 3123
Firmen@@ 3121
con@@ 3121
stri@@ 3121
erfolgreichen 3120
spreche 3120
informationen 3119
tiv 3119
Lebensmittel 3116
Rest 3116
ausschuß 3116
kla@@ 3115
ps 3115
Medien@@ 3108
einzusetzen 3108
zulassen 3108
Ei@@ 3107
ziel@@ 3107
Kroatien 3106
Player 3106
dende 3104
Ü@@ 3104
Mrd. 3103
win@@ 3103
enheit 3102
entschlossen 3100
situation 3100
ziele 3100
Erfüllung 3099
Bri@@ 3097
Kauf 3097
Energien 3096
Haushaltsplan 3096
bus 3096
Krisen@@ 3094
freut 3094
leistungen 3094
4.@@ 3093
Freizügigkeit 3093
geboten 3093
hervor 3093
tw@@ 3093
Ã 3093
Ablehnung 3092
Binnenmarktes 3091
allzu 3090
unterzeichnet 3090
verbinden 3090
Abschaffung 3085
app@@ 3085
konfrontiert 3085
Grand 3083
Sonne 3083
kraft@@ 3082
wirksame 3081
geräte 3080
schwer@@ 3080
ID 3079
Schlüssel 3079
bedeutende 3079
digung 3079
,@@ 3078
Fisch@@ 3078
31 3077
Mel@@ 3076
fo@@ 3076
maschinen 3076
Freunden 3075
Mut 3075
inklusive 3073
langfristige 3073
flü@@ 3072
Aktionsplan 3071
Dauer 3071
Vorausschau 3071
Widerspruch 3071
laufenden 3069
Kurs 3066
Bra@@ 3065
Gleichstellung 3065
30@@ 3064
Volksgesundheit 3064
beschrieben 3063
militärischen 3063
ote 3063
ausgerichtet 3062
gestattet 3062
preis@@ 3059
Grünen 3057
Betrag 3056
tier@@ 3056
Regierungschefs 3055
angesehen 3054
änden 3053
leistung 3052
bet@@ 3051
betreiben 3051
drei@@ 3051
ko 3051
Studio 3050
behaupten 3050
Prozesse 3049
Geh@@ 3048
At@@ 3047
Neue 3047
Deutschen 3046
tor 3046
Belgien 3043
steuern 3043
uss 3042
vol@@ 3042
tende 3041
Situationen 3040
Verk@@ 3040
Beh@@ 3038
stat@@ 3037
tischer 3037
weitgehend 3037
wohl@@ 3037
Marke 3036
Group 3035
beantworten 3034
Sam@@ 3033
leg@@ 3033
lieb@@ 3033
Redner 3032
vieles 3032
mischen 3031
Lö@@ 3030
Tätigkeiten 3030
Verlust 3030
strategische 3030
3.@@ 3029
mat@@ 3029
verfügbaren 3028
Anlass 3027
Befugnisse 3027
anschließen 3027
gestellten 3027
Rom 3026
Software@@ 3026
Einkaufs@@ 3025
Perspektive 3025
dige 3025
Je 3024
räume 3023
messen 3022
perfekt 3022
miss@@ 3019
integriert 3016
48 3015
CO@@ 3015
Werke 3015
militärische 3015
Gericht 3013
Meines 3012
Volkes 3012
http 3012
verein@@ 3012
anti@@ 3010
Städten 3009
mitteilen 3009
EADS 3007
funktion@@ 3007
ähnliche 3007
Oder 3006
Eis@@ 3005
sis 3005
dig 3004
Denk@@ 3003
aktiven 3003
Kontakte 3002
OR@@ 3002
gerät 3002
hervorgehoben 3002
amp@@ 3001
enzen 3000
sub@@ 3000
elte 2999
tierte 2999
chtung 2998
cu@@ 2997
auftreten 2996
beobachten 2996
Distribution 2994
ersetzen 2993
unabhängigen 2993
kul@@ 2992
Eurozone 2991
Arbeit@@ 2990
dischen 2990
com 2989
2013 2988
Open 2988
erzeugt 2988
Flüchtlinge 2987
scht 2986
Post 2984
Viertel 2984
Medi@@ 2982
hren 2981
kanischen 2981
Eigentum 2980
kenn@@ 2980
Grad 2979
Wachstums@@ 2979
eck 2979
jetzigen 2979
Anstieg 2977
Gerade 2977
Wo 2977
ISO 2976
ik@@ 2976
Kulturen 2975
Tour 2975
ungsverfahren 2975
Konto 2974
Sauna 2974
gungen 2974
oni@@ 2974
Schiff@@ 2973
gedacht 2973
konzentriert 2973
sum@@ 2973
zeichnen 2973
Handels 2972
ernsthaft 2971
Pläne 2970
nachdrücklich 2970
projekte 2970
Menü 2969
Nachbarn 2969
festzulegen 2969
Barroso 2968
Struktur@@ 2966
sü@@ 2966
Schiffe 2965
lischen 2965
station 2965
a. 2964
dungen 2964
vorliegende 2964
My@@ 2963
Stein@@ 2962
dankbar 2962
verteilt 2962
Massen@@ 2961
Wohnung 2961
ähnlich 2961
5. 2960
rel@@ 2960
bekannte 2957
Ser@@ 2955
manche 2955
entwickelte 2954
gewähren 2954
werk@@ 2954
fahrer 2953
Zusätzlich 2952
Far@@ 2951
Trotzdem 2947
offene 2946
zukünftige 2946
Balkon 2944
bri@@ 2944
Ren@@ 2943
15. 2942
deswegen 2942
reduziert 2941
tro@@ 2941
tigt 2939
gebeten 2938
Kriminalität 2937
how 2937
jährigen 2937
jährige 2936
weiten 2936
PHP 2935
erreichbar 2934
hoffentlich 2934
Fischer 2933
Rechtsstaatlichkeit 2933
atische 2933
richtet 2932
4. 2931
Manager 2931
politisches 2930
traditionelle 2930
Schwer@@ 2929
Währungs@@ 2929
bisherigen 2929
iten 2929
Bio@@ 2928
Fort@@ 2927
Gemein@@ 2927
behoben 2927
Vorlage 2926
les@@ 2924
richtlinie 2924
Film@@ 2922
Berichten 2921
kontrolle 2921
Col@@ 2919
id 2919
6.@@ 2917
Gemeinsame 2917
MS 2917
ak 2917
grenzen 2917
humanitäre 2917
kette 2917
vern@@ 2916
Amt 2915
effiziente 2915
einheitliche 2915
problem 2915
Blog 2914
Ausmaß 2912
Lieferung 2911
Rechten 2911
mussten 2910
Übernachtung 2910
überein 2910
fes@@ 2909
gründen 2908
heim@@ 2908
Märkten 2906
Essen 2905
Weiteren 2905
enthaltenen 2905
verdienen 2905
Respekt 2902
mach@@ 2902
Modelle 2901
erfreut 2901
ET@@ 2900
Menschen@@ 2900
wasser 2900
ursprünglich 2899
vollständigen 2899
.... 2898
festgelegten 2898
Lan@@ 2897
Ferien@@ 2895
Konflikte 2895
beendet 2895
punkte 2894
Beteiligten 2893
Finanzkrise 2893
struktur 2893
burg 2892
Band 2891
33 2889
Kriegs@@ 2889
gesetz@@ 2889
buch 2887
but 2887
modified 2886
Fol@@ 2885
unabhängige 2885
dis@@ 2884
gegen@@ 2884
...... 2883
Station 2883
mis@@ 2883
Fern@@ 2882
angebot 2882
Feld 2881
Gal@@ 2881
Kredit@@ 2881
Veränderung 2880
gaben 2880
praktische 2879
Fahrzeuge 2878
Mas@@ 2878
einzuführen 2878
gerich@@ 2878
decken 2877
fertig 2877
Führ@@ 2876
langfristig 2876
täglichen 2876
Messe 2875
gemeinschaft 2875
liefer@@ 2875
zuzu@@ 2873
Ganz 2872
gelassen 2870
inform@@ 2870
stei@@ 2869
Mittelmeer 2867
Wählen 2867
wahren 2867
CH@@ 2866
unterscheiden 2866
beschränken 2865
wonach 2865
Programm@@ 2863
erin 2863
zentren 2862
08 2861
ergibt 2861
erwähnen 2861
wie@@ 2861
Nummer 2859
Support 2859
geln 2859
Gang 2858
angegeben 2858
ha 2857
Branche 2856
Test 2856
wo@@ 2856
zahl 2856
gelingt 2855
Glück 2854
hierbei 2854
zung 2854
Allianz 2853
fr@@ 2853
sierte 2853
Strom@@ 2852
Vertrages 2851
geraten 2851
34 2850
Letz@@ 2850
deckt 2850
Berichterstatters 2849
Industri@@ 2849
ee 2848
fan@@ 2848
terung 2848
absch@@ 2847
angepasst 2847
ang@@ 2846
bil@@ 2846
3D 2845
geäußert 2844
kontrollieren 2844
programms 2844
Live 2843
lieber 2843
schla@@ 2843
kol@@ 2842
Ebenen 2841
Raum@@ 2841
Donnerstag 2840
langsam 2839
rus@@ 2839
Würde 2837
spar@@ 2837
umsetzen 2837
Agenturen 2836
Bush 2835
Runde 2834
sten@@ 2834
Abhängigkeit 2833
angeb@@ 2833
eingegangen 2833
ling 2833
th 2833
verwende 2833
Bre@@ 2832
Bur@@ 2832
Videos 2832
antworten 2828
Dritten 2827
Star 2827
Vereinfachung 2827
gens 2827
staat 2827
Wal@@ 2826
interessant 2826
Miss@@ 2825
besorgt 2825
ziert 2825
seh@@ 2824
Ob@@ 2823
einzigartigen 2823
verbindet 2823
version 2823
17. 2822
Know 2822
09 2821
bestimmungen 2821
Gerät 2820
kom@@ 2820
steigt 2820
Öffnung 2819
Verteilung 2818
zugrunde 2818
Hu@@ 2814
asi@@ 2812
were 2812
unterliegen 2811
Armee 2810
Währungsunion 2810
fördert 2810
vereinbart 2810
Neben@@ 2809
dienst@@ 2809
Deutsche 2808
besonderer 2807
Frankfurt 2806
konferenz 2806
ve@@ 2806
64 2805
lus@@ 2804
Parlamente 2803
Kat@@ 2802
bares 2802
Arbeitsplatz 2801
bad 2801
äch@@ 2801
Personal@@ 2800
Spaß 2800
wachsenden 2800
Hor@@ 2798
gegenwärtige 2798
1994 2797
wirkt 2796
Bahn@@ 2795
50@@ 2793
gestärkt 2793
alt@@ 2792
externen 2792
herunterladen 2792
Cal@@ 2791
Nahrungsmittel@@ 2791
sah 2791
standen 2791
Belarus 2790
Dafür 2790
sern 2790
Sein 2788
Ursachen 2788
optimale 2788
Bereitschaft 2787
Sind 2787
Straßburg 2785
Hol@@ 2784
Verarbeitung 2784
überaus 2784
bedanken 2783
Öl 2782
Debatten 2781
Rückkehr 2781
Führer 2779
RA@@ 2779
Tausende 2778
Zahlungen 2777
gefallen 2777
Vater 2776
tur 2774
Sommer@@ 2772
ktionen 2772
speichern 2772
hervorragenden 2770
mil@@ 2770
Faktor 2769
Lauf@@ 2769
PPE 2769
freundlich 2768
umfassend 2768
methoden 2767
time 2767
Kanada 2766
geschichte 2766
zurückzuführen 2766
erkannt 2765
krise 2765
Beseitigung 2762
fort 2762
ry 2762
nde 2761
Tran@@ 2760
vertrag 2760
lauf@@ 2759
36 2758
schul@@ 2758
Touristen 2757
ado 2756
kontaktieren 2755
Gelder 2751
Marketing 2751
Sachen 2751
türkischen 2751
esch@@ 2750
ly 2750
Erhaltung 2749
nutz@@ 2749
wunderschönen 2747
Madrid 2744
auffordern 2744
kleines 2744
plan@@ 2743
sichtbar 2743
Tages 2741
ase 2741
Standort 2740
Umweltschutz 2740
Zypern 2740
Erinnerung 2738
anhand 2737
ologische 2737
Hü@@ 2736
Pas@@ 2736
Wirtschaftskrise 2736
ack 2736
cia 2735
sparen 2735
A5 2733
Lizenz 2733
Suiten 2733
gefragt 2733
55 2732
Heizung 2732
brechen 2732
dauert 2732
stärkere 2732
Boden@@ 2731
behörde 2731
erfordern 2730
Kri@@ 2729
Steuerung 2729
Werbe@@ 2729
Zusammenhalt 2729
entspannen 2729
sichergestellt 2729
stischen 2729
Sicherheitspolitik 2728
Dialogs 2727
Geschäft 2727
Such@@ 2727
empfangen 2727
sur 2727
verwaltung 2727
egt 2726
have 2726
07 2725
stä@@ 2725
unentgeltlich 2725
teilt 2724
Bars 2723
Opposition 2723
ya 2723
ausgaben 2722
umfangreiche 2722
verantwortungs@@ 2722
Körper@@ 2721
gent@@ 2721
tal@@ 2721
Freitag 2720
Park@@ 2720
angewendet 2720
line 2720
sogenannten 2720
Kontinent 2719
geeignete 2719
gesellschaften 2719
ländliche 2719
überwinden 2718
individuell 2717
verboten 2717
Mechanismen 2716
angemessenen 2716
tert 2716
Frist 2715
Gehminuten 2715
handel 2714
Wind@@ 2713
froh 2713
märkte 2713
Ausflüge 2712
inmitten 2712
tag 2712
Ac@@ 2710
Jugend 2710
tei@@ 2710
rich@@ 2709
schweren 2708
Einwohner 2707
Kopenhagen 2707
normalen 2706
natürliche 2705
realer 2705
Dec@@ 2704
Handlungs@@ 2704
Wesentlichen 2704
untersucht 2704
anschließend 2703
hohem 2703
zeichn@@ 2703
wechsel@@ 2702
ließen 2701
log@@ 2701
zweitens 2701
beru@@ 2700
Fehler@@ 2699
Umweltfragen 2699
bewältigen 2699
Marken 2697
ut 2697
Papier 2696
nützlich 2696
Fran@@ 2694
letzter 2694
Dokumenten 2693
lands 2693
trä@@ 2693
best@@ 2692
derzeitige 2692
Todesstrafe 2691
verweisen 2691
füllen 2689
konkret 2689
asse 2687
korrekt 2687
Investitions@@ 2686
irischen 2685
tar@@ 2685
erst@@ 2684
plätze 2683
stattfindet 2681
16. 2680
Les@@ 2680
Zeitung 2679
ates 2679
lenken 2679
Provinz 2678
bekommt 2677
voraus@@ 2677
PDF 2676
existiert 2676
letz@@ 2676
hingegen 2675
Datei@@ 2673
ada 2673
hochwertige 2673
USB 2672
ative 2672
Fü@@ 2671
Niederlanden 2671
verfahrens 2670
Sammlung 2669
negativen 2669
wen@@ 2669
alisieren 2668
Cam@@ 2667
nte 2667
erhielt 2665
leichter 2665
600 2664
senken 2663
Quellen 2662
Rat@@ 2662
lösungen 2662
Leitung 2661
MO@@ 2660
enorme 2660
gehenden 2660
heißen 2660
produzieren 2660
uri@@ 2660
berichten 2659
brachte 2659
dische 2659
Char@@ 2658
fen@@ 2658
Mandat 2657
Ter@@ 2657
alisiert 2657
GAP 2656
nah@@ 2656
sach@@ 2656
Kohäsionspolitik 2655
Rich@@ 2655
entgegen 2655
plan 2655
erstmals 2654
hab@@ 2654
bal@@ 2653
unk@@ 2653
Bestimmung 2652
lauf 2652
geprägt 2651
gestaltung 2651
Revolution 2650
dan@@ 2649
geplant 2647
sammeln 2646
Senkung 2645
dargestellt 2645
Büro 2644
DI@@ 2644
Lok@@ 2644
Andere 2643
Großteil 2643
normalerweise 2642
nten 2642
vornehmen 2642
aden 2641
amm@@ 2639
dra@@ 2639
Herz 2638
tief 2637
up@@ 2637
800 2636
Bor@@ 2636
ese 2636
Tro@@ 2635
denjenigen 2635
Passwort 2634
minister 2634
unterschiedlich 2634
Ph@@ 2633
gei@@ 2633
Presse 2632
integrierten 2632
ausgezeichnet 2630
schnellen 2630
Bes@@ 2629
Newsletter 2629
kar@@ 2629
37 2628
Kurz@@ 2628
Mir 2628
Pf@@ 2628
eigen@@ 2628
Ir@@ 2627
häuser 2627
oh@@ 2627
una 2627
Andererseits 2626
mor@@ 2626
unden 2626
6. 2625
Jahrzehnten 2625
Willkommen 2625
park 2625
Versammlung 2624
ku@@ 2624
Anwendungs@@ 2623
tte 2623
ic 2622
Tonnen 2621
gut@@ 2621
Verlauf 2620
festen 2620
bereiten 2619
buch@@ 2619
europäisches 2619
palästinensischen 2619
Dingen 2617
ativer 2617
Lie@@ 2616
drücken 2616
pol@@ 2616
Telefon@@ 2615
Mission 2614
rechnen 2614
Gast 2613
Santa 2613
Generationen 2612
Ste@@ 2612
Sü@@ 2612
si 2612
Fin@@ 2611
Küsten@@ 2611
hier@@ 2611
spek@@ 2611
Elektro@@ 2610
karten 2610
Star@@ 2609
untersuchen 2608
pri@@ 2607
Pakistan 2606
fanden 2605
forschung 2605
zwingen 2605
Geschmack 2604
fall@@ 2603
beenden 2602
region 2602
Hindernisse 2601
Mechanismus 2601
Wander@@ 2601
leb@@ 2601
zukommen 2601
bereitet 2600
sol@@ 2600
Vertretern 2599
denk@@ 2599
Potenzial 2598
keinem 2598
ig 2597
Liber@@ 2596
Quelle 2596
Sei@@ 2596
Wandel 2595
benen 2595
schau@@ 2595
Maschine 2594
Geschwindigkeit 2593
effektive 2593
humanitären 2593
Amerikaner 2592
Asyl@@ 2592
bestellen 2592
ti 2590
Augenblick 2589
finanzieren 2589
kli@@ 2589
wär@@ 2589
AM@@ 2588
Staats- 2587
Stärke 2587
glaub@@ 2586
• 2586
Außen- 2583
diesbezüglich 2583
aufgebaut 2582
gewünschten 2582
rechtzeitig 2582
your 2582
Schweizer 2581
Wirtschaftspolitik 2581
viel@@ 2581
smus 2580
entscheidenden 2579
Verwirklichung 2578
Finde 2577
Netz@@ 2577
bedeutenden 2577
enes 2576
hierfür 2576
schwei@@ 2575
Ki@@ 2574
Ratschlag 2574
Schengen 2574
diert 2574
erweitern 2574
leich@@ 2574
kri@@ 2573
Gemeinschaften 2572
ella 2572
soeben 2572
spiele 2572
Investoren 2571
prozesse 2571
Sh@@ 2570
Luxemburg 2569
griechischen 2569
Energieeffizienz 2568
Mus@@ 2568
Urteil 2568
anz 2568
derung 2568
könnt 2568
Mis@@ 2567
Umwel@@ 2567
hän@@ 2567
Internationale 2566
illegale 2566
Genießen 2565
Gold 2565
kontrolliert 2565
wendet 2564
0.000 2563
ga@@ 2563
Termin@@ 2562
Verbraucherschutz 2562
festzustellen 2562
mark@@ 2562
Plat@@ 2560
Regulierung 2560
geleitet 2559
gelesen 2559
präsentieren 2559
selten 2559
aner 2558
enge 2558
MP@@ 2557
überlassen 2557
Industrie@@ 2556
Gemeinde 2555
Landes@@ 2555
Rahmen@@ 2555
Schon 2554
freundlichen 2554
Beachtung 2553
Kampagne 2553
Kommissions@@ 2553
gleichermaßen 2553
ski 2552
7. 2551
Net@@ 2551
Kapital 2550
sektors 2550
Projekts 2549
Verb@@ 2549
regelung 2549
IM@@ 2548
Kompetenz 2546
Kern 2545
Parameter 2545
Parkplatz 2545
Schw@@ 2545
Sta@@ 2545
gefährdet 2545
langfristigen 2545
Best 2544
anzunehmen 2544
ulation 2544
voraus 2544
Zone 2542
passt 2542
trägen 2542
weite 2542
Fernsehen 2541
qualitativ 2541
Registrierung 2540
Weg@@ 2540
befasst 2540
gungs@@ 2540
lichkeiten 2540
Polizei@@ 2539
nummer 2538
cm 2536
tern@@ 2536
Kandidaten 2535
Reisen 2534
Stimm@@ 2534
same 2534
tage 2534
wirkliche 2534
pfen 2533
Reservierung 2532
Ton@@ 2532
WC 2532
Nachhaltigkeit 2531
enthalt 2530
genaue 2530
mögen 2530
sport 2530
angewandt 2529
annten 2529
ergänzt 2529
institutionelle 2529
Arbeitnehmern 2528
Apartment 2527
Schreiben 2526
43 2524
SE@@ 2524
person@@ 2524
spor@@ 2524
Mexiko 2523
Übrigen 2523
Stiftung 2522
müsste 2522
wür@@ 2522
Errichtung 2521
Mac@@ 2521
Versorgung 2521
wesentlicher 2520
infolge 2519
kontextuellen 2519
zo@@ 2519
Blut@@ 2518
altet 2518
äh@@ 2518
10. 2517
Modernisierung 2517
tenen 2517
views 2517
PS 2516
far@@ 2516
führten 2516
hung 2516
leitung 2516
hart 2515
lik@@ 2515
modell 2515
schwierige 2515
ations 2514
optim@@ 2514
schei@@ 2514
Ägypten 2514
Ausarbeitung 2513
Sor@@ 2513
entdeckst 2513
gewi@@ 2513
bezahlt 2512
fal@@ 2512
geregelt 2512
müssten 2512
Listings 2511
begleitet 2511
wettbewerbs@@ 2511
Kategorien 2510
hel@@ 2510
¤ 2510
Orte 2509
Pri@@ 2509
gesetzlichen 2509
tag@@ 2509
zieh@@ 2509
John 2508
era 2508
Computer@@ 2507
Ergebnissen 2507
pen 2507
Bade@@ 2506
Erst 2506
ack@@ 2506
freundliche 2506
programmen 2506
sam 2506
Bearbeitung 2505
star@@ 2505
Hohe 2504
los@@ 2504
Abendessen 2502
Darstellung 2502
Produk@@ 2502
Wa@@ 2502
stieg 2502
IN 2501
hinzufugen 2501
Partner@@ 2500
Sektors 2500
nt 2500
Frei@@ 2499
Jugendlichen 2499
ki 2499
ord@@ 2499
vorbei 2498
ame 2497
grammatisch 2497
weisung 2497
Beide 2496
kontextuell 2496
ll 2496
offizielle 2496
reg@@ 2496
Bibliothek 2495
ECU 2495
zentral 2495
12. 2493
Auftrags@@ 2493
Dritte 2493
Wur@@ 2493
42 2492
Hardware 2491
Schlusselphrase 2491
Schlusselwort 2491
Sel@@ 2491
Update 2491
25@@ 2490
High 2490
ba 2490
ders 2490
festlegen 2490
fs@@ 2490
qui@@ 2490
stück 2490
aufgezahlt 2489
gewählten 2489
13. 2488
komplette 2488
stellungs@@ 2487
zü@@ 2487
Glauben 2486
empfohlen 2485
ona 2485
Rund@@ 2484
Stre@@ 2484
digitalen 2484
entdeckt 2484
altung 2483
Grün@@ 2482
Haben 2481
Stra@@ 2481
melden 2481
Dass 2480
Jugend@@ 2480
ink@@ 2480
produk@@ 2480
Präsenz 2479
Wirksamkeit 2479
fein@@ 2479
anda 2478
á 2477
teils 2476
Kreditkarte 2475
wil@@ 2474
armen 2473
praktischen 2473
spezi@@ 2473
verletzt 2473
Journalisten 2472
Bedürfnissen 2471
Kranken@@ 2471
Shop 2471
Somit 2471
US@@ 2471
schen@@ 2471
isen 2470
Ankunft 2469
Resort 2468
és 2468
Tal@@ 2466
vorgelegten 2465
wert@@ 2465
8. 2464
Anwender 2464
Wiederaufbau 2464
lan 2464
Drittel 2463
entes 2463
Lag@@ 2462
Montag 2462
bewahren 2462
erklärte 2462
Spezial@@ 2461
Premierminister 2460
eingestellt 2460
erzeugen 2459
stätigkeit 2459
Bet@@ 2458
Handel@@ 2457
tal 2457
Regi@@ 2456
klassischen 2456
Symbol 2455
ée 2454
Tabak@@ 2453
sat@@ 2453
Finnland 2452
behält 2452
vari@@ 2452
zunehmen 2452
Aufsichts@@ 2451
Flash 2451
älteren 2451
flu@@ 2450
losigkeit 2450
.de 2448
Kontakt@@ 2448
bewerten 2448
grenz@@ 2448
sprach@@ 2448
viertel 2448
alter 2447
kräfte 2446
außen 2445
Nah@@ 2444
Überblick 2444
Ansch@@ 2443
Fein@@ 2443
Höchst@@ 2443
ansprechen 2443
Betriebe 2442
Spielen 2442
Bru@@ 2441
ite 2441
Sitz@@ 2440
Beitritts@@ 2439
Vorsitzenden 2439
groß@@ 2439
wege 2439
Zahlung 2438
Anbetracht 2436
Todes@@ 2436
dro@@ 2436
Argumente 2435
Serbien 2435
Autom@@ 2434
Macht@@ 2433
ausüben 2433
gener@@ 2433
kümmern 2433
eingebracht 2432
Benutzer@@ 2430
Patent@@ 2430
gekennzeichnet 2430
Demokraten 2429
sab@@ 2428
wahr 2428
werken 2428
Souveränität 2427
langer 2427
Gest@@ 2426
Innovationen 2426
Wochenende 2426
chti@@ 2426
beinhalten 2424
Mutter 2423
Schönheit 2423
eventuell 2423
folge 2423
jedenfalls 2423
zerstört 2423
tau@@ 2421
Übertragung 2421
Parkplätze 2420
Stand@@ 2419
produkten 2419
Hinweise 2418
Zimmer@@ 2418
Lizenz@@ 2417
5.@@ 2416
IWF 2416
König 2416
Volkspartei 2416
blei@@ 2416
gol@@ 2416
gn@@ 2415
EU@@ 2413
Minute 2413
1992 2412
38 2412
Prodi 2412
afrikanischen 2412
parlamentarischen 2412
steigern 2411
Prozeß 2410
zeug@@ 2409
65 2408
vorzunehmen 2408
Akteure 2407
Nizza 2407
arbeitete 2407
Top 2406
ir 2406
pen@@ 2405
Ausweitung 2404
sterben 2404
Komp@@ 2403
hierzu 2403
ober@@ 2403
7.@@ 2402
eingeleitet 2402
komfortable 2402
itäts@@ 2401
Eingang 2400
Konvent 2400
Schiff 2400
Widerstand 2400
heben 2400
räumen 2400
Freund 2399
Werten 2399
öh@@ 2399
Fil@@ 2398
beg@@ 2397
sitzen 2397
verkehrs@@ 2397
Spitzen@@ 2396
beseitigen 2396
frühen 2396
verstehe 2396
Direk@@ 2395
rt 2395
Tests 2394
mittlerweile 2394
Schla@@ 2393
Schulden 2393
ane 2393
SA@@ 2392
Schi@@ 2392
Tu@@ 2392
Zug 2391
lin 2391
24@@ 2390
Betten 2390
Entspannung 2390
Gesetzes@@ 2390
beeinflussen 2390
tigkeiten 2390
14. 2389
Herbst 2389
Ster@@ 2389
lichsten 2389
aufzubauen 2387
Politik@@ 2386
selben 2386
psych@@ 2385
Gol@@ 2384
National 2384
stammt 2384
Han@@ 2382
eit 2382
vorliegen 2382
wirk@@ 2382
Hil@@ 2381
Ratifizierung 2381
eigener 2381
ologischen 2381
offenbar 2380
yp@@ 2380
Mittelmeer@@ 2379
Vis@@ 2379
Wor@@ 2379
anwenden 2378
maschine 2378
stammen 2377
strukturen 2376
Führungs@@ 2374
Herz@@ 2374
anzubieten 2374
Ausbildungs@@ 2372
Michael 2372
ick 2372
perfekte 2372
sische 2372
wort 2372
Gesam@@ 2371
igkeit 2371
gemeinsames 2370
pe 2370
schwere 2370
oftmals 2369
Detail 2368
anzeigen 2367
Wol@@ 2366
Wähler 2366
can 2366
derten 2366
gelangt 2366
ins@@ 2366
ergänzen 2365
software 2365
Air 2364
gener 2364
30. 2363
Wil@@ 2363
ruhig 2363
Kyoto 2362
Milch@@ 2362
Autos 2361
demo@@ 2361
Entschlossenheit 2360
Vorstellungen 2359
verständlich 2359
Sobald 2357
abend 2357
mangel@@ 2357
überwachen 2357
Deutsch 2356
Fehl@@ 2356
Fuß@@ 2356
Prozess@@ 2355
Erreichung 2354
kat@@ 2354
ön@@ 2354
wirtschafts@@ 2353
Tür 2352
gers 2352
landwirtschaftlichen 2352
linken 2352
LA@@ 2350
Teams 2350
hau@@ 2349
port@@ 2348
Feu@@ 2347
Trans@@ 2347
gesellschaftlichen 2347
9. 2346
Entwickler 2346
aufbauen 2346
ansehen 2345
ausgewählt 2345
egal 2345
ka@@ 2345
Cas@@ 2344
chtet 2344
ken@@ 2344
Bil@@ 2343
momentan 2342
sisch 2341
ungser@@ 2341
xen 2341
Val@@ 2340
setz@@ 2339
ziger 2339
Alt@@ 2338
Weiterentwicklung 2338
erteilt 2338
flo@@ 2338
Abfall@@ 2337
Datum 2337
Objek@@ 2337
gestatten 2337
weltweite 2337
Lern@@ 2336
gere 2336
nächster 2336
Fe@@ 2335
Hau@@ 2335
Versicherungs@@ 2335
medi@@ 2335
Ara@@ 2334
gesp@@ 2334
dens 2333
02 2331
Aufzug 2331
selber 2331
vorgestellt 2331
Ausbau 2330
bewußt 2330
spät 2330
Amts@@ 2329
Poker 2329
hinweg 2329
m2 2329
reise 2329
betrieb@@ 2328
fähigen 2328
pat@@ 2328
85 2327
Aussage 2327
Haut 2327
projekt 2327
Berliner 2326
Garantien 2326
Pop@@ 2326
verringert 2326
verurteilen 2326
MA@@ 2324
chtigen 2324
ga 2324
grenzüberschreitenden 2324
stische 2324
Vereinigte 2323
alisi@@ 2323
Ide@@ 2322
Mö@@ 2322
übersch@@ 2322
angehen 2321
fri@@ 2321
Übergang 2321
49 2320
Theater 2320
eben@@ 2319
linie 2319
Inn 2318
bur@@ 2318
nicht@@ 2318
Haushalts 2317
Länge 2317
eten 2317
kehr@@ 2317
Flughäfen 2316
Sohn 2316
Tal 2315
Tieren 2315
Verbrauchern 2315
italienische 2315
reagiert 2315
Truppen 2314
Zy@@ 2314
Museen 2313
Verzeichnis 2313
Vorrang 2312
umgehen 2312
zig 2312
Grundlagen 2311
Zuge 2311
inner@@ 2311
leu@@ 2311
Mand@@ 2309
Regional@@ 2309
ativ@@ 2309
tum 2309
aum 2308
digt 2308
keineswegs 2308
trat 2308
Lesen 2307
Weil 2307
fil@@ 2307
III 2305
bes 2305
hü@@ 2305
lieben 2305
Pres@@ 2304
Street 2304
Zwar 2304
Fahrt 2303
Indi@@ 2303
zahlungen 2303
ökologischen 2303
Benutzung 2302
Aspekten 2301
Planeten 2301
Strecke 2301
legte 2301
liger 2301
tö@@ 2300
Ferienwohnung 2299
Suite 2299
39 2298
Na@@ 2298
herrlichen 2298
indi@@ 2298
06 2297
Dreh@@ 2297
fassung 2297
itä@@ 2297
poli@@ 2297
sicherung 2297
Dokumentation 2296
Gewinn@@ 2296
grünen 2296
vorschlag 2296
Lang@@ 2295
Schloss 2295
geblieben 2295
lädt 2295
Dänemark 2294
Religion 2294
Sachver@@ 2294
hast 2294
vorher@@ 2294
Martin 2293
rop@@ 2293
zogen 2292
Jedoch 2291
Konvention 2291
neun 2291
politiken 2291
modern 2290
sozial@@ 2289
fizierung 2288
Ansprüche 2287
Gottes 2287
House 2287
Maria 2287
SO@@ 2287
ander@@ 2287
tiere 2287
dauer 2285
regionen 2285
Design@@ 2284
Satz 2284
lim@@ 2284
Käufer 2283
automati@@ 2283
geschlossenen 2283
tene 2283
Durchsetzung 2282
Lateinamerika 2282
bild@@ 2282
edi@@ 2282
fun@@ 2282
grosse 2282
Kr@@ 2281
besucht 2280
je@@ 2280
sper@@ 2280
Betreuung 2279
Drei@@ 2279
Traditionen 2279
ato 2278
geschickt 2278
Card 2277
Existenz 2277
Fa@@ 2277
Fassung 2277
dor@@ 2276
stung 2276
Argument 2275
Mat@@ 2275
Mängel 2275
Nichtraucherzimmer 2275
wechseln 2275
Hö@@ 2274
Oberfläche 2274
dat@@ 2274
chern 2273
fas@@ 2273
-- 2272
Institut 2272
früh@@ 2272
schw@@ 2272
Tab@@ 2271
aktuell 2271
gerechte 2271
gangs 2270
mehrfach 2270
Email 2269
beabsichtigt 2268
optimal 2268
8.@@ 2267
digungen 2266
teilung 2266
Mer@@ 2265
beteiligten 2265
Werden 2264
e- 2264
Behörde 2263
NICHT 2263
Posi@@ 2263
enth@@ 2263
kern 2263
Besuchen 2262
Wissenschaftler 2262
flug@@ 2262
hinzu@@ 2262
interne 2261
träge 2261
würdigen 2261
Ehre 2260
Revision 2260
definieren 2260
ns 2260
Protokolls 2259
chinesische 2259
Anmeldung 2258
plus 2258
sicht@@ 2258
Gibt 2257
minim@@ 2257
Herkunfts@@ 2256
Volkswirtschaften 2256
ausgehen 2256
enger 2256
bett 2255
wächst 2255
ator@@ 2254
satz@@ 2254
ändert 2254
England 2253
Festival 2253
aut 2252
net@@ 2252
Lohn@@ 2251
höchst 2251
jahr 2251
Pflanzen 2250
berechnet 2250
breit@@ 2250
nehme 2250
Bedien@@ 2249
Entwicklungshilfe 2249
Sieg 2249
baus 2249
enormen 2249
Hamburg 2248
Verteidigungs@@ 2248
licht 2248
Del@@ 2247
Aut@@ 2245
Bord 2245
art@@ 2245
pan@@ 2245
ständen 2245
tz 2245
wechsel 2245
Holz 2244
Prüf@@ 2244
befürworten 2244
effizienter 2244
Slowakei 2243
dlicher 2243
erwiesen 2243
Kompetenzen 2242
entfernen 2242
Shi@@ 2241
garten 2240
beantwortet 2239
gänge 2239
hr 2239
ID@@ 2238
anzuwenden 2238
enter 2238
Ap@@ 2237
Katalog 2237
dere 2237
urlaub 2237
zusetzen 2237
.000 2236
\ 2236
gebildet 2236
knapp 2236
voran@@ 2236
As@@ 2235
bedürf@@ 2234
erstens 2234
gegebenenfalls 2234
stal@@ 2234
stärksten 2234
Back@@ 2233
Niederlande 2233
annte 2233
funktion 2233
rat@@ 2233
DA@@ 2232
Tel@@ 2232
lü@@ 2232
Berg 2231
Klarheit 2231
ting 2231
ME@@ 2230
Media 2230
Mädchen 2230
generell 2230
sal@@ 2230
wirklichen 2230
.00 2229
kop@@ 2229
wider 2229
fle@@ 2228
geliefert 2228
hinzu 2227
Staatsan@@ 2226
beibehalten 2226
konsequent 2226
Identi@@ 2225
Speisen 2225
aff@@ 2225
Radio 2224
licherweise 2224
Ther@@ 2222
ahn@@ 2222
Wahrung 2221
com@@ 2221
IL@@ 2220
volles 2220
errichtet 2219
grossen 2219
versteht 2219
wand@@ 2218
Europe 2217
ausgegeben 2217
las 2217
oten 2217
Typ 2216
ele 2216
Text@@ 2215
bank 2215
ty 2215
200@@ 2214
Vordergrund 2214
feh@@ 2214
fuer 2214
ley 2214
manchen 2214
Pass@@ 2213
ion 2213
schwedischen 2213
Är@@ 2213
03@@ 2212
Frühstücksbuffet 2212
Hier@@ 2212
Nachdruck 2212
Reg@@ 2212
negative 2212
Fang@@ 2211
akt 2211
erteilen 2211
paket 2211
Statistiken 2210
Zimmerbeschreibung 2210
merk@@ 2210
Can@@ 2209
Häuser 2208
IA 2208
Lebensmittelsicherheit 2208
Tau@@ 2208
Obama 2207
liber@@ 2207
rup@@ 2207
wä@@ 2207
Chancengleichheit 2206
fla@@ 2206
sozi@@ 2206
umfassen 2206
vollem 2206
branche 2205
quote 2205
schrift 2205
Paul 2204
südlichen 2204
vertritt 2204
veröffentlichen 2204
Peter 2203
Denken 2202
Kennzeichnung 2202
ON 2202
stimm@@ 2202
verkehr@@ 2202
Häfen 2201
netz 2201
nutzt 2201
Hostelsclub 2199
yn@@ 2199
RO 2198
las@@ 2198
entsch@@ 2197
mitglieder 2197
Kommissionspräsident 2196
Krieges 2196
ole 2196
Lernen 2195
ON@@ 2195
herr@@ 2195
Aufhebung 2194
Boot 2194
angenehmen 2194
gestiegen 2194
mäßig 2194
vorsieht 2194
stor@@ 2193
NL 2192
bedroht 2192
eth@@ 2192
Gold@@ 2191
Zeitplan 2191
Spitze 2190
nungs@@ 2190
oll@@ 2190
Son@@ 2189
ay 2189
s- 2189
Zielsetzungen 2188
ag 2188
aktiviert 2188
rit@@ 2188
spezialisiert 2188
herstellen 2187
Golf@@ 2186
Liberalen 2186
betrieb 2186
einf@@ 2186
wach@@ 2186
Anmerkungen 2185
Netze 2185
genauer 2185
zweiter 2185
benutz@@ 2184
stattgefunden 2184
CA@@ 2183
Fortsetzung 2183
Problematik 2183
gefährlich 2183
kennt 2183
3,@@ 2182
angenommenen 2182
antes 2182
auswirken 2182
1993 2181
25. 2181
ehemalige 2181
gerufen 2181
gewidmet 2181
has 2181
tätigen 2181
ökonomischen 2181
quellen 2179
ände 2179
Cookies 2178
Schn@@ 2178
endet 2178
gesichert 2178
greift 2178
betriebe 2177
erhoben 2177
Wechsel@@ 2176
schutzes 2176
zahlt 2176
Autobahn 2175
herzustellen 2175
Berge 2174
Fluss 2174
Georgien 2174
Schulden@@ 2174
arabischen 2174
regionaler 2174
ki@@ 2173
erarbeitet 2172
richtung 2172
1990 2171
250 2171
Effekt 2171
sä@@ 2171
zugeben 2171
Beschränkungen 2170
bra@@ 2170
erheben 2170
fli@@ 2170
professionelle 2170
Airbus 2169
Philosophie 2169
Vorsch@@ 2169
ai@@ 2169
hohes 2169
miß@@ 2169
Berich@@ 2168
UR@@ 2168
Unterkünfte 2168
fü@@ 2168
alistischen 2167
pool 2167
use 2167
Kaffee 2166
Nachbar@@ 2166
Auflösung 2165
Fläche 2164
Vertrieb@@ 2164
respektieren 2164
klein 2163
03 2162
Fremdenverkehr 2162
erend 2162
od@@ 2162
rooms 2162
Vier@@ 2161
Vorgehensweise 2161
enzi@@ 2161
gesetzten 2161
schem 2161
unmittelbarer 2161
Poly@@ 2160
schriftliche 2160
typischen 2160
Einer 2159
Sand@@ 2158
bs 2158
größeres 2158
widmen 2157
41 2156
Fla@@ 2156
Modul 2156
Offenheit 2156
fik@@ 2156
klassi@@ 2156
usw 2156
Eu@@ 2155
Genau 2155
anerkennen 2155
zäh@@ 2154
Bereits 2153
Men@@ 2153
Sowohl 2153
fol@@ 2153
dateien 2152
desto 2152
fehlen 2152
passen 2152
Immobilien 2151
stärk@@ 2151
31. 2150
Eines 2150
Gebühren 2150
Himmel 2150
chemische 2150
Tool 2149
ED@@ 2148
Kno@@ 2148
Wichtigkeit 2148
endgültige 2148
Kommentare 2147
gie 2147
Ausrichtung 2146
Rechnungs@@ 2146
Skype 2146
digitale 2146
verwendeten 2146
Office 2145
ai 2145
grund 2145
günsti@@ 2145
05 2144
JavaScript 2144
fahrzeuge 2144
Betracht 2143
Erarbeitung 2143
Verordnungen 2143
Wo@@ 2143
größter 2143
hinzugefügt 2142
klasse 2142
trags@@ 2141
uneingeschränkt 2141
Betrieb@@ 2140
1000 2139
44 2139
Verfahrens 2139
ah 2138
kohär@@ 2138
lte 2138
läu@@ 2138
Einen 2137
erheblichen 2137
freier 2137
gie@@ 2137
intensiv 2137
klären 2137
turen 2137
Können 2136
lers 2136
strukturi@@ 2136
Soldaten 2135
lten 2135
ecken 2134
hilfreich 2134
innovativen 2134
förder@@ 2133
Erfolge 2132
Java 2132
beweisen 2132
öffentlicher 2132
Russlands 2131
isi@@ 2131
Sonntag 2130
tagen 2129
Rent@@ 2128
Räume 2128
behauptet 2128
fortsetzen 2128
Ausgrenzung 2127
Spezialitäten 2127
Bestätigung 2126
Universitäten 2126
Werkzeug 2125
instrument 2125
loser 2125
schule 2125
vel@@ 2125
Q 2123
Schicksal 2123
Bl@@ 2122
Bücher 2122
Minderheit 2122
Nichtraucherzonen 2121
erforderliche 2121
staff 2121
Regel@@ 2120
Rech@@ 2119
mung 2119
schung 2119
solch 2119
Nord 2118
Wettbewerbs 2118
chn@@ 2118
mati@@ 2118
Ablauf 2117
Aussagen 2117
Bro@@ 2117
Kli@@ 2116
adi@@ 2116
planen 2116
tatsächlichen 2116
Betrifft 2115
Uns 2115
innere 2115
able 2114
gesucht 2114
langem 2114
Glas@@ 2113
mei@@ 2113
Uni@@ 2112
gemeinsamer 2112
harmon@@ 2112
mechanismen 2112
Objekte 2111
derart 2111
spanische 2111
ement 2110
nungen 2110
üsse 2110
IG@@ 2109
Verfahrens@@ 2109
sierungs@@ 2109
Bürokratie 2108
General 2108
vertrau@@ 2108
üb@@ 2108
Erwachsene 2107
PA 2107
ologischer 2107
verbreitet 2106
anzupassen 2105
sied@@ 2105
verabschieden 2105
Zer@@ 2104
ast 2104
falsche 2104
fügen 2104
integrierte 2104
Viel@@ 2103
Zivil@@ 2103
Dat@@ 2102
Entfernung 2102
Erst@@ 2102
Geheim@@ 2102
Raums 2102
Fahrer 2101
Wohnzimmer 2100
att@@ 2100
hochwertigen 2100
steten 2100
Inflation 2099
Sat@@ 2099
vorge@@ 2099
üt@@ 2099
Besitz 2098
Kürze 2098
Saint 2098
geehrte 2098
Bildern 2097
Drogen 2097
GNU 2097
Landwirtschafts@@ 2097
erwähnten 2097
Bürgerbeauftragten 2096
befürwortet 2096
dene 2096
Strand@@ 2095
jährlichen 2095
vertraut 2095
Bosnien 2094
Rel@@ 2094
ate@@ 2094
Annehmlichkeiten 2092
Bon@@ 2092
Florenz 2092
ala 2092
bearbeiten 2092
berühmte 2092
Jean 2091
ht 2091
richtungen 2091
Speicher@@ 2090
ett@@ 2090
formuliert 2090
zustande 2090
üblichen 2090
existieren 2088
Ausnahmen 2087
Saison 2087
bemerk@@ 2087
Bevor 2086
beispiel@@ 2086
besonderes 2086
Den@@ 2085
AB@@ 2084
Abbau 2084
Rechnungshof 2084
erarbeiten 2084
iges 2084
pu@@ 2084
EF@@ 2083
Verabschiedung 2083
bro@@ 2083
Alternativen 2082
fairen 2082
Ausbeutung 2081
elektronische 2081
Ursache 2080
dieren 2080
Dynamik 2079
steller 2079
vorliegt 2079
zugestimmt 2079
Nehmen 2078
begegnen 2078
mechanismus 2078
nahme@@ 2078
offiziell 2078
Steigerung 2077
Tools 2077
dieselben 2077
ue 2077
Euch 2076
Formulierung 2076
A4 2075
Mul@@ 2075
Ruf 2075
betra@@ 2075
eht 2075
fähi@@ 2075
künst@@ 2075
nisses 2075
ungst@@ 2075
Mil@@ 2074
geschäft 2074
Es@@ 2073
Rechner 2073
angekündigt 2073
gegenseitigen 2073
uni@@ 2073
wachsende 2073
51 2072
ausländischen 2072
förderung 2072
Mach@@ 2071
Ministerpräsident 2071
Orten 2071
eindeutige 2071
prinzip 2071
Bat@@ 2070
Einzelheiten 2070
abgesehen 2070
hervorragend 2070
ums@@ 2070
Offen@@ 2069
ähnlichen 2069
Forsch@@ 2068
Versprechen 2068
reibungs@@ 2068
Rob@@ 2067
bewertet 2067
gesetz 2067
verwiesen 2067
übermitteln 2067
Gerichts@@ 2066
setzte 2065
Strände 2064
deutliche 2064
wir@@ 2064
wur@@ 2064
überrascht 2063
bewegt 2062
Kredi@@ 2061
ester 2061
ück@@ 2061
bit@@ 2059
etes 2059
standes 2058
übt 2058
Fischereipolitik 2057
bedauerlich 2057
kostenlose 2057
Funktionieren 2056
Lau@@ 2056
NRO 2056
Taten 2056
präzise 2056
Menschenrechtsverletzungen 2055
č@@ 2055
Roh@@ 2054
hundert 2054
löschen 2054
gewicht 2053
Fru@@ 2052
Zunahme 2052
fähige 2052
BSE 2051
Gentoo 2051
wirft 2051
assi@@ 2050
erstes 2049
komplexen 2049
Gegner 2048
feu@@ 2048
hafter 2048
ware 2048
Airport 2047
Hände 2047
Client 2046
tis 2046
Bestellungen 2045
car@@ 2045
drängen 2045
ressourcen 2045
yst@@ 2045
Hat 2044
West 2044
berichtet 2044
kriterien 2044
Abgeordneter 2043
bekämpfung 2043
Audio 2042
good 2042
leistet 2042
Pla@@ 2041
gemessen 2041
lar@@ 2041
ola 2041
verursachen 2041
Einsatz@@ 2040
derselben 2040
omm@@ 2040
Wellness 2039
davor 2039
denden 2039
stätten 2039
Erlebnis 2038
Gruppen@@ 2038
Menschheit 2038
Terroristen 2038
auswählen 2038
erweisen 2038
gehe 2038
zone 2038
anzuzeigen 2037
rufe 2037
AL 2036
Wiederherstellung 2036
technisch 2036
unterschiedlicher 2036
Miß@@ 2035
lüsse 2035
erkennt 2034
Wohnungen 2033
geringen 2033
Übernahme 2033
durchzusetzen 2032
gehei@@ 2032
günstige 2032
mi 2032
700 2031
Innenstadt 2031
erleichtert 2031
umso 2031
Trau@@ 2030
fangen 2030
zurzeit 2030
Export@@ 2029
Fleisch 2029
Frauen@@ 2029
Klimawandels 2029
genau@@ 2029
ökonomische 2029
Gei@@ 2028
Parlament@@ 2028
SV 2028
Sekunden 2028
dring@@ 2028
Zweiten 2027
euer 2027
gerungen 2027
Via 2026
Licht@@ 2025
Sc@@ 2025
dieselbe 2025
Da@@ 2024
Ereignis 2024
fei@@ 2024
gkeiten 2024
änge 2024
Brand@@ 2023
Zucker@@ 2023
Zwischen 2023
legi@@ 2023
Bewusstsein 2022
Danach 2022
Festplatte 2022
Menschenrechten 2021
Steuer 2021
begründet 2021
Anreize 2020
Risiko@@ 2020
Schei@@ 2020
grenze 2020
professionellen 2020
Album 2019
klu@@ 2019
täten 2019
Händen 2018
Kuba 2018
Pe@@ 2018
aktualisiert 2018
Finanzen 2017
Plaza 2017
bewegung 2017
normen 2017
streben 2017
Diesen 2016
Gemeinden 2016
komp@@ 2016
ätze 2016
Lieferanten 2015
Verfolgung 2015
bruch 2015
terin 2015
Filme 2014
set 2014
unterbrochen 2014
Ausrüstung 2013
Umstände 2013
vertrauen 2013
Recht@@ 2012
Bauern 2011
ans@@ 2011
hö@@ 2011
umgehend 2011
46 2010
Urlaubs@@ 2010
geeigneten 2010
günstigen 2010
klar@@ 2010
location 2010
Binnen@@ 2009
Mau@@ 2009
Betreiber 2008
Schüler 2008
bert 2008
deck@@ 2008
eli@@ 2008
flexibel 2008
Pl@@ 2006
könne 2006
Kopf@@ 2005
Verkaufs@@ 2005
Г 2005
2012 2004
Kenntnisse 2004
Spaziergang 2004
Sur@@ 2004
komplexe 2004
steuer 2004
entsp@@ 2003
greif@@ 2003
sc@@ 2003
Anträge 2002
Off@@ 2001
Hauptbahnhof 2000
Schutzes 2000
jüngste 2000
Abteilung 1999
Bestell@@ 1998
dargelegt 1998
religiösen 1998
führungs@@ 1997
technischer 1997
vermittelt 1997
Zuverlässigkeit 1996
Internetzugang 1995
elegante 1995
erlassen 1995
gerechtfertigt 1995
niedrigen 1995
sagten 1995
verfol@@ 1995
Begründung 1994
Fan@@ 1994
dasselbe 1994
spüren 1994
Aktu@@ 1993
Christ@@ 1993
Werkzeuge 1993
arbeiteten 1993
ssi@@ 1993
demokratisch 1992
komple@@ 1992
renoviert 1992
sau@@ 1992
Western 1991
endgültigen 1991
Marokko 1990
dienstleistungen 1990
Alters@@ 1989
erwerben 1989
inneren 1989
Waren@@ 1988
vermieden 1988
ziel 1988
47 1987
bre@@ 1987
ol 1987
Beschluß 1986
Samstag 1986
Balkan 1985
ena 1985
kal@@ 1985
siven 1985
10.@@ 1984
Erwägung 1984
Lounge 1984
fungen 1984
nötigen 1984
Außenminister 1983
KOM 1983
MySQL 1983
Bezeichnung 1982
EM@@ 1982
Mc@@ 1981
Modus 1981
Appartements 1980
Prag 1980
alle@@ 1980
heits@@ 1980
ong 1980
Eröffnung 1978
einführen 1978
einstimmig 1978
Stu@@ 1977
verteilung 1977
österreichischen 1977
04 1976
Beamten 1976
Handlungen 1976
Komm@@ 1976
Zerstörung 1976
It 1975
kti@@ 1975
offen@@ 1975
1989 1974
Heimat 1974
Hän@@ 1974
techn@@ 1974
trags 1974
Energiequellen 1973
Studi@@ 1973
ay@@ 1973
lien 1973
Projek@@ 1972
engen 1972
120 1971
Schuld 1971
Derzeit 1970
Drittstaaten 1970
Nachmittag 1970
Reinigung 1970
eröffnen 1970
mä@@ 1969
ros 1969
änderungen 1969
Beratungen 1968
verstärkte 1968
zugelassen 1968
Lam@@ 1967
Logik 1967
ech@@ 1967
linien 1967
pul@@ 1967
ärmsten 1967
Dor@@ 1966
Motor 1966
bezeichnen 1966
ekt 1966
gehabt 1966
Emp@@ 1965
Insgesamt 1965
ater 1965
Anti 1964
Herkunft 1964
ablehnen 1964
gehörigen 1964
trau@@ 1964
GB 1963
S.@@ 1963
planung 1963
Dru@@ 1962
Privatsphäre 1962
effek@@ 1962
sicherer 1962
Einnahmen 1961
beruflichen 1961
ey 1961
isierung 1961
spann@@ 1961
zeugen 1961
Venedig 1960
Renn@@ 1959
eig@@ 1959
kel@@ 1959
stoßen 1959
9.@@ 1958
Meinungen 1958
Referendum 1958
organisierten 1958
öse 1958
ero@@ 1957
israelischen 1957
medizinische 1957
industriellen 1956
lebenden 1956
steuer@@ 1956
Mutter@@ 1955
Friedens 1954
Rückgang 1954
binden 1954
ita 1954
umfangreichen 1954
12.00 1953
mail 1953
os@@ 1953
zeigte 1953
1991 1952
Seele 1952
einiges 1952
fragt 1952
alem 1951
früh 1951
kritischen 1951
organ@@ 1950
verschaffen 1950
Doppelzimmer 1949
Gesicht 1949
Palette 1949
Steuerzahler 1949
Zusammensetzung 1949
ehrlich 1949
Leben@@ 1948
mas@@ 1948
Hi@@ 1947
Van 1947
agen 1947
mächti@@ 1947
tives 1947
Lehrer 1946
abgeben 1946
listen 1946
ment 1946
Betrug 1945
beruhen 1945
lern 1945
maximal 1944
Grundsätzen 1943
Mittwoch 1943
Wald@@ 1943
ater@@ 1943
bü@@ 1943
Schad@@ 1942
ands 1942
eigentliche 1942
Tor 1941
beschleunigen 1941
regi@@ 1941
umzu@@ 1941
ear@@ 1940
flächen 1940
Felder 1939
Südafrika 1939
eingeräumt 1939
gebe 1939
24. 1938
Ca@@ 1938
Immer 1938
Verteidigungspolitik 1938
geringer 1938
my 1938
Lab@@ 1937
angebote 1937
Deutschlands 1936
gestartet 1936
kunden 1936
Feststellung 1935
Inkrafttreten 1935
basi@@ 1935
klein@@ 1935
Übersicht 1935
s.@@ 1934
druck@@ 1933
ica 1933
Verlängerung 1932
eintreten 1932
hielt 1932
integrieren 1931
kleinere 1931
ón 1931
staatlicher 1930
Gewinn 1929
blicken 1929
einsch@@ 1929
iel@@ 1929
stands@@ 1929
verzichten 1929
alisierungs@@ 1928
ata 1928
möglichkeit 1928
Fakten 1927
Vit@@ 1927
schenken 1927
52 1926
mittlere 1926
stens 1926
Kernel 1925
kombiniert 1925
mb@@ 1925
Produktivität 1924
angenehm 1924
gste 1924
Beurteilung 1923
Pflichten 1923
gingen 1923
not@@ 1923
AU@@ 1922
User 1922
Australien 1921
Strom 1921
ju@@ 1921
Erzeugung 1920
Osteuropa 1920
Rußland 1920
Tr@@ 1920
USD 1920
col@@ 1920
glaubt 1920
Bevölkerungs@@ 1919
ars 1919
ausreichende 1919
zunehmende 1919
Einwanderer 1918
Fal@@ 1918
USS 1918
We 1918
einzig 1918
gelingen 1918
AG@@ 1917
Gas 1917
abgegeben 1917
inakzeptabel 1917
anpassen 1916
resul@@ 1916
zahlung 1916
Em@@ 1915
Weiß@@ 1915
genießt 1915
getrennt 1915
Arbeitsgruppe 1914
Stufe 1914
Grünbuch 1913
Rö@@ 1913
Wünschen 1913
beschließen 1913
eckt 1912
iti@@ 1912
Nu@@ 1911
überein@@ 1911
Lager 1910
becken 1910
rechtlich 1910
Konzer@@ 1909
zent@@ 1909
zentraler 1909
züge 1909
Ausübung 1908
Tex@@ 1908
Verfasser 1908
Ausschüsse 1907
Jugendliche 1907
Mei@@ 1907
Pul@@ 1907
SI@@ 1907
Stahl@@ 1907
atischen 1907
ere@@ 1907
erleb@@ 1907
ov@@ 1907
zugute 1907
ehren 1906
methode 1906
Fon@@ 1905
Pil@@ 1905
basieren 1905
Dan@@ 1904
Erweiterungs@@ 1904
gehandelt 1904
treiben 1904
Tauch@@ 1903
teln 1903
Belastung 1902
Regionalpolitik 1902
SA 1902
Verletzungen 1902
Weiterhin 1902
Fisch 1901
Luxus 1901
dem@@ 1901
Kra@@ 1900
Rassismus 1900
fuhr 1900
the@@ 1900
zwischen@@ 1900
Kap@@ 1899
eff@@ 1899
respektiert 1899
alistische 1898
bereit@@ 1898
derjenigen 1898
erlangen 1898
keiten 1898
rie@@ 1898
ré@@ 1898
Module 1897
aufgestellt 1897
heit@@ 1897
organisierte 1897
ursprüngliche 1897
gebühren 1896
gering 1896
luss@@ 1896
stru@@ 1896
Anhörung 1895
Brücke 1895
ehrt 1895
ernsthafte 1895
jeglicher 1895
relevanten 1895
vorgehen 1895
4,@@ 1894
Großen 1894
Summe 1894
insofern 1894
vorschläge 1894
Autor 1893
Mü@@ 1893
ausländische 1893
empfängt 1893
handels@@ 1893
ierungs@@ 1893
innen@@ 1893
well 1893
EG@@ 1892
Gewinne 1892
seln 1892
Inhalten 1891
gebung 1891
Vertretung 1890
auer 1890
basis 1890
entstand 1890
lische 1890
§ 1890
Besitz@@ 1889
Nation 1889
rin@@ 1889
zwölf 1889
Hafen@@ 1888
Versuche 1888
alo@@ 1888
aufnahme 1887
austausch 1887
erneuerbaren 1887
alisten 1886
gelernt 1886
Updates 1885
beziehungen 1885
22. 1884
Stat@@ 1884
TR@@ 1884
erkunden 1884
kostenlosen 1884
post@@ 1884
reifen 1884
tausend 1884
vermutlich 1884
Beschwerden 1883
Rahmenbedingungen 1883
sischer 1883
steh@@ 1883
Original@@ 1882
Private 1882
behandlung 1882
gemütliche 1882
Gut@@ 1881
geringe 1881
Tabelle 1880
Heimat@@ 1879
Anwesenheit 1878
Hot@@ 1878
erörtert 1878
Kas@@ 1877
bedauere 1877
fikation 1877
Migration 1876
aufgeführt 1876
funktionen 1876
sin@@ 1876
wünscht 1876
AS 1875
Einschätzung 1875
zz@@ 1875
Last 1874
heutzutage 1874
hört 1874
vereint 1874
zeichneten 1874
rahmen 1873
schwieriger 1873
uss@@ 1873
Übereinkommens 1873
Rennen 1872
beizutragen 1872
berufen 1872
eleganten 1872
yer 1872
zun@@ 1872
Individu@@ 1871
Kein 1871
PL@@ 1871
Publikum 1871
dien@@ 1871
Organ@@ 1870
iniert 1870
stützen 1870
Comm@@ 1869
absol@@ 1869
ons@@ 1869
Dublin 1868
Erhalt 1868
Fahrzeug 1868
Syrien 1867
eti@@ 1867
meldung 1867
nei@@ 1867
russische 1867
Drei 1866
Mehrwert 1866
Unterzeichnung 1866
Weine 1866
anforderungen 1866
pra@@ 1866
woh@@ 1865
demokratischer 1864
David 1863
Funktion@@ 1863
Satelliten@@ 1863
Stell@@ 1863
ard@@ 1863
geniessen 1863
bahn@@ 1862
effizienten 1862
passieren 1862
sive 1862
Wichtig 1861
höchster 1861
zeichnung 1861
zwanzig 1861
überwacht 1861
Kam@@ 1860
dy 1860
kurse 1860
nachzu@@ 1860
Besteuerung 1859
Wälder 1859
unterbreiten 1859
Parlaments@@ 1858
realisiert 1858
vereinbarten 1858
Basi@@ 1857
irgend@@ 1857
EP 1856
bilateralen 1856
Gri@@ 1855
PR@@ 1855
chi@@ 1855
get 1855
28@@ 1854
EB@@ 1854
Energiepolitik 1854
Inspek@@ 1854
weit@@ 1854
zentrali@@ 1854
Automobil@@ 1853
sonstige 1853
tos 1853
seu@@ 1852
wahre 1852
gebunden 1851
lo 1851
schließe 1851
Gem@@ 1850
LO@@ 1849
verarbeitet 1849
Richter 1848
stattdessen 1848
würdig 1848
Bewältigung 1847
Kapazität 1847
Spektrum 1847
einstellen 1847
irische 1847
isten 1847
ordnungsgemäß 1847
Europol 1846
Gipfeltreffen 1846
Kaffe@@ 1846
Einschränkungen 1845
Mari@@ 1845
eure 1845
ments 1845
xi@@ 1845
Keine 1844
Spannungen 1844
interessanten 1844
wirksamen 1844
Ergänzung 1843
IC 1843
Produktion@@ 1843
band 1843
dia 1843
gefähr@@ 1843
verpflichten 1843
dahin 1842
gefährden 1842
konstruktive 1842
lokaler 1842
medizinischen 1842
mö@@ 1842
04@@ 1841
folglich 1841
Personen@@ 1840
if 1840
Foto@@ 1839
einnehmen 1839
Konferenz@@ 1838
wander@@ 1838
Sitzungen 1837
marquis 1837
verzeichnen 1837
Arbeitgeber 1836
gelegenen 1835
29. 1834
Kab@@ 1834
geistigen 1834
Konflikt@@ 1833
Rezession 1833
Zuständigkeiten 1833
geplanten 1833
id@@ 1833
tan 1833
Hör@@ 1832
Port@@ 1832
geber 1832
gri@@ 1832
sogenannte 1832
sta 1832
här@@ 1831
initiative 1831
retten 1831
schlechte 1831
Phänomen 1830
Saal 1830
auff@@ 1830
baut 1830
orientierte 1830
griffen 1829
Cro@@ 1828
Fes@@ 1828
Händler 1828
News 1828
datei 1828
habt 1828
Cap@@ 1827
ats@@ 1827
origin@@ 1827
starkes 1827
text 1827
gebäude 1826
tigem 1826
Beach 1825
Mischung 1825
Rotary 1825
beinahe 1825
imp@@ 1825
Objekt 1824
bezogen 1824
teste 1824
mien 1823
Börse 1822
Konzentration 1822
moderner 1822
erweiterten 1821
gl@@ 1821
Subsidiarität 1820
aussehen 1820
ehe 1820
tex@@ 1820
vernünftige 1819
Äußerungen 1819
polnischen 1818
wald 1818
Jahr@@ 1817
Krisen 1817
ank@@ 1817
rates 1817
center 1816
feste 1816
unterbreitet 1815
Red@@ 1814
Schau@@ 1814
punkten 1814
Plätze 1813
Prävention 1813
Waffen@@ 1813
Amerikas 1812
Weltwirtschaft 1812
einzugehen 1812
erwähnte 1812
gebnis 1811
investiert 1811
Handy 1810
Intervention 1810
Wett@@ 1810
design 1810
dé@@ 1810
kredi@@ 1810
Beschäftigten 1809
Emissions@@ 1809
Ham@@ 1809
absolute 1809
kurzer 1809
leichte 1809
verwirklichen 1809
Image 1808
Mac 1808
ungeh@@ 1808
wan@@ 1808
wertvolle 1808
dauern 1807
gesam@@ 1807
Edel@@ 1806
Kräften 1806
Nich@@ 1806
Source 1806
Wesen 1806
ari 1806
realen 1806
Augen@@ 1805
Global 1805
Haushalte 1805
abschließend 1804
ausführlich 1804
ktion@@ 1804
nachdenken 1804
NI 1803
Stock@@ 1803
dorf 1803
gewünschte 1803
ri 1803
wand 1803
Anzeige 1802
Themen@@ 1802
regel@@ 1802
Funktionalität 1801
Inf@@ 1801
mün@@ 1801
zielt 1801
einhalten 1800
kommerziellen 1800
küh@@ 1800
leidet 1800
menge 1800
verliehen 1800
Unsicherheit 1799
liegende 1799
vernünftig 1799
öffnet 1799
Centre 1798
Katastrophen 1798
Leiter 1798
Robert 1798
grenzüberschreitende 1798
kräf@@ 1798
Sek@@ 1797
eigentlichen 1797
unterscheidet 1797
wendung 1797
Dach@@ 1796
kleineren 1796
pä@@ 1796
ute 1796
Vertre@@ 1795
dans 1795
erörtern 1795
kra@@ 1795
lossen 1795
Datenschutz 1794
schlech@@ 1794
frem@@ 1793
gültig 1793
ine@@ 1793
nam@@ 1793
schrittweise 1793
23. 1792
Archi@@ 1792
abkommens 1792
ethnischen 1792
felder 1792
weitaus 1792
Mails 1791
Türen 1791
ete 1791
Ordner 1790
schein@@ 1790
teilzunehmen 1790
Last@@ 1789
Unternehmer 1789
igungen 1789
schnitt 1789
68 1788
erinnere 1788
fortgesetzt 1788
lad@@ 1788
Mün@@ 1787
transparent 1787
zunehmenden 1787
fahrts@@ 1786
hof 1786
späteren 1786
vous 1786
wirkungs@@ 1786
Angriffe 1785
Kabel 1785
SCH@@ 1785
ath@@ 1785
ratifiziert 1785
Cre@@ 1784
Million 1784
SS@@ 1784
streng 1784
Fr@@ 1783
Fünf@@ 1782
viert 1782
ösen 1782
Kau@@ 1781
Mak@@ 1781
externe 1781
gebraucht 1781
realistisch 1781
Edition 1780
HTML 1780
bewiesen 1780
bewirken 1780
gewisser 1780
technologische 1780
Al 1779
Seiten@@ 1779
Sit@@ 1779
iner 1779
Appartement 1778
beiträgt 1778
krimin@@ 1778
nich@@ 1778
Kurz 1777
Plus 1777
Safe 1777
Weltkrieg 1777
Ausblick 1776
avi@@ 1776
Ausgangs@@ 1775
Regen@@ 1775
Vermittlungs@@ 1775
bende 1775
herum 1775
VER@@ 1774
Verluste 1774
Vertrieb 1774
nachhaltig 1774
vorhin 1774
Gipfels 1773
Justiz@@ 1773
Angabe 1772
Präsentation 1772
erstreckt 1772
Gepäckraum 1771
Power 1771
liz@@ 1771
Hamas 1770
vo 1770
Regimes 1769
bisschen 1769
Events 1768
Schnittstelle 1768
Zürich 1768
which 1768
ausgestattete 1767
ktions@@ 1767
ruft 1767
Maschinen@@ 1766
Presse@@ 1766
brau@@ 1766
Wellness@@ 1765
ruhige 1765
selb@@ 1765
Produzenten 1764
Rubrik 1764
grad 1764
mäßigkeit 1764
nete 1764
verarbeitung 1764
Glas 1763
Quali@@ 1763
gerechnet 1763
get@@ 1763
kurs 1763
typisch 1763
wies 1763
Kapazitäten 1761
einst 1761
gast@@ 1761
sonstigen 1761
Arbeitsbedingungen 1760
MB 1760
Mengen 1760
Missbrauch 1760
schreibt 1760
Arbeitnehmer@@ 1759
Subventionen 1759
bekräftigt 1759
egen 1759
gemütlichen 1759
let 1759
modi@@ 1759
rischen 1759
Ci@@ 1758
Mittelmeerraum 1758
Show 1758
jemals 1757
onn@@ 1757
Gre@@ 1756
Ministerrat 1756
beurteilen 1756
geteilt 1756
ill@@ 1756
ohnehin 1756
way 1756
Power@@ 1755
ütz@@ 1755
Futter@@ 1754
gewer@@ 1754
schnei@@ 1754
unzu@@ 1754
Bühne 1753
erischen 1753
este 1753
ke@@ 1753
sech@@ 1753
übermittelt 1753
54 1752
Erbe 1752
atz 1752
eingeladen 1752
fährt 1752
Fans 1751
Tom@@ 1751
ines 1751
Gut 1750
Sil@@ 1750
Theorie 1750
blick 1750
günstig 1750
Fluggesellschaften 1749
Laut 1749
Merkmale 1749
Verträgen 1749
gestellte 1749
verwal@@ 1749
28. 1748
Termin 1748
li 1748
General@@ 1747
PO@@ 1747
Regulierungs@@ 1747
Wür@@ 1747
chan@@ 1747
maximale 1747
27@@ 1746
Leuten 1746
esten 1746
geschafft 1746
komfortablen 1746
nu@@ 1746
schalten 1746
Aufenthalts@@ 1745
cs 1745
Gebäuden 1744
Abschluß 1743
Konjunktur@@ 1743
Lasten 1743
körper@@ 1743
mündlichen 1743
tauchen 1743
Überarbeitung 1743
Av@@ 1742
Erzeuger 1742
Halb@@ 1742
Performance 1742
abgel@@ 1742
einfach@@ 1742
vergleich@@ 1742
wa 1742
rechn@@ 1741
vertreter 1741
älter 1741
72 1740
Güter 1740
Human@@ 1740
Netzwerk@@ 1740
hu@@ 1740
mäßige 1740
stro@@ 1740
Ferienwohnungen 1739
Mini@@ 1739
rechtfertigen 1739
deutet 1738
gewinnt 1738
issen 1738
ligkeit 1738
stil 1738
Filter 1737
Mono@@ 1737
Büros 1736
C5 1736
angel@@ 1736
box 1736
verz@@ 1736
26. 1735
mag@@ 1735
Free 1734
Gener@@ 1734
Konzepte 1734
Legislativ@@ 1734
eingeschränkt 1734
ennen 1734
grundlegender 1734
machten 1734
wel@@ 1734
Palästinenser 1733
beliebigen 1733
berichte 1733
heim 1733
leid 1733
wahl 1733
Analy@@ 1732
Freizeit@@ 1732
Mur@@ 1732
Resolution 1732
Spezialisten 1732
bedro@@ 1732
Eing@@ 1731
Sä@@ 1731
aufgerufen 1731
restaurant 1731
teilte 1731
west@@ 1731
globaler 1730
sign@@ 1730
strengen 1730
äußerster 1730
12.@@ 1729
Europ@@ 1729
Express 1729
Je@@ 1729
Los 1729
S. 1729
akzeptabel 1729
orientierten 1729
popul@@ 1729
griff 1728
rats 1728
Bildschirm 1727
Komit@@ 1727
itäten 1727
stern 1727
bevorstehenden 1726
küste 1726
unerlässlich 1726
Fremd@@ 1725
Haushaltsplans 1725
intensive 1725
lei 1725
märkten 1725
Burg 1724
Gerichtshofs 1724
Inn@@ 1724
SS 1724
Vorgaben 1724
ermutigen 1724
verbindungen 1724
Schrift@@ 1723
auswärtige 1723
eignen 1723
Wille 1722
beeinflusst 1722
derartigen 1722
Tour@@ 1721
erh@@ 1721
jek@@ 1721
Solche 1720
empfiehlt 1720
plätzen 1720
Arzneimittel 1719
Wiederauf@@ 1719
Wind 1719
erläutern 1719
tlinie 1719
Ker@@ 1718
Medikamente 1718
Port 1718
Tei@@ 1718
chtige 1718
erfasst 1718
kritisiert 1718
rad 1718
Hotelsafe 1717
gesammelt 1717
landschaft 1717
stete 1717
änderung 1717
DER 1716
Erfol@@ 1716
erzielten 1716
spätestens 1716
European 1715
leitungen 1715
mäßigen 1715
Dikt@@ 1714
Export 1714
Form@@ 1714
Verein@@ 1714
aktu@@ 1714
ärer 1714
Unterdrückung 1713
angenehme 1713
qualifizierte 1713
rücken 1713
Profil 1712
etzen 1712
kun@@ 1712
sende 1712
sz@@ 1712
Bewohner 1711
Für@@ 1711
Tief@@ 1711
aturen 1711
dachte 1711
Garten@@ 1710
Konsultation 1710
TE 1710
grund@@ 1710
kontrollen 1710
gefährlichen 1709
Messe@@ 1708
instrumente 1708
ungeachtet 1708
Vorfeld 1707
angewiesen 1707
fiziert 1707
gegenseitige 1707
Mazedonien 1706
blo@@ 1706
haf@@ 1706
stag 1706
Marina 1705
gefährliche 1704
orien 1704
wunderschöne 1704
Verantwortlichen 1703
Washington 1703
angebotenen 1703
beschreibt 1703
kontinuierlich 1703
samkeit 1703
sichert 1703
wertung 1703
B5 1702
Beste 1702
Is@@ 1702
Mä@@ 1702
Adressen 1701
Betroffenen 1701
Heimatland 1701
Lü@@ 1701
Portal 1701
angeblich 1701
plötzlich 1701
stoß 1701
verantwor@@ 1701
Ratsvorsitzes 1700
tisches 1700
üh@@ 1700
Tragödie 1699
gas@@ 1699
Anbindung 1698
Konferenzen 1698
Traum 1698
Vil@@ 1698
einzubeziehen 1698
sexuellen 1698
Konfiguration 1697
ever@@ 1697
here 1697
strenge 1697
wü@@ 1697
Aktualisierung 1696
Fel@@ 1696
Koordin@@ 1696
Tan@@ 1696
bedenken 1696
dien 1696
esischen 1696
geladen 1696
größerer 1696
Imp@@ 1695
Kooperations@@ 1695
Woh@@ 1695
aj@@ 1695
anne 1695
basierte 1695
basierten 1695
forderte 1695
ots 1695
quelle 1695
rum 1695
womit 1695
ass 1694
oni 1694
technologischen 1694
unzureichend 1694
Anhang 1693
DA 1693
Israels 1693
ausstattung 1693
drucken 1693
lehr@@ 1693
onien 1693
trei@@ 1693
vielfältigen 1693
Finanzmittel 1692
Gute 1692
Linien 1692
reib@@ 1692
spartner 1692
Einkommens@@ 1691
Gestatten 1691
Hä@@ 1691
Rahmenprogramm 1691
auen 1691
automatische 1691
bigen 1691
kt@@ 1691
zeu@@ 1691
Dro@@ 1690
Lehren 1690
Sar@@ 1690
kritische 1690
schu@@ 1690
stabili@@ 1690
Ant@@ 1689
tnissen 1689
trennen 1689
Gesprächen 1688
Nov@@ 1688
bahnen 1688
Litauen 1687
Ag@@ 1686
Thomas 1686
aut@@ 1686
fügt 1686
Str@@ 1685
bedienen 1685
dam@@ 1685
had 1685
kostengünsti@@ 1685
runde 1685
Ange@@ 1684
Kir@@ 1684
dend 1684
endem 1684
istischer 1684
92 1683
Prin@@ 1683
Vorsitzender 1683
entspann@@ 1683
Gewerkschaften 1682
gewünscht 1682
voneinander 1682
zielen 1682
Fußball@@ 1681
flexible 1681
nü@@ 1680
rad@@ 1680
vergeben 1680
agi@@ 1679
istisch 1679
sprech@@ 1679
Adobe 1678
TO@@ 1678
Wirtschaf@@ 1678
gerech@@ 1678
tter 1678
Aufforderung 1677
Gefängnis 1677
Wild@@ 1677
hör@@ 1677
Konkurrenz 1676
Textil@@ 1676
enttäuscht 1676
ähr@@ 1676
Haar@@ 1675
Laden 1675
fisch@@ 1675
teilten 1675
Out@@ 1674
Randlage 1674
avec 1674
dün@@ 1674
nbsp 1674
Unterlagen 1673
berufliche 1673
Dep@@ 1672
Eng@@ 1672
begrenzte 1672
53 1671
Trend 1671
enswert 1671
erneuerbare 1671
partei@@ 1671
Tö@@ 1670
falschen 1670
aktualisieren 1669
breit 1669
fizi@@ 1669
gebühr@@ 1669
prozeß 1669
vorbehalten 1669
Mes@@ 1668
gelegene 1668
inger 1668
produkt 1668
vorn 1668
Köln 1667
gefäl@@ 1667
hungen 1667
ranken 1667
Bilanz 1666
Sound 1666
Geben 1665
Geschäften 1665
alitäten 1665
leben@@ 1665
56 1664
Bis@@ 1664
einzuhalten 1664
finanzi@@ 1664
flexi@@ 1663
geräten 1663
Kreativität 1662
Original 1662
Tür@@ 1662
kostenfrei 1662
Einschränkung 1661
detaillierte 1661
enne 1661
ignoriert 1661
sauber 1661
71 1660
Kla@@ 1660
fiel 1660
Darin 1659
Royal 1659
Techniken 1659
liberalen 1659
mithilfe 1659
sätzen 1659
würdige 1659
yl@@ 1659
IV 1658
Muster 1658
Kü@@ 1657
Lebensqualität 1657
pal@@ 1657
tigungs@@ 1657
2.0 1656
Föderation 1656
Gebühr 1656
Kohärenz 1656
Schwarz@@ 1656
aufgaben 1656
kei@@ 1656
problemlos 1656
verbesserte 1656
val@@ 1655
voran 1655
PSE 1654
Schu@@ 1654
solide 1654
Gewal@@ 1653
Güter@@ 1653
amt 1653
verw@@ 1653
Berichterstattern 1652
Tim@@ 1652
Training 1652
Tsch@@ 1652
normale 1652
ž@@ 1652
Governance 1651
Zw@@ 1651
ausgewählten 1651
beträchtliche 1651
mals 1651
Operation 1650
Verkehr@@ 1650
getötet 1650
Freiwil@@ 1649
Lebensmitteln 1649
Volk@@ 1649
fällig 1649
spiegelt 1649
zige 1649
Eigenschaft 1648
Streit@@ 1648
alternative 1648
sport@@ 1648
terer 1648
Diam@@ 1647
Geräten 1647
Libanon 1647
Will@@ 1647
seri@@ 1647
59 1646
Maastricht 1646
abhängi@@ 1646
lichste 1646
nieren 1646
verwalten 1646
will@@ 1646
Alpen 1645
Reaktionen 1645
Schle@@ 1645
keinesfalls 1644
zuge@@ 1644
ältere 1644
Charme 1643
ernste 1643
stücke 1643
Aktivität 1642
fizierungs@@ 1642
geld 1642
wartet 1642
George 1641
Krieg@@ 1641
Wald 1641
Wissens@@ 1641
Wort@@ 1641
digte 1641
erläutert 1641
Armen 1640
Jugoslawien 1640
mess@@ 1640
Amtszeit 1639
Bewertungen 1639
nutzbar 1639
orientiert 1639
siv@@ 1639
Auslegung 1637
Schil@@ 1637
Span@@ 1637
bewer@@ 1637
gän@@ 1637
Erfolgs@@ 1636
Innerhalb 1636
tot@@ 1636
zustellen 1636
Clubs 1635
Einzelnen 1635
Entwicklungszusammenarbeit 1635
Freuen 1635
Gerichten 1635
Integrations@@ 1635
ks@@ 1635
liert 1635
multi@@ 1635
ologisch 1635
vis@@ 1635
zog 1635
Getränke 1634
Komplettpreise 1634
OT@@ 1634
Schnell@@ 1634
gering@@ 1634
Minibar 1633
geholfen 1633
kel 1633
mobile 1633
teilgenommen 1633
tnis@@ 1633
Ah@@ 1632
Marktwirtschaft 1632
ruf 1632
zusehen 1632
Schlaf@@ 1631
Weltbank 1631
ello 1631
frucht@@ 1631
HT@@ 1630
Quoten 1630
Zahn@@ 1630
gerung 1630
versicherung 1630
Gespräch 1629
Gärten 1629
kg 1629
kritisch 1629
Dre@@ 1628
Island 1628
alleine 1628
faire 1628
meldungen 1628
ora 1628
schlechten 1628
German 1627
Vermittlung 1627
ökologische 1627
Ersatz@@ 1626
Künstler@@ 1626
Transaktionen 1626
Tschechischen 1626
Zwangs@@ 1626
dynam@@ 1626
gebilligt 1626
glei@@ 1626
schnell@@ 1626
Neues 1625
Seg@@ 1625
Sozialdemokraten 1625
endgültig 1625
frag@@ 1625
führungen 1625
geschlagen 1625
räu@@ 1625
sichts@@ 1625
zweifel@@ 1625
ös 1625
Palästina 1624
city 1624
Branchen 1623
Gemäß 1623
Lager@@ 1623
Wettbewer@@ 1623
ausgewogenen 1623
bearbeitet 1623
blieb 1623
gendes 1623
steuerung 1623
Bergen 1622
EWG 1622
alisierten 1622
bildungs@@ 1622
off@@ 1622
vereinfachen 1622
Absichten 1621
Aqu@@ 1621
Geschäft@@ 1621
J 1621
einzelstaatlichen 1621
umfassen@@ 1621
verehrten 1621
alisierte 1620
ingt 1620
Instrumenten 1619
Luf@@ 1619
Stamm@@ 1619
fenster 1619
nern 1619
teuer 1619
zel@@ 1619
Kabel@@ 1618
dokum@@ 1618
irgendwelche 1618
kn@@ 1618
Log@@ 1617
arische 1617
ausführen 1617
empfin@@ 1617
englischen 1617
mitgeteilt 1617
tiefe 1617
tigte 1617
26@@ 1616
Verstärkung 1616
Zimmerservice 1616
atives 1616
hinaus@@ 1616
konzept 1616
negativ 1616
Dienstleistung 1615
Wetter 1615
mas 1615
name 1615
portugiesischen 1615
übergeben 1615
Metall@@ 1614
beach@@ 1614
pfung 1614
q@@ 1614
reform 1614
Früh@@ 1613
Lim@@ 1613
eigenem 1613
ont 1613
ret@@ 1613
Гј@@ 1613
Direkt@@ 1612
hef@@ 1612
tation 1612
vierte 1612
66 1611
achtet 1611
atten 1611
58 1610
Fax 1610
Scho@@ 1610
UNG 1610
ablen 1610
diger 1610
irgendwo 1610
Umsatz 1609
aro@@ 1609
feiern 1609
pour 1609
registriert 1609
vielsei@@ 1609
änen 1609
EC 1608
Flugzeuge 1608
Zufriedenheit 1608
befürworte 1608
eingebunden 1608
kurzfristig 1608
ot 1608
Französisch 1607
e.@@ 1607
hil@@ 1607
treff@@ 1607
Bewegungen 1606
els@@ 1606
produzi@@ 1606
status 1606
Stabilitäts- 1605
err@@ 1605
größe 1605
kunden@@ 1605
ologi@@ 1605
ère 1605
begangen 1604
lehnen 1604
qualifizierten 1604
räum@@ 1604
suche 1604
Finanzmärkte 1603
schlage 1603
teure 1603
wör@@ 1603
CS 1602
konsolidi@@ 1602
real 1602
Ähn@@ 1602
5,@@ 1601
Lad@@ 1601
Lieb@@ 1601
Mod@@ 1601
Spre@@ 1601
halt@@ 1601
örtlichen 1601
Opfern 1600
abzielen 1600
fertigt 1600
gesetzte 1600
industri@@ 1600
schluss 1600
such@@ 1600
Weiterbildung 1599
Wirk@@ 1599
erfolgte 1599
versehen 1599
Gegenwart 1598
Malta 1598
by@@ 1598
genehmigt 1598
statten 1598
tru@@ 1598
Dritter 1597
Py@@ 1597
ves 1597
Entschließungen 1596
Pen@@ 1596
Sony 1596
durchgeführten 1596
ess 1596
Kommissare 1595
Konstruktion 1595
bergen 1595
öff@@ 1595
Medizin 1594
Pension 1594
Rein@@ 1594
let@@ 1594
non 1594
wenigstens 1594
Anweisungen 1593
Insel@@ 1593
Organen 1593
Tempo 1593
Work@@ 1593
free 1593
gewählte 1593
seiten 1593
Budget 1592
Foundation 1592
trans@@ 1592
vermögen 1592
Putin 1591
Renten@@ 1591
Schö@@ 1591
Soweit 1591
Tru@@ 1591
hilfen 1591
¼ 1591
27. 1590
Innovations@@ 1590
ez 1590
passende 1590
prakti@@ 1590
Scheitern 1589
big 1589
olo@@ 1589
auszuüben 1588
fehler@@ 1588
oberen 1588
vertre@@ 1588
Aktien 1587
Check 1587
Christdemokraten 1587
Inneres 1587
Wachstums 1587
elemente 1587
fried@@ 1587
kte 1587
Alltag 1586
Optimierung 1586
Professor 1586
Realisierung 1586
eil 1586
klarer 1586
ac 1585
eingereichten 1585
werks 1585
Mail@@ 1584
ausgelöst 1584
droht 1584
gutem 1584
· 1584
ökonom@@ 1584
Mad@@ 1583
friedlichen 1583
verhandeln 1583
Überwachungs@@ 1583
Bot@@ 1582
emen 1582
more 1582
nation@@ 1582
Ferien 1581
IP@@ 1581
Miet@@ 1581
Wir@@ 1581
ausgesch@@ 1581
chtig 1581
Taiwan 1580
Unterhaltung 1580
angelegt 1580
entscheidet 1580
gesunden 1580
niederländischen 1580
parallel 1580
Frühjahr 1579
analysieren 1579
kräften 1579
bereitung 1578
schm@@ 1578
Bü@@ 1577
Community 1577
SE 1577
büro 1577
einzel@@ 1577
zusammenzuarbeiten 1577
ç@@ 1577
Migrations@@ 1576
ents 1576
herauszu@@ 1576
sämtlichen 1576
Flugzeug 1575
denselben 1575
trauri@@ 1575
Beruf 1574
Start@@ 1574
Vertei@@ 1574
Wikitravel 1574
berechtigten 1574
stärkeren 1574
Bin@@ 1573
Empfänger 1573
Mitglieds@@ 1573
antrag 1573
namen 1572
para 1572
ñ@@ 1572
Fehlen 1571
Lehre 1571
geführten 1571
zurückkehren 1571
änder@@ 1571
Gesellschafts@@ 1570
bewertung 1570
disch 1570
komplex 1570
lichkeits@@ 1570
Fri@@ 1569
Kongress 1569
benden 1569
dad 1569
flug 1569
innov@@ 1569
Ein- 1568
Heiligen 1568
charakter@@ 1568
fahrten 1568
ran 1568
stecken 1568
zell@@ 1568
konzipiert 1567
schn@@ 1567
ó 1567
AN 1566
Massage 1566
Pflege 1566
Brau@@ 1565
Las 1565
fang 1565
Aufnahmen 1564
Instruments 1564
Top@@ 1564
interessieren 1564
izi@@ 1564
oper@@ 1564
Weißbuch 1563
beeinträchtigt 1563
bit 1563
weiterzu@@ 1563
Erkenntnisse 1562
Hektar 1562
Herrschaft 1562
gab@@ 1562
lle 1562
verstoßen 1562
Grundfreiheiten 1561
Meister@@ 1561
asen 1560
effektiver 1560
gefangen 1560
gäbe 1560
hand 1560
verwaltet 1560
AD 1559
Pet@@ 1559
Slowenien 1559
Transfer 1559
angeschlossen 1559
ann 1559
boden 1559
Desktop 1558
Kommissionsvorschlag 1558
Kul@@ 1558
ero 1558
plat@@ 1558
t- 1558
Abstimmungen 1557
agentur 1557
ehen 1557
fach 1557
Koordination 1556
Vorsitzende 1556
information 1556
kamp@@ 1556
lässig@@ 1556
untergraben 1556
wofür 1556
zten 1556
beschei@@ 1555
einzurichten 1555
hersteller 1555
ih@@ 1555
Feier@@ 1554
pla@@ 1554
ruppe 1554
ürzt 1554
Zugangs 1553
eleg@@ 1553
Textes 1552
konstruktiven 1552
schieben 1552
östlichen 1552
Geschlechter 1551
Hof 1551
IR@@ 1551
Niemand 1551
blatt 1551
ral 1551
Übersetzungs@@ 1551
1,5 1550
67 1550
ail@@ 1550
bezogene 1550
57 1549
Anregungen 1549
St 1549
angefangen 1549
blu@@ 1549
einzelner 1549
sem@@ 1549
Kirchen 1548
University 1548
gewachsen 1548
längst 1548
mann@@ 1548
na@@ 1548
realisieren 1548
Diensten 1547
bedauern 1547
unterwegs 1547
Aktions@@ 1546
IB@@ 1546
Investition 1546
LE 1546
Stad@@ 1546
Vorwand 1546
Wen@@ 1546
ansonsten 1546
gesellschaftliche 1546
nütz@@ 1546
q 1546
reale 1546
Genuss 1545
Leit@@ 1545
begleiten 1545
reiben 1545
schungen 1545
ypen 1545
Arbeitsweise 1544
Armuts@@ 1544
Bezahlung 1544
Minister@@ 1544
dri@@ 1544
gefasst 1544
ú@@ 1544
Arbeiter 1543
BO@@ 1543
Bedingung 1543
Motto 1543
Verzögerungen 1543
schein 1543
Dol@@ 1542
Partnerschaften 1542
netz@@ 1542
Konflikts 1541
Lich@@ 1541
Vizepräsident 1541
beschreiben 1541
verkauf 1541
Bom@@ 1540
Marken@@ 1540
breakfast 1540
gegenüber@@ 1540
sicherheits@@ 1540
ül@@ 1540
Fragestunde 1539
Gesetzes 1539
Luftfahrt@@ 1539
aufrechterhalten 1539
modernes 1539
verankert 1539
Tourismus@@ 1538
landes 1538
11.@@ 1537
durchsetzen 1537
mündliche 1537
schützt 1537
ska 1537
staat@@ 1537
AV@@ 1536
Analysen 1536
Nation@@ 1535
Referenz@@ 1535
elen 1535
posi@@ 1535
Albanien 1534
Designer 1534
Jahresbericht 1534
Vergnügen 1534
eindrucks@@ 1534
kürz@@ 1534
parlamentarische 1534
probieren 1534
vorherigen 1534
Transpor@@ 1533
brech@@ 1533
einziges 1533
schläge 1533
Moskau 1532
Palace 1532
benannt 1532
kreis 1532
Aktien@@ 1531
Empfang 1531
getreten 1531
sitz@@ 1531
Stock 1530
regierung 1530
Rand 1529
gewiss 1529
samen 1529
Beratungs@@ 1528
Danke 1528
OL@@ 1528
händler 1528
kan 1528
steckt 1528
währ@@ 1528
xe 1528
Gewinner 1527
dau@@ 1527
Schwe@@ 1526
stärkt 1526
Corporate 1525
Standpunkte 1525
Vereinigung 1525
diensten 1525
hä@@ 1525
ministerium 1525
neben@@ 1525
tat 1525
traum 1525
vorsichtig 1525
effektiven 1524
just 1524
konfli@@ 1524
rasche 1524
Audio@@ 1523
Schne@@ 1523
digten 1523
irgendeiner 1523
Abenteuer 1522
Ereignissen 1522
burger 1522
dig@@ 1522
harmonisi@@ 1522
Indem 1521
gegenseitig 1521
suite 1521
wenigsten 1521
Beruf@@ 1520
chter@@ 1520
finanziell 1520
ron 1520
Canon 1519
aufweisen 1519
beseitigt 1519
dlichkeit 1519
engagiert 1519
zigen 1519
Wartung 1518
ration 1518
richti@@ 1518
still@@ 1518
üblich 1518
Beendigung 1517
Menschenhandel 1517
anz@@ 1517
frist 1517
Legitimität 1516
Pilot@@ 1516
Süd 1516
Untersuchungs@@ 1516
angehören 1516
geschäf@@ 1516
leiter 1516
mar 1516
projek@@ 1516
vorherige 1516
Finanziellen 1515
Ost 1515
Schatten 1515
gige 1515
mul@@ 1515
zumal 1515
6,@@ 1514
Mobile 1514
gerichtete 1514
monat@@ 1514
set@@ 1514
tivi@@ 1514
ulen 1514
unde 1514
wichti@@ 1514
IK@@ 1513
Kreuz@@ 1513
bereitzustellen 1513
bungen 1513
erre@@ 1513
gleicher 1513
thin 1513
beider 1512
birgt 1512
code 1512
elli@@ 1512
namens 1512
näh@@ 1512
vertra@@ 1512
Perspektiven 1511
freund@@ 1511
sprä@@ 1511
Binnenmarkts 1510
Halle 1510
Puerto 1510
TS 1510
beitreten 1510
internationales 1510
kultur 1510
schnelles 1510
Problem@@ 1509
bli@@ 1509
zeigten 1509
überlegen 1509
88 1508
Besonderheiten 1508
ständi@@ 1508
Heil@@ 1507
Informationsgesellschaft 1507
Rahmens 1507
Verzögerung 1507
mern 1507
tägliche 1507
türkische 1507
work 1507
Beobachter 1506
Cou@@ 1506
Galerie 1506
Life 1506
analy@@ 1506
chtigkeit 1506
igten 1506
Glob@@ 1505
Parlamenten 1505
fliegen 1505
intensi@@ 1505
schaden 1505
Air@@ 1504
Ausgleich 1504
Autoren 1504
angeben 1504
behand@@ 1504
kehren 1504
kommende 1504
Dienst@@ 1503
Moder@@ 1503
Rats@@ 1503
errichten 1503
erworben 1503
exklusiven 1503
füll@@ 1503
© 1503
entieren 1502
gerechten 1502
nord@@ 1502
unterhalten 1502
Effekte 1501
IF@@ 1501
bilder 1501
erfahr@@ 1501
kommerzielle 1501
stechnik 1501
ungarischen 1501
Afri@@ 1500
Home 1500
müsse 1500
Archiv 1499
Gleichbehandlung 1499
MA 1499
Pin@@ 1499
Zit@@ 1499
riesige 1499
süd@@ 1499
Erd@@ 1498
Rit@@ 1498
View 1498
ani 1498
dein 1498
Attraktionen 1497
Bett 1497
Lösungs@@ 1497
Tatsachen 1497
Vorbereitungen 1497
mission 1497
Gelegenheiten 1496
Kluft 1496
begreifen 1496
müßte 1496
streichen 1496
vergleichen 1496
Comp@@ 1495
Islam 1495
Rom@@ 1495
Vergleich@@ 1495
bestens 1495
gesell@@ 1495
pft 1495
publi@@ 1495
schaf@@ 1495
ton@@ 1495
wirkungen 1495
89 1494
See@@ 1494
Vorredner 1494
reine 1494
schuldig 1494
trieb@@ 1494
van@@ 1494
Entdecken 1493
Präsidium 1493
steigenden 1493
zutiefst 1493
77 1492
Hinsichtlich 1492
belgischen 1492
interessen 1492
krank@@ 1492
schlimmer 1492
wünschenswert 1492
ärm@@ 1492
Betriebssystem 1491
Erkenn@@ 1491
enorm 1491
harte 1491
hiermit 1491
our@@ 1491
schaftlichen 1491
Geschenk 1490
begrenzten 1490
gerichteten 1490
hinzuweisen 1490
ignorieren 1490
Ehr@@ 1489
jährliche 1489
landwirtschaftliche 1489
registrieren 1489
Implementierung 1488
aufgehoben 1488
biologischen 1488
jahres@@ 1488
kompatibel 1488
therapie 1488
wachsen@@ 1488
Rande 1487
Rec@@ 1487
strafrech@@ 1487
unterstreicht 1487
verhandlungen 1487
AP@@ 1486
SC@@ 1486
Tunesien 1486
We@@ 1486
bene 1486
reiz@@ 1486
typische 1486
Folglich 1485
Tun@@ 1485
friedliche 1485
haftet 1485
wendungen 1485
Beweise 1484
Fahrzeug@@ 1484
Frü@@ 1484
Schwellen@@ 1484
Servic@@ 1484
betrag 1484
Abgesehen 1483
aket 1483
bs@@ 1483
deinen 1483
jeweilige 1483
mitzu@@ 1483
.org 1482
Ernennung 1482
Gran@@ 1482
Integrität 1482
Trop@@ 1482
centre 1482
erbar 1482
Digital 1481
Tendenz 1481
ebene 1481
ertem 1481
sender 1481
Content 1480
Hilfen 1480
gefällt 1480
klares 1480
positionen 1480
diskrimin@@ 1479
verbrau@@ 1479
Kongres@@ 1477
finanzieller 1477
ruhiger 1477
Rak@@ 1476
Sowjetunion 1476
Stattdessen 1476
Stein 1476
Stich@@ 1476
frischen 1476
ix 1476
kten 1476
odi@@ 1476
Übersetzungen 1476
93 1475
Besitzer 1475
Netzes 1475
aufwand 1475
82 1474
Gran 1474
Libyen 1474
amtierender 1474
konto 1474
nom@@ 1474
Defizite 1472
Ech@@ 1472
agieren 1472
hte 1472
unterliegt 1472
verst@@ 1472
niedriger 1471
ose 1471
spruch 1471
AR 1470
Ernährung 1470
Flotte 1470
Mitwirkung 1470
TI@@ 1470
ces 1470
erreichte 1470
ni 1470
schwerer 1470
tags 1470
taus@@ 1470
Bisher 1469
Energieversorgung 1469
Installations@@ 1469
halb@@ 1469
Abfälle 1468
Effektivität 1468
projekten 1468
Pir@@ 1467
vorschlägt 1467
Ankündigung 1466
Büro@@ 1466
Kin@@ 1466
Mallorca 1466
hebt 1466
inbegriffen 1466
Acht 1465
Sonn@@ 1465
Spielraum 1465
Team@@ 1465
aufeinander 1465
dauerhafte 1465
schlechter 1465
ströme 1465
Administration 1464
mod@@ 1464
Besuchern 1463
fizieren 1463
gipfel 1463
sexuelle 1463
Camp@@ 1462
Gerä@@ 1462
Leid 1462
bist 1462
gert 1462
stab@@ 1462
Abstand 1461
geo@@ 1461
vorangegangenen 1461
Boot@@ 1460
Mehrwertsteuer 1460
Simbabwe 1460
parti@@ 1460
verständ@@ 1460
Musi@@ 1459
glücklich 1459
zahlreicher 1459
Doha 1458
Tit@@ 1458
fluss 1458
füh@@ 1458
kommens 1458
live 1458
museum 1458
Hochschul@@ 1457
Petitions@@ 1457
SAP 1457
Schlag@@ 1457
Welthandelsorganisation 1457
aktivitäten 1457
geklärt 1457
grüne 1457
jo 1457
leitet 1457
reit@@ 1457
satzes 1457
unkte 1457
vermis@@ 1457
vorkommen 1457
Billi@@ 1456
Frage@@ 1456
Karriere 1456
glichkeit 1456
institutionen 1456
lam@@ 1456
versetzt 1456
wozu 1456
Flü@@ 1455
Plas@@ 1455
Tar@@ 1455
natur@@ 1455
test 1455
Fernseher 1454
Ganzes 1454
Montage 1454
nützliche 1454
XP 1453
abzielt 1453
erbaut 1453
gebrochen 1453
gewis@@ 1453
urs 1453
weißen 1453
ema 1452
Anhänger 1451
Berei@@ 1451
Christen 1451
verhältnisse 1451
vorsch@@ 1451
strah@@ 1450
zah@@ 1450
Baby@@ 1449
Kön@@ 1449
Ner@@ 1449
löst 1449
mie 1449
verschieben 1449
Dienstag 1448
Real@@ 1448
Seen 1448
ermitteln 1448
rou@@ 1448
Stahl 1447
bricht 1447
Breit@@ 1446
Studium 1446
Trends 1446
durchgesetzt 1446
vierten 1446
wu@@ 1446
Gaza 1445
Playa 1445
Ursprungs@@ 1445
ausgewogene 1445
einig@@ 1445
gehörige 1445
korrigieren 1445
otel 1445
tätigkeit 1445
Nat@@ 1444
Sim@@ 1444
fühlt 1444
klausel 1444
regen 1444
Wand@@ 1443
nö@@ 1443
Data 1442
Zielsetzung 1442
ausgearbeitet 1442
hor@@ 1442
potenti@@ 1442
schöner 1442
stag@@ 1442
utz@@ 1442
GVO 1441
Hoh@@ 1441
Ursprung 1441
Verkäufer 1441
Vermeidung 1441
denkt 1441
hinein 1441
stil@@ 1441
Feuer 1440
bereitstellen 1440
objek@@ 1440
Buchungs@@ 1439
asp@@ 1439
auseinander 1439
zeitraum 1439
Inhaber 1438
Mini 1438
Mont@@ 1438
messe 1438
ord 1438
zuverlässig 1438
62 1437
Budapest 1437
Zugleich 1437
Zulassung 1437
iere 1437
inieren 1437
ly@@ 1437
ther 1437
í 1437
BMW 1436
Zusammen 1436
personal 1436
stabile 1436
EW@@ 1435
Minderheiten@@ 1435
ille 1435
Nachbarschaftspolitik 1434
Ufer 1434
mente 1434
verknüpft 1434
Infrastrukturen 1433
idealen 1433
spielte 1433
Jahrzehnte 1432
anstreben 1432
drück@@ 1432
ganz@@ 1432
sek@@ 1432
Auseinandersetzung 1431
Dach 1431
Mah@@ 1431
Metern 1431
Nacht@@ 1431
bezahl@@ 1431
erw@@ 1431
78 1430
Aufruf 1430
Berater 1430
Ostsee 1430
ama 1430
diesmal 1430
herrliche 1430
tes@@ 1430
ulieren 1430
Flüge 1429
Manche 1429
Reak@@ 1429
Zwecken 1429
bach 1429
kali@@ 1429
verbieten 1429
Konflikten 1428
analyse 1428
fristig 1428
zerstör@@ 1428
Erste 1427
Sha@@ 1427
gegebenen 1427
tiker 1427
ume 1427
uten 1427
zwangsläufig 1427
Arbeitskräfte 1426
Ele@@ 1426
anstelle 1426
bemerken 1426
gesunde 1426
info 1426
kreu@@ 1426
AC 1425
Hügel 1425
bereichs 1425
ernden 1425
mali@@ 1425
mengen 1425
plant 1425
zungen 1425
Kurse 1424
Taste 1424
bedeutend 1424
ffene 1424
islamischen 1424
Atlan@@ 1423
exklusive 1423
maß@@ 1423
sitz 1423
ssigen 1423
Aufrechterhaltung 1422
Bedienung 1422
Dringlichkeit 1422
Karten@@ 1422
Tak@@ 1422
abel@@ 1422
char@@ 1422
junger 1422
lie 1422
netze 1422
ßer 1422
Erreichen 1421
Säule 1421
arm@@ 1421
fertigen 1421
lück@@ 1421
ttern 1421
wesens 1421
äufe 1421
fertig@@ 1420
intensiven 1420
Ali@@ 1419
Genf 1419
Ret@@ 1419
SD@@ 1419
Tickets 1419
Unternehmen@@ 1419
bekräftigen 1419
kanische 1419
lohnt 1419
schneiden 1419
systematisch 1419
zeichnete 1419
Cli@@ 1418
Entspannen 1418
beu@@ 1418
zerti@@ 1418
zukunfts@@ 1418
Herr@@ 1417
PC@@ 1417
Wit@@ 1417
analysiert 1417
ausgelegt 1417
bewe@@ 1417
nennt 1417
tions 1417
Cra@@ 1416
Tennis@@ 1416
besagt 1416
energie 1416
zugs@@ 1416
Angel@@ 1415
Behinderungen 1415
Partei@@ 1415
japanischen 1415
jo@@ 1415
sinn 1415
sozusagen 1415
unmittelbaren 1415
vorrangig 1415
Est@@ 1414
Sicherheits- 1414
ade@@ 1414
anzugehen 1414
erhö@@ 1414
glück@@ 1414
ET 1413
Entstehung 1413
ca@@ 1413
ensystem 1413
marktes 1413
zukünftig 1413
ßte 1413
Ausstellungen 1412
Box 1412
Oliven@@ 1412
verbot 1412
Begriffe 1411
Cha@@ 1411
Eli@@ 1411
Klassi@@ 1411
SQL 1411
reibung 1411
ty@@ 1411
verschoben 1411
Fristen 1410
Informations- 1410
Res@@ 1410
samer 1410
taten 1410
wen 1410
üben 1410
Mittel- 1409
Rus@@ 1409
Virus 1409
fahrzeugen 1409
änder 1409
Bek@@ 1408
Brief 1408
Einsch@@ 1408
besseres 1408
führender 1408
Point 1407
komfortabel 1407
kün@@ 1407
orten 1407
umfassendes 1407
versuche 1407
Tibet 1406
belegt 1406
programmi@@ 1406
rati@@ 1406
reduzi@@ 1406
reguli@@ 1406
verleiht 1406
zerstören 1406
Annäherung 1405
Nahrungsmittel 1405
On@@ 1405
Reihenfolge 1405
kompletten 1405
only 1405
schrieb 1405
Ecke 1404
Gau@@ 1404
Get@@ 1404
OM@@ 1404
defizit 1404
enter@@ 1404
gekauft 1404
gewöhnlich 1404
7,@@ 1403
Blut 1403
Meg@@ 1403
Oli@@ 1403
Reich 1403
Unserer 1403
Vermögens@@ 1403
chts@@ 1403
ehm@@ 1403
rö@@ 1403
tausende 1403
Öko@@ 1403
Datenbanken 1402
Front 1402
Haushaltsjahr 1402
Lobby 1402
Ok@@ 1402
schulden 1402
tung@@ 1402
wahrnehmen 1402
Territorium 1401
Trennung 1401
cor@@ 1401
dy@@ 1401
verstärkten 1401
App@@ 1400
Ausgang 1400
Fahrrad@@ 1400
Internetseite 1400
Stei@@ 1400
geltend 1400
Gleichheit 1399
Pflanzen@@ 1399
Visa 1399
ferenzen 1399
fundament@@ 1399
strategien 1399
uliert 1399
Kop@@ 1398
Sper@@ 1398
freiem 1398
gebenen 1398
reis@@ 1398
sle@@ 1398
Dum@@ 1397
EVP 1397
Gefangenen 1397
Statistik 1397
asiatischen 1397
begab 1397
nachzudenken 1397
verwirklicht 1397
Dafürhalten 1396
Elementen 1396
Reichtum 1396
fehlende 1396
für@@ 1396
regelmäßigen 1396
strasse 1396
Meinungs@@ 1395
artige 1395
ies 1395
personenbezogenen 1395
schreit@@ 1395
schä@@ 1395
stein@@ 1395
stischer 1395
Flug 1394
Gew@@ 1394
Schön@@ 1394
Ton 1394
Zug@@ 1394
eingerichtete 1394
rahmens 1394
verwöhnen 1394
Arzt 1393
Einwände 1393
Solange 1393
a.@@ 1393
prüfung 1393
rägern 1393
ze@@ 1393
ès 1393
Komponente 1392
Kredite 1392
Nichtregierungsorganisationen 1392
Statut 1392
Treiber 1392
gratis 1392
bevölkerung 1391
ela 1391
Indikatoren 1390
Zins@@ 1390
maßgeb@@ 1390
mehrerer 1390
schönes 1390
verbindlich 1390
Board 1389
Kommentar 1389
Person@@ 1389
Umstrukturierung 1389
Verantwortungs@@ 1389
Wach@@ 1389
billi@@ 1389
erlau@@ 1389
indirekt 1389
kompliziert 1389
umgekehrt 1389
weichen 1389
wis@@ 1389
Leg@@ 1388
Stellenwert 1388
ire 1388
schwedische 1388
verschiedensten 1388
Aussichten 1387
Café 1387
Freie 1387
Vista 1387
genauen 1387
klassische 1387
lieren 1387
längere 1387
wick@@ 1387
wäh@@ 1387
Pr@@ 1386
Ratspräsidenten 1386
gkeits@@ 1386
niedrig 1386
sendet 1386
sy@@ 1386
Open@@ 1385
deutlicher 1385
film 1385
gefolgt 1385
herz@@ 1385
stätte 1385
verbesser@@ 1385
waffen 1385
Einheiten 1384
Event 1384
Fleisch@@ 1384
Hard@@ 1384
Orts@@ 1384
anspruchs@@ 1384
beantragt 1384
beglei@@ 1384
verstän@@ 1384
web@@ 1384
Außengrenzen 1383
Eigentümer 1383
Passagi@@ 1383
aux 1383
fünf@@ 1383
irre@@ 1383
nah 1383
BR@@ 1382
Breakfast 1382
Generalsekretär 1382
Hans 1382
Inanspruchnahme 1382
TH@@ 1382
Tel 1382
rich 1382
skosten 1382
stehe 1382
verwand@@ 1382
wirkung 1382
zulässig 1382
Argentinien 1381
Cu@@ 1381
arte 1381
new 1381
Bit 1380
Mauer 1380
Wahr@@ 1380
altern@@ 1380
deut@@ 1380
einheit 1380
schied@@ 1380
vernünftigen 1379
Entschädigung 1378
Pack 1378
dom@@ 1378
erb@@ 1378
roman@@ 1378
Befehl 1377
Hom@@ 1377
Linken 1377
Sicherheitsrat 1377
ance 1377
einheiten 1377
unteren 1377
Fle@@ 1376
Geschäftsbedingungen 1376
NO@@ 1376
Skla@@ 1376
Stütz@@ 1376
dos 1376
giert 1376
Cat@@ 1375
Flüchtlings@@ 1375
Interessen@@ 1375
Party 1375
dunk@@ 1375
häusern 1375
lässigen 1375
zugän@@ 1375
Ersatz 1374
dreht 1374
ersuchen 1374
Service@@ 1373
Verhältnisse 1373
einbringen 1373
gelöscht 1373
ico 1373
partner 1373
pp 1373
votes 1373
ws 1373
Arbeitslosen@@ 1372
Glo@@ 1372
aush@@ 1372
bung 1372
can@@ 1372
eien 1372
heu@@ 1372
koordinieren 1372
proz@@ 1372
übersetzt 1372
Il@@ 1371
gabe@@ 1371
llen 1371
stet 1371
Automobilindustrie 1370
Deb@@ 1370
Südo@@ 1370
Wissen@@ 1370
haus@@ 1370
maß 1370
nehmer 1370
over 1370
Fast 1369
Völkern 1369
abgesch@@ 1369
bürger@@ 1369
einzustellen 1369
igkeiten 1369
zö@@ 1369
Aufwand 1368
Feld@@ 1368
Wasch@@ 1368
finanzierung 1368
initi@@ 1368
jähriger 1368
Gefäng@@ 1367
Strasse 1367
Temperatur 1367
dest@@ 1367
eingerichteten 1367
technologie 1367
tin@@ 1367
under 1367
vorzuschlagen 1367
xes 1367
¶ 1367
63 1366
Anzeichen 1366
Kreis 1366
Pau@@ 1366
Zut@@ 1366
beeinträchtigen 1366
dänischen 1366
max 1366
part 1366
ville 1366
Vermarktung 1365
firmen 1365
wiederhole 1365
ältesten 1365
94 1364
Panorama 1364
Reden 1364
iler 1364
lassung 1364
serv@@ 1364
weisungen 1364
Rechtssicherheit 1363
Wiener 1363
any 1363
io 1363
AIDS 1362
Tschetschenien 1362
iPhone 1362
Demokratien 1361
Ty@@ 1361
abgehalten 1361
meter 1361
moralische 1361
sichti@@ 1361
versi@@ 1361
Kathedrale 1360
ständiger 1360
tü@@ 1359
Einfluß 1358
Sozialpolitik 1358
gebühr 1358
kommission 1358
lager 1358
mol@@ 1358
nördlichen 1358
tigten 1358
Diktatur 1357
Sorgfalt 1357
Vorbild 1357
ams 1357
korrekte 1357
AK@@ 1356
Demokratisierung 1356
Empfän@@ 1356
gemeinschaftliche 1356
schmerz@@ 1356
ł@@ 1356
91 1355
EX 1355
Naturkatastrophen 1355
Strah@@ 1355
gesorgt 1355
weis 1355
Allgemeine 1354
ausgeübt 1354
bauten 1354
beding@@ 1354
beglückwünsche 1354
gas 1354
menü 1354
Chem@@ 1353
Leidenschaft 1353
Reserve 1353
Tisch@@ 1353
annt 1353
breites 1353
fes 1353
musik 1353
rig@@ 1353
wohn@@ 1353
Unterhaltungs@@ 1352
nice 1352
rie 1352
verpflich@@ 1352
vit@@ 1352
86 1351
brauch 1351
fasst 1351
kommunistischen 1351
meister 1351
überwiegend 1351
Anmerkung 1350
Augenmerk 1350
Finanz- 1350
Gewährung 1350
Neu 1350
On 1350
begeistert 1350
ester@@ 1350
Ander@@ 1349
Energies@@ 1349
beantragen 1349
fern@@ 1349
größtenteils 1349
stoppen 1349
Aktivi@@ 1348
Gesamtheit 1348
Haf@@ 1348
Mass@@ 1348
Nachteil 1348
aktiver 1348
chem@@ 1348
gieren 1348
gründlich 1348
onie 1348
tatsächliche 1348
teilungen 1348
weitem 1348
Gesetzgebungs@@ 1347
Schiffen 1347
betrug 1347
materialien 1347
ordnen 1347
untereinander 1347
Assi@@ 1346
Kost@@ 1346
Quell@@ 1346
Stellungnahmen 1346
board 1346
fair 1346
män@@ 1346
Bür@@ 1345
Durchschnitt 1345
Mode 1345
Speicher 1345
dt 1345
industrielle 1345
vielfältige 1345
Treib@@ 1344
dauerhaften 1344
verliert 1344
ünde 1344
Material@@ 1343
deutscher 1343
Bud@@ 1342
CHF 1342
Kompromisse 1342
Marketing@@ 1342
ausgedrückt 1342
fortzusetzen 1342
pos@@ 1342
punk@@ 1342
rem 1342
vorhaben 1342
zeitlich 1342
Eintrag 1341
Interess@@ 1341
Mühe 1341
cho@@ 1341
vorne 1341
Aller@@ 1340
Grafiken 1340
König@@ 1340
Spek@@ 1340
Wochen@@ 1340
din 1340
standard 1340
vertei@@ 1340
vorausgesetzt 1340
Aufträge 1339
Samm@@ 1339
Telekommunikations@@ 1339
bedingt 1339
chemischen 1339
ommen 1339
ori 1339
ration@@ 1339
starker 1339
Features 1338
Indonesien 1338
Kompromiss@@ 1338
ST 1338
billigen 1338
dauerhaft 1338
terungen 1338
Zusammenbruch 1337
geschätzt 1337
user 1337
vermu@@ 1337
Ga@@ 1336
Kopie 1336
Vorbehalte 1336
reicher 1336
veränder@@ 1336
wissenschaften 1336
zustand 1336
Autonomie 1335
Folgendes 1335
chron@@ 1335
dahingehend 1335
raums 1335
welle 1335
UND 1334
Wahrscheinlichkeit 1334
anderswo 1334
einmalige 1334
religiöse 1334
Information@@ 1333
Kanal 1333
Schwimmbad 1333
beweist 1333
halb 1333
Konvents 1332
Leistungsfähigkeit 1332
Rio 1332
anbietet 1332
griechische 1332
hinzuzufügen 1332
Anreiz 1331
Dienstes 1331
Gesetzen 1331
Manchmal 1331
Touren 1331
ía 1331
Hierbei 1330
IV@@ 1330
mangelnde 1330
neueste 1330
transatlantischen 1330
Anim@@ 1329
Durchführungs@@ 1329
Kernenergie 1329
ebung 1329
faktor 1329
oo@@ 1329
Gemeinsam 1328
Impulse 1328
Key@@ 1328
Ran@@ 1328
müh@@ 1328
pläne 1328
vorhandene 1328
Ausfahrt 1327
Konstruk@@ 1327
Partnerschafts@@ 1327
Sie@@ 1327
abzulehnen 1327
belegen 1327
geordneten 1327
vereinfacht 1327
ys@@ 1327
Entwicklungspolitik 1326
Erneuerung 1326
Studien@@ 1326
Wahrnehmung 1326
ellem 1326
igung 1326
reibungen 1326
Beobach@@ 1325
einzigartig 1325
idealer 1325
site 1325
traum@@ 1325
81 1324
Master 1324
Wurzeln 1324
außergewöhnliche 1324
gischen 1324
mobili@@ 1324
quali@@ 1324
ALE 1323
Kommunikation@@ 1323
Sy@@ 1323
Zinsen 1323
bewirkt 1323
grös@@ 1323
kro@@ 1323
normal 1323
wende 1323
Aro@@ 1322
Redezeit 1322
Sau@@ 1322
Signale 1322
TA 1322
entiert 1322
großartige 1322
übrig 1322
MP3 1321
Städ@@ 1321
festhalten 1321
meistens 1321
mittel- 1321
Beachten 1320
Forst@@ 1320
Herberge 1320
PH@@ 1320
bezogenen 1320
old 1320
zip 1320
Whirlpool 1319
geren 1319
trock@@ 1319
veranstaltungen 1319
verschwinden 1319
Apple 1318
Rechtsan@@ 1318
allmählich 1318
daten@@ 1318
engagieren 1318
mo 1318
verhältnis 1318
69 1317
Feuer@@ 1317
Funktions@@ 1317
Substanzen 1317
derungen 1317
omp@@ 1317
Foren 1316
Minder@@ 1316
Onlin@@ 1316
einsetzt 1316
fähiger 1316
vil@@ 1316
Aufsicht 1315
EM 1315
Formel 1315
Immunität 1315
Piazza 1315
anfangen 1315
arbeiter 1315
beliebten 1315
ffs 1315
fuhren 1315
genügt 1315
Beitrittsverhandlungen 1314
Gefan@@ 1314
Zuerst 1314
besetzt 1314
einzuleiten 1314
erhol@@ 1314
73 1313
Einbindung 1313
Einwohnern 1313
lob@@ 1313
mache 1313
sieb@@ 1313
unterstrichen 1313
61 1312
AT 1312
Dam@@ 1312
Index 1312
Maß@@ 1312
orte 1312
schar@@ 1312
Landwirten 1311
Ol@@ 1311
Rock 1311
Siehe 1311
Urheber@@ 1311
differenzi@@ 1311
drin@@ 1311
fließen 1311
schaftliche 1311
start 1311
ystem 1311
Frankreichs 1310
Industriepolitik 1310
Schmu@@ 1310
Spuren 1310
ble 1310
mein@@ 1310
Jung@@ 1309
PRO@@ 1309
Sand 1309
optimalen 1309
sozial 1309
verglichen 1309
verträge 1309
zeichnungen 1309
Gegenstände 1308
ises 1308
my@@ 1308
voranzutreiben 1308
Berechnung 1307
Hierzu 1307
Juden 1307
Komple@@ 1307
Not 1307
Ziels 1307
kap@@ 1307
signi@@ 1307
76 1306
Einladung 1306
GR@@ 1306
Kle@@ 1306
Wechsel 1306
begrenz@@ 1306
fünfzehn 1306
gleichzei@@ 1306
stör@@ 1306
Anwendungsbereich 1305
inwieweit 1305
otten 1305
Benutzern 1304
Golfplatz 1304
Hab@@ 1304
Release 1304
erweiterte 1304
jahr@@ 1304
log 1304
rungen 1304
vorzubereiten 1304
Domain 1303
Etik@@ 1303
Nä@@ 1303
kus@@ 1303
ling@@ 1303
Demokrati@@ 1302
Dir 1302
Logo 1302
Mehrere 1302
Moderne 1302
Refer@@ 1302
ament 1302
iche 1302
illegal 1302
letztes 1302
derte 1301
grundlage 1301
Bak@@ 1300
Europäisches 1300
Halbinsel 1300
Koh@@ 1300
en.@@ 1300
Award 1299
Oper@@ 1299
Schwan@@ 1299
Tat@@ 1299
Unternehmer@@ 1299
Voraus 1299
leichten 1299
Operationen 1298
Reb@@ 1298
Sem@@ 1298
Wert@@ 1298
erschein@@ 1298
fache 1298
straßen 1298
tem@@ 1298
Control 1297
anlässlich 1297
mehrmals 1297
tels 1297
zivilen 1297
ausbildung 1296
ausgebaut 1296
erreichten 1296
fischen 1296
immerhin 1296
peri@@ 1296
ständiges 1296
verbin@@ 1296
DIE 1295
benötigten 1295
lem 1295
präz@@ 1295
sel 1295
Block@@ 1294
DC 1294
Green 1294
artig 1294
format 1294
kin@@ 1294
verbreiten 1294
ziehung 1294
äden 1294
,000 1293
Architekten 1293
Artikels 1293
Luxus@@ 1293
Nuklear@@ 1293
Solar@@ 1293
ary 1293
bten 1293
fak@@ 1293
inf@@ 1293
James 1292
Kie@@ 1292
Swiss 1292
kurz@@ 1292
ritt 1292
star 1292
Anreise 1291
Zauber@@ 1291
besticht 1291
ence 1291
multilateralen 1291
niedri@@ 1291
spre@@ 1291
Schlei@@ 1290
akten 1290
ausmachen 1290
benachrichtigt 1290
gehend 1290
gericht 1290
inge 1290
städtischen 1290
verbindliche 1290
Sozialisten 1289
entworfen 1289
geho@@ 1289
heik@@ 1289
revolution@@ 1289
tend 1289
vorbereiten 1289
Ansätze 1288
Beförderung 1288
Fußball 1288
Hoffnungen 1288
New@@ 1288
Orientierung 1288
bereitschaft 1288
forderungen 1288
zusammenzu@@ 1288
Insofern 1287
behindert 1287
erische 1287
malerischen 1287
position@@ 1287
ssige 1287
veröffentlichten 1287
Dienststellen 1286
HD 1286
Real 1286
UNESCO 1286
Zustellbetten 1286
befreien 1286
bekämpft 1286
egel@@ 1286
höh@@ 1286
intern@@ 1286
schwäch@@ 1286
verbindung 1286
Banken@@ 1285
Freien 1285
Moldau 1285
aden@@ 1285
ausführliche 1285
famili@@ 1285
stechn@@ 1285
sters 1285
zweck@@ 1285
Auswahl@@ 1284
Jahrzehnt 1284
Swimmingpool 1284
Zugangs@@ 1284
angeführt 1284
anten@@ 1284
erinnen 1284
geschwindigkeit 1284
gesetzliche 1284
neo@@ 1284
run@@ 1284
tragenen 1284
Gelände 1283
Hostel 1283
Temperaturen 1283
einhei@@ 1283
erie 1283
fel 1283
illi@@ 1283
motivi@@ 1283
weitergegeben 1283
Hunger 1282
bor@@ 1282
energie@@ 1282
investitionen 1282
Bag@@ 1281
Mol@@ 1281
Möchten 1281
Tee 1281
anen 1281
gebrau@@ 1281
gio 1281
packen 1281
sachen 1281
tner 1281
Königreichs 1280
Mitgliedsstaaten 1280
Norwegen 1280
Pum@@ 1280
Schiffs@@ 1280
Szene 1280
bul@@ 1280
ci 1280
datum 1280
dur@@ 1280
lichung 1280
stattung 1280
strebt 1280
Bürgerrechte 1279
DO@@ 1279
Küchen@@ 1279
Schluß 1279
Schlußfolgerungen 1279
Ungleichheiten 1279
gratuliere 1279
sensi@@ 1279
stau@@ 1279
treibt 1279
Neuigkeiten 1278
Tochter 1278
angemessener 1278
eur 1278
wandern 1278
wirksam@@ 1278
Gay 1277
Griff 1277
Meinungsäußerung 1277
Toleranz 1277
abzuschließen 1277
gültigen 1277
interess@@ 1277
kapit@@ 1277
Bou@@ 1276
HIV 1276
anstal@@ 1276
betreibt 1276
endete 1276
tors 1276
wickelt 1276
Eintritt 1275
Strategi@@ 1275
Variante 1275
bedürfen 1275
erschüt@@ 1275
quoten 1275
tags@@ 1275
74 1274
Blo@@ 1274
Visum@@ 1274
erkenn@@ 1274
gesetzlich 1274
getestet 1274
stunden 1274
Rand@@ 1273
UT@@ 1273
Verbrauch 1273
Zahlreiche 1273
Zeitungen 1273
berger 1273
inhal@@ 1273
Alp@@ 1272
CDs 1272
Dokument@@ 1272
Prü@@ 1272
feier@@ 1272
schle@@ 1272
server 1272
untern@@ 1272
Ari@@ 1271
Vielmehr 1271
abschließen 1271
ektionen 1271
entwickel@@ 1271
rec@@ 1271
wirksamer 1271
Schaf@@ 1270
Sämtliche 1270
Wunder 1270
amtierenden 1270
bers 1270
esse 1270
Ärzte 1270
bte 1269
füllt 1269
gelang 1269
häufiger 1269
koh@@ 1269
kö@@ 1269
manu@@ 1269
mieten 1269
serklärung 1269
Defizit 1268
Mailand 1268
stieg@@ 1268
Aktiv@@ 1267
Autorität 1267
Bla@@ 1267
Statt 1267
abgeschafft 1267
best 1267
enswer@@ 1267
frühere 1267
schaftlich 1267
these 1267
zuverlässige 1267
Deine 1266
Entschei@@ 1266
Fischereiabkommen 1266
Schreib@@ 1266
diesbezüglichen 1266
inische 1266
schaftlicher 1266
One 1265
Saddam 1265
Schwar@@ 1265
Selb@@ 1265
Weihnachts@@ 1265
anmelden 1265
abgestimm@@ 1264
ahr@@ 1264
siv 1264
äle 1264
Anders 1263
Gemeinschaftsrecht 1263
Pot@@ 1263
drehen 1263
erwar@@ 1263
startet 1263
Basis@@ 1262
Kohäsion 1262
Prop@@ 1262
Schließung 1262
Tot@@ 1262
bot@@ 1262
fang@@ 1262
flüge 1262
fro@@ 1262
geachtet 1262
kos 1262
ßes 1262
9,@@ 1261
EA 1261
blü@@ 1261
gerer 1261
kämp@@ 1261
Besteller 1260
bemerkt 1260
grundlegend 1260
hinterlassen 1260
koordiniert 1260
leihen 1260
preises 1260
tivität 1260
wunderbare 1260
Bul@@ 1259
Fertigungs@@ 1259
Ganzen 1259
Gegenwärtig 1259
Wohlbefinden 1259
deutsch 1259
Papier@@ 1258
Tipps 1258
Verbindungs@@ 1258
amtierende 1258
ffer 1258
zin@@ 1258
zunehmen@@ 1258
Ruh@@ 1257
Zäh@@ 1257
abwechslungs@@ 1257
ages 1257
aria 1257
wachen 1257
Anpassungen 1256
Folter 1256
Kup@@ 1256
Salzburg 1256
ble@@ 1256
brut@@ 1256
höchst@@ 1256
luxuriöse 1256
meint 1256
reform@@ 1256
Copyright 1255
Flüchtlingen 1255
Gam@@ 1255
Ski 1255
Sortiment 1255
Uhr@@ 1255
Beträge 1254
about 1254
atur 1254
eingeben 1254
gefühl 1254
glicher 1254
harten 1254
Beibehaltung 1253
Helsinki 1253
ING 1253
Maxim@@ 1253
Währungen 1253
Zentren 1253
abhängen 1253
enor@@ 1253
opp@@ 1253
worauf 1253
zur@@ 1253
Große 1252
Premium 1252
bekanntesten 1252
dynamischen 1252
kompetenz 1252
leiste 1252
runden 1252
verband 1252
Gültigkeit 1251
Lobby@@ 1251
Passagiere 1251
appen 1251
gesenkt 1251
konkre@@ 1251
walt 1251
Gemüse 1250
IA@@ 1250
ausgehend 1250
kauf@@ 1250
lichere 1250
stabilen 1250
unterhalb 1250
Prof@@ 1249
Gegebenheiten 1248
Gesundheitswesen 1248
Hum@@ 1248
Stadtteil 1248
andau@@ 1248
ansä@@ 1248
berührt 1248
ektion 1248
lia 1248
mes@@ 1248
ols 1248
than 1248
Dich 1247
Fitness@@ 1247
Gedanke 1247
Hongkong 1247
Män@@ 1247
Streitkräfte 1247
gü@@ 1247
irgendeine 1247
transpor@@ 1247
warmen 1247
Bir@@ 1246
Fertigung 1246
OLAF 1246
lon@@ 1246
träglich 1246
äd@@ 1246
Alkohol 1245
Executive 1245
Finanzielle 1245
IM 1245
Roll@@ 1245
Zivilisation 1245
beruf@@ 1245
büros 1245
regelungen 1245
wechselt 1245
würdi@@ 1245
Max 1244
Nutzungs@@ 1244
aufweist 1244
blockiert 1244
festgehalten 1244
klarstellen 1244
lock@@ 1244
regelmäßige 1244
top@@ 1244
Bonus 1243
Hung@@ 1243
Terror@@ 1243
Zeile 1243
alien 1243
wenngleich 1243
Brem@@ 1242
Dich@@ 1242
Gesetz@@ 1242
Katastrophen@@ 1242
Maßstab 1242
bedeutendsten 1242
bestraft 1242
etzt 1242
spür@@ 1242
verhandelt 1242
Konvergenz 1241
LT 1241
frisch 1241
ost@@ 1241
Hunderte 1240
ausgewogen 1240
einbeziehen 1240
ford 1240
inne 1240
u.@@ 1240
verordnung 1240
Alexander 1239
ED 1239
Kriterium 1239
Verhinderung 1239
archi@@ 1239
dringen 1239
durchschnittlich 1239
glich@@ 1239
stahl 1239
vereinbarung 1239
Energiever@@ 1238
Peking 1238
Projektes 1238
Versorgungs@@ 1238
esti@@ 1238
verschärft 1238
HU 1237
kes 1237
schulen 1237
Listen 1236
Thailand 1236
alternativen 1236
freu@@ 1236
luft@@ 1236
verteilen 1236
äußer@@ 1236
Laser@@ 1235
kunst 1235
verzer@@ 1235
40@@ 1234
Hindernis 1234
Kongo 1234
fungs@@ 1234
kapital 1234
leidung 1234
schreiten 1234
traditionell 1234
ürz@@ 1234
Entschließungsanträge 1233
bed 1233
ce@@ 1233
global 1233
persönlicher 1233
Applikationen 1232
Leu@@ 1232
berau@@ 1232
brachten 1232
clean 1232
located 1232
Amp@@ 1231
Det@@ 1231
Dutz@@ 1231
Gleichwohl 1231
LU@@ 1231
Parks 1231
aufre@@ 1231
gemachten 1231
hy@@ 1231
mensch@@ 1231
schien 1231
vielfach 1231
Konzert 1230
Sevilla 1230
bi 1230
erschienen 1230
nutzung 1230
ong@@ 1230
Diplom@@ 1229
High@@ 1229
beachtet 1229
bekanntlich 1229
rechnung 1229
án 1229
Ausschüssen 1228
Pack@@ 1228
ausreichen 1228
benutzer@@ 1228
diplomatischen 1228
heil@@ 1228
herrschenden 1228
Schwimm@@ 1227
anzuerkennen 1227
dürften 1227
fft 1227
herausge@@ 1227
kommun@@ 1227
stechnologien 1227
stützt 1227
tie 1227
Km 1226
beunruhi@@ 1226
extra 1226
Direktor 1225
Endes 1225
Komplexität 1225
Ram@@ 1225
Stur@@ 1225
begrenzen 1225
effizi@@ 1225
identifizieren 1225
laufende 1225
rische 1225
stufen 1225
sämtlicher 1225
Edi@@ 1224
Erleben 1224
Zubehör 1224
ffe 1224
führend 1224
87 1223
Bay 1223
Guide 1223
Siemens 1223
Versand@@ 1223
lusses 1223
passenden 1223
Bauern@@ 1222
Dörfer 1222
LAN 1222
Stau@@ 1222
element@@ 1222
erfassen 1222
erwarte 1222
gebrachten 1222
optimieren 1222
schwarzen 1222
Nachteile 1221
SM@@ 1221
ausgestatteten 1221
ball 1221
echter 1221
gemä@@ 1221
latein@@ 1221
rom 1221
späten 1221
Eink@@ 1220
Pfei@@ 1220
Rechtsrahmen 1220
ausgenommen 1220
ext 1220
port 1220
tschechischen 1220
zurückkommen 1220
Minimum 1219
Porto 1219
abzugeben 1219
Aufgaben@@ 1218
Brü@@ 1218
Krimin@@ 1218
Milch 1218
Palästinen@@ 1218
Room 1218
Sierra 1218
Ticket 1218
Vogel@@ 1218
authenti@@ 1218
drücke 1218
situationen 1218
Aufklärung 1217
Fokus 1217
Radio@@ 1217
Sozialpartner 1217
Vorstand 1217
amerikanischer 1217
dacht 1217
gestrichen 1217
Früchte 1216
Garan@@ 1216
Herstellern 1216
Persön@@ 1216
Plugin 1216
Zellen 1216
gehörte 1216
Kn@@ 1215
Main 1215
Schwerpunkte 1215
vereinbaren 1215
zweimal 1215
Betrach@@ 1214
Dritt@@ 1214
Ern@@ 1214
Stabilisierung 1214
Säu@@ 1214
aufrufen 1214
erneu@@ 1214
gezielt 1214
ränkten 1214
schaft@@ 1214
trenn@@ 1214
Adri@@ 1213
Charles 1213
Veranstaltungs@@ 1213
Wäscheservice 1213
europa@@ 1213
teres 1213
unternehmer@@ 1213
versetzen 1213
verweist 1213
wertvollen 1213
American 1212
Bier 1212
Darlehen 1212
Internation@@ 1212
Thermal@@ 1212
Wes@@ 1212
XML 1212
ausführ@@ 1212
gend@@ 1212
gezahlt 1212
herrschen 1212
EX@@ 1211
Versand 1211
auftritt 1211
deli@@ 1211
reck@@ 1211
solidar@@ 1211
Übereinkunft 1211
Übermittlung 1211
Level 1210
Wärme 1210
automatischen 1210
fertigung 1210
langjährige 1210
reiten 1210
tiefen 1210
verlängert 1210
vorgesehene 1210
KDE 1209
Stimmung 1209
volumen 1209
Wissens 1208
ald 1208
gerei@@ 1208
gründe 1208
thal@@ 1208
Bestrebungen 1207
DS@@ 1207
Ess@@ 1207
Kindes 1207
Künstlern 1207
Nom@@ 1207
Vorbe@@ 1207
außer@@ 1207
medizin@@ 1207
vorzugehen 1207
Abwicklung 1206
Auflagen 1206
Birma 1206
Commerce 1206
Fäl@@ 1206
Netzwerke 1206
Schlu@@ 1206
Sto@@ 1206
Stuttgart 1206
begriffen 1206
Akzeptanz 1205
Entfer@@ 1205
Ganze 1205
Mich@@ 1205
83 1204
900 1204
Ed@@ 1204
Festung 1204
Konsolidierung 1204
Krä@@ 1204
Super 1204
aufhören 1204
inspiri@@ 1204
iranischen 1204
Arbeitszeit 1203
Diejenigen 1203
Echtzeit 1203
Explorer 1203
Nachbarschaft 1203
Sicherstellung 1203
wäl@@ 1203
Besetzung 1202
Patten 1202
nähe 1202
sur@@ 1202
Aff@@ 1201
Erwerb 1201
Sieb@@ 1201
Suchen 1201
Vietnam 1201
drittens 1201
territorialen 1201
Freizei@@ 1200
Kün@@ 1200
Satelliten 1200
ehr 1200
erkennbar 1200
optionen 1200
Begeisterung 1199
Fitness 1199
Funktionsweise 1199
Ke@@ 1199
Mitgliedsländer 1199
Schottland 1199
Segel@@ 1199
Sofern 1199
ausgeben 1199
modelle 1199
nen@@ 1199
ques 1199
schlimmsten 1199
zulegen 1199
Joseph 1198
V. 1198
ambi@@ 1198
gehand@@ 1198
konz@@ 1198
stö@@ 1198
unvergesslichen 1198
zugreifen 1198
Brow@@ 1197
Kapitalismus 1197
Optim@@ 1197
Verein 1197
della 1197
geisti@@ 1197
preisen 1197
Überleben 1197
Central 1196
Kommissars 1196
Kompromiß 1196
Mart@@ 1196
Risi@@ 1196
Roman@@ 1196
Sozialdemokratischen 1196
basierend 1196
hl 1196
ination 1196
inierten 1196
vereinbar 1196
Autor@@ 1195
CE 1195
Klick 1195
Konsumenten 1195
Räumen 1195
Störungen 1195
bereitgestellten 1195
saal 1195
schätzt 1195
zuführen 1195
Änderungs@@ 1195
Bedrohungen 1194
Cho@@ 1194
Display 1194
Estland 1194
Nordkorea 1194
Snow@@ 1194
acht@@ 1194
fassten 1194
friendly 1194
funden 1194
mah@@ 1194
ous@@ 1194
sache 1194
Erstellen 1193
Literatur 1193
Patri@@ 1193
Zent@@ 1193
herunter 1193
kehr 1193
massive 1193
plä@@ 1193
pragmati@@ 1193
versprochen 1193
wirtschaf@@ 1193
zierten 1193
Airlines 1192
Geburt 1192
Wich@@ 1192
außergewöhnlichen 1192
legislativen 1192
vollkomm@@ 1192
Bed@@ 1191
Buchstaben 1191
Der@@ 1191
Lun@@ 1191
Security 1191
kür@@ 1191
leute 1191
rung 1191
Geschichten 1190
Persönlichkeiten 1190
Rücken 1190
bedaure 1190
beihilfen 1190
genetisch 1190
schwan@@ 1190
Che@@ 1189
Folge@@ 1189
GA 1189
Inflations@@ 1189
Pfeiler 1189
Tagungs@@ 1189
Ungleichheit 1189
gewaltige 1189
schicht 1189
2,5 1188
Kohlen@@ 1188
Monats 1188
Schnei@@ 1188
Ul@@ 1188
besu@@ 1188
entlich 1188
gesendet 1188
installi@@ 1188
Asyl 1187
Baum@@ 1187
Bit@@ 1187
geschenkt 1187
niedrige 1187
perman@@ 1187
schie@@ 1187
ständigkeit 1187
Beispielsweise 1186
Gewi@@ 1186
ungsh@@ 1186
Afrikas 1185
DR@@ 1185
Stockholm 1185
beliebtesten 1185
ernannt 1185
kritisieren 1185
è 1185
Gremien 1184
Phasen 1184
Tem@@ 1184
Wetter@@ 1184
fundi@@ 1184
gewal@@ 1184
nd 1184
zuständige 1184
Casa 1183
Gastfreundschaft 1183
bewegungen 1183
ebt 1183
sendung 1183
tagung 1183
vers 1183
Bestände 1182
Delegationen 1182
Journ@@ 1182
Stränden 1182
geschlossene 1182
hrt 1182
höhe 1182
steigende 1182
zügen 1182
Forscher 1181
Zukunfts@@ 1181
formular 1181
herbei@@ 1181
imm@@ 1181
GUE 1180
arme 1180
bestellt 1180
eg 1180
fehler 1180
fru@@ 1180
reali@@ 1180
sich@@ 1180
union 1180
vorberei@@ 1180
Fahrzeugen 1179
Himm@@ 1179
dynamische 1179
kle@@ 1179
zips 1179
ín 1179
Korea 1178
Loch 1178
dak@@ 1178
grafischen 1178
krieg@@ 1178
Überwindung 1178
Egal 1177
Impf@@ 1177
Techni@@ 1177
Zusammenhalts 1177
Zwischenzeit 1177
österreichische 1177
Basel 1176
Begrenzung 1176
Firefox 1176
Olympischen 1176
leh@@ 1176
02@@ 1175
Aufstockung 1175
Chaos 1175
Kreatur 1175
Pakt 1175
aly@@ 1175
geeinigt 1175
isse 1175
partner@@ 1175
stam@@ 1175
übertrag@@ 1175
Ach@@ 1174
Elektriz@@ 1174
Proz@@ 1174
Register 1174
Technologi@@ 1174
abschließ@@ 1174
behindern 1174
gter 1174
lans 1174
strom 1174
tender 1174
Appell 1173
Ebenfalls 1173
Erkrankungen 1173
Minde@@ 1173
Spielern 1173
Vel@@ 1173
aufrechtzuerhalten 1173
jenige 1173
setzten 1173
84 1172
Fundament 1172
Les 1172
Mitbürger 1172
OSZE 1172
Past@@ 1172
Rechn@@ 1172
Resultat 1172
Stan@@ 1172
Verkehrsmittel 1172
kopieren 1172
luss 1172
schweigen 1172
tigungen 1172
Fabri@@ 1171
Kanäle 1171
Spi@@ 1171
Zucker 1171
aktivi@@ 1171
henden 1171
spi@@ 1171
zehn@@ 1171
AM 1170
Kalender 1170
Klaren 1170
Zusammenfassung 1170
back 1170
ekten 1170
steck@@ 1170
Michel 1169
SK 1169
deb@@ 1169
israelische 1169
mitglied 1169
tiver 1169
Einblick 1168
Italiens 1168
Nordirland 1168
Sehen 1168
anzusehen 1168
bestände 1168
diverse 1168
eingang 1168
freundlicher 1168
massiven 1168
unmittelbare 1168
ê@@ 1168
с@@ 1168
Flach@@ 1167
Freilassung 1167
Games 1167
TEN 1167
Vari@@ 1167
ausdrück@@ 1167
bestanden 1167
bürgerliche 1167
ektor 1167
fot@@ 1167
heb@@ 1167
loh@@ 1167
radio@@ 1167
terten 1167
Account 1166
Gemeinschaftsebene 1166
Subsidiaritätsprinzip 1166
Zoll 1166
ansch@@ 1166
männ@@ 1166
Hintergrund@@ 1165
Ideal 1165
Interface 1165
Islam@@ 1165
Sol 1165
Verpackung 1165
bus@@ 1165
förmi@@ 1165
town 1165
verdanken 1165
Algerien 1164
Instabilität 1164
Jan@@ 1164
RSS 1164
Sudan 1164
Tag@@ 1164
belieb@@ 1164
ecke 1164
westliche 1164
Alpen@@ 1163
Fair@@ 1163
Konzern 1163
gesundheits@@ 1163
kriti@@ 1163
machung 1163
mobilen 1163
system@@ 1163
trieb 1163
überzeu@@ 1163
Bestimm@@ 1162
Blair 1162
Daraus 1162
Einsparungen 1162
Erhebung 1162
France 1162
Internetseiten 1162
Rin@@ 1162
ammern 1162
eta 1162
geführte 1162
geschützten 1162
klimati@@ 1162
lasten 1162
osteuropäischen 1162
profitiert 1162
zierte 1162
zierung 1162
zügi@@ 1162
Erfassung 1161
Heim@@ 1161
annehm@@ 1161
ano@@ 1161
bas@@ 1161
beunruhigt 1161
ergänz@@ 1161
great 1161
low 1161
lös@@ 1161
verlust 1161
vernünf@@ 1161
widerspiegelt 1161
ühle 1161
Verhaltenskodex 1160
getroffenen 1160
350 1159
Karl 1159
Kit@@ 1159
LA 1159
SU@@ 1159
Schulz 1159
abel 1159
artigen 1159
gebnisse 1159
gedenkt 1159
obgleich 1159
Fremden@@ 1158
Intern@@ 1158
SY@@ 1158
Subjek@@ 1158
beobachtet 1158
gels 1158
lief 1158
schaff@@ 1158
Chile 1157
Kameras 1157
Studios 1157
Zinssätze 1157
einrichten 1157
facto 1157
halben 1157
ländischen 1157
läne 1157
markiert 1157
pflan@@ 1157
su 1157
wandeln 1157
Chinesen 1156
GPS 1156
Hauptziel 1156
Lizenzen 1156
Nichts 1156
Obst 1156
Sicht@@ 1156
Touristen@@ 1156
Voraus@@ 1156
appelliere 1156
kunft@@ 1156
räger 1156
widerspiegeln 1156
Balkan@@ 1155
Termine 1155
Unregelmäßigkeiten 1155
Zusagen 1155
abschluss 1155
anzen 1155
bewahrt 1155
damaligen 1155
geholt 1155
gewöhnliche 1155
olog@@ 1155
ous 1155
uneingeschränkte 1155
wuchs 1155
Landschaften 1154
Metro@@ 1154
Prof. 1154
Rechtsprechung 1154
Schätzungen 1154
berühmt 1154
positives 1154
Engineering 1153
Pak@@ 1153
Spor@@ 1153
Stil@@ 1153
Umstellung 1153
Wiederein@@ 1153
anien 1153
card 1153
einhalb 1153
formulieren 1153
herrschaft 1153
selek@@ 1153
südlich 1153
ös@@ 1153
Ero@@ 1152
Fak@@ 1152
Konferenz- 1152
aktionen 1152
diente 1152
doppel@@ 1152
flüsse 1152
kultureller 1152
statt@@ 1152
Standorten 1151
Up@@ 1151
acken 1151
banken 1151
biologische 1151
genommenen 1151
hochwer@@ 1151
luß@@ 1151
nahen 1151
servi@@ 1151
themen 1151
79 1150
Bemühen 1150
Zus@@ 1150
achtung 1150
bilaterale 1150
pflegen 1150
selts@@ 1150
strukturellen 1150
v. 1150
â@@ 1150
übergreifende 1150
alter@@ 1149
auto@@ 1149
freiwillig 1149
gewahrt 1149
hunder@@ 1149
jemanden 1149
ml 1149
seitdem 1149
transparente 1149
Ansprechpartner 1148
Blue 1148
Funk@@ 1148
Route 1148
Teilnehmern 1148
Workshops 1148
atik 1148
bücher 1148
grafische 1148
herunter@@ 1148
pap@@ 1148
sts 1148
veröffentlichte 1148
Ära 1148
Audi@@ 1147
But@@ 1147
Einleitung 1147
Warcraft 1147
Zeitalter 1147
debatte 1147
erender 1147
nehm@@ 1147
saison 1147
Bundesrepublik 1146
Esp@@ 1146
Grö@@ 1146
Migranten 1146
Schritten 1146
ckte 1146
geneti@@ 1146
intelligente 1146
stärke 1146
Fax- 1145
ación 1145
ank 1145
ow 1145
polizei@@ 1145
verantwortung 1145
verbundene 1145
Antrieb@@ 1144
Dest@@ 1144
Norm 1144
Rohstoff@@ 1144
Run@@ 1144
Techn@@ 1144
Verschlechterung 1144
Viertens 1144
dorthin 1144
faktoren 1144
fizierten 1144
gerin 1144
lic@@ 1144
parks 1144
ruf@@ 1144
touristischen 1144
Datent@@ 1143
Friendly 1143
Meer@@ 1143
Nero 1143
Rohstoffe 1143
Theater@@ 1143
drängt 1143
erzählt 1143
verteidigt 1143
Fülle 1142
Tagungen 1142
beliebt 1142
brin@@ 1142
hinnehmen 1142
oc@@ 1142
Biokraft@@ 1141
dierung 1141
enswerten 1141
erho@@ 1141
gewähr@@ 1141
ust 1141
Bewer@@ 1140
Kohäsionsfonds 1140
OECD 1140
Square 1140
atte 1140
aufgegriffen 1140
bige 1140
doppelt 1140
Ashton 1139
Freizeit 1139
Hy@@ 1139
Kühl@@ 1139
Lebensbedingungen 1139
akzep@@ 1139
berechti@@ 1139
problemen 1139
sidenten 1139
sozio@@ 1139
verschlüssel@@ 1139
Bed 1138
Nikon 1138
Nutzern 1138
erweise 1138
moderni@@ 1138
zweif@@ 1138
Eleganz 1137
Erdbeben 1137
Fischer@@ 1137
GO 1137
hochrangi@@ 1137
lagen@@ 1137
Gesichtspunkt 1136
PP@@ 1136
Poker@@ 1136
Unterstütz@@ 1136
Zentralbanken 1136
dul@@ 1136
erbringen 1136
esi@@ 1136
nisch 1136
stisch 1136
zugang 1136
Nationalpark 1135
Stabilitätspakt 1135
deckung 1135
digkeit 1135
kapazität 1135
schwarz 1135
sia 1135
sichtlich 1135
super 1135
.- 1134
Kontinents 1134
Mitentscheidung 1134
einlad@@ 1134
flexiblen 1134
kampf 1134
trag 1134
zonen 1134
ßten 1134
Ministerpräsidenten 1133
Terror 1133
demselben 1133
ehrgeizige 1133
erschien 1133
renovierte 1133
Eisen@@ 1132
Institute 1132
Jahrestag 1132
agt 1132
einschlägigen 1132
eo 1132
fän@@ 1132
irgendwann 1132
schriftlichen 1132
schwach 1132
spieler 1132
ALDE 1131
Chemikalien 1131
Doppelbett 1131
Kolumbien 1131
ausgewählte 1131
erzielte 1131
eventuelle 1131
hervorzuheben 1131
limm@@ 1131
Stadium 1130
URL 1130
anerkannten 1130
gebor@@ 1130
gerte 1130
potenziellen 1130
veranlassen 1130
Fas@@ 1129
Rü@@ 1129
Vertriebs@@ 1129
direkter 1129
mächtigen 1129
präsen@@ 1129
wärts 1129
Don@@ 1128
Haushaltsausschusses 1128
Inform@@ 1128
Werde 1128
Zertifizierung 1128
abteilung 1128
erzeugung 1128
venti@@ 1128
verlängern 1128
Erzeugnissen 1127
Flächen 1127
Maus@@ 1127
Sammel@@ 1127
anwendungen 1127
aufkommen 1127
hoff@@ 1127
last@@ 1127
ov 1127
schätz@@ 1127
äum@@ 1127
DS 1126
Erweiterungen 1126
Logistik 1126
Pfer@@ 1126
Sat 1126
Solana 1126
Spanisch 1126
Vermögen 1126
Verstöße 1126
möglicher 1126
BA 1125
Chin@@ 1125
Davon 1125
Ly@@ 1125
Möbel 1125
bungs@@ 1125
dei 1125
don 1125
höherer 1125
struk@@ 1125
tic@@ 1125
Dienstleistungsrichtlinie 1124
Gesetzgeber 1124
Sili@@ 1124
einräumen 1124
qm 1124
transeuropäischen 1124
Herzegowina 1123
Lettland 1123
Spe@@ 1123
Verbin@@ 1123
erfahrenen 1123
fläch@@ 1123
kommunizieren 1123
streiten 1123
verursachten 1123
Quadrat@@ 1122
möge 1122
packt 1122
ppt 1122
überdenken 1122
Artikeln 1121
FI 1121
Warnung 1121
eds 1121
gefahren 1121
juristischen 1121
lieferungen 1121
Angeboten 1120
Gor@@ 1120
Richtigkeit 1120
ami 1120
prozessen 1120
Formul@@ 1119
Gemü@@ 1119
Ungleich@@ 1119
berechtigte 1119
entziehen 1119
kenntnisse 1119
merken 1119
Aufstellung 1118
Gewässern 1118
Lauf 1118
Meister 1118
Pharma@@ 1118
demnächst 1118
frische 1118
gemeint 1118
geschnitten 1118
schlim@@ 1118
wissens@@ 1118
Übersch@@ 1118
überwälti@@ 1118
EIB 1117
Straß@@ 1117
Verhältnis@@ 1117
Verpackungs@@ 1117
bil 1117
fürchte 1117
op 1117
zel 1117
DEN 1116
Interpretation 1116
Masse 1116
Rep@@ 1116
Schriftliche 1116
antiken 1116
bearbeitung 1116
ehl 1116
ungsphase 1116
verkauf@@ 1116
2015 1115
Angehörigen 1115
Erziehung 1115
Konservativen 1115
Music 1115
Quartal 1115
Verheugen 1115
ando 1115
autonom@@ 1115
etten@@ 1115
rot 1115
tigkeits@@ 1115
verletz@@ 1115
Schal@@ 1114
Vorsicht 1114
ultur 1114
Allgemein@@ 1113
Beschränkung 1113
Glücks@@ 1113
Kürzungen 1113
OK 1113
Zahl@@ 1113
Zuliefer@@ 1113
diversen 1113
ftung 1113
licht@@ 1113
prin@@ 1113
schwe@@ 1113
stellvertre@@ 1113
terie 1113
wissenschaftlich 1113
130 1112
Anzeigen 1112
Arena 1112
Schlacht@@ 1112
Veranstaltungsräume 1112
ausgeprä@@ 1112
ausgestellt 1112
dru@@ 1112
gg@@ 1112
läufigen 1112
shi@@ 1112
there 1112
Elite 1111
Spekul@@ 1111
attraktive 1111
gewann 1111
irgendwie 1111
klär@@ 1111
vertrags 1111
Allein 1110
Ann@@ 1110
Job 1110
Richard 1110
enzial 1110
größ@@ 1110
nes 1110
verwandeln 1110
Aufteilung 1109
Erwachsenen 1109
Fot@@ 1109
Hir@@ 1109
Jahrhunderte 1109
Kaiser 1109
ange 1109
belastet 1109
gesetzgebung 1109
house 1109
lierung 1109
oms 1109
optimiert 1109
Alkohol@@ 1108
Gerne 1108
Kühlschrank 1108
Mitgliedstaates 1108
Netto@@ 1108
Preises 1108
Spon@@ 1108
Wikicars 1108
aufgeführten 1108
gewalt@@ 1108
ney 1108
Angebot@@ 1107
Ball@@ 1107
Côte 1107
RE 1107
out@@ 1107
sensiblen 1107
tari@@ 1107
Ausstellungs@@ 1106
Befürchtungen 1106
Erkenntnis 1106
Höhepunkt 1106
Menü@@ 1106
Privatisierung 1106
Verbündeten 1106
ausschließ@@ 1106
fi 1106
jün@@ 1106
lag@@ 1106
tigsten 1106
unternimmt 1106
zin 1106
Evaluierung 1105
Genauigkeit 1105
Genfer 1105
Kleidung 1105
Korrektur 1105
Network 1105
Pfad 1105
Rab@@ 1105
Verurteilung 1105
ago@@ 1105
besorgniserre@@ 1105
erbare 1105
geber@@ 1105
kas 1105
ordnungen 1105
ras 1105
strecke 1105
wertet 1105
Auftraggeber 1104
Digital@@ 1104
Institu@@ 1104
Mark 1104
Militär 1104
Protektionismus 1104
Sin@@ 1104
Sun@@ 1104
beheben 1104
elf 1104
medien 1104
180 1103
Aufbau@@ 1103
Gegenden 1103
Play@@ 1103
Spann@@ 1103
ager 1103
arbeitenden 1103
aufhalten 1103
fehl@@ 1103
flicht 1103
schö@@ 1103
vergleichbar 1103
zeile 1103
ät 1103
Finanzminister 1102
Gestalt 1102
Organ 1102
Zentrums 1102
geräumigen 1102
hinausgehen 1102
oberste 1102
problematisch 1102
sh 1102
skep@@ 1102
Besu@@ 1101
Bruder 1101
Interview 1101
Offizi@@ 1101
ehrgeizigen 1101
gewaltigen 1101
konkreter 1101
länge 1101
modernsten 1101
pole 1101
Konzerte 1100
Rollen 1100
antwortet 1100
architekton@@ 1100
ausgegangen 1100
beratung 1100
d.@@ 1100
eigent@@ 1100
erhebt 1100
ermittelt 1100
manager 1100
5.000 1099
Darauf 1099
Demokratischen 1099
Fischler 1099
Geschlech@@ 1099
Nokia 1099
aufgeben 1099
close 1099
elli 1099
kü@@ 1099
Arbeiter@@ 1098
Potential 1098
Residence 1098
adresse 1098
andel 1098
fis@@ 1098
fizierte 1098
konstruk@@ 1098
schrecklichen 1098
univers@@ 1098
würfe 1098
110 1097
Streben 1097
Tabellen 1097
abzustimmen 1097
agenturen 1097
belastung 1097
don@@ 1097
korrigiert 1097
mutz@@ 1097
rang 1097
Erleichterung 1096
Inzwischen 1096
Strafe 1096
Verw@@ 1096
anspruchsvolle 1096
asien 1096
ausgeliefert 1096
forum 1096
offenkundig 1096
sichten 1096
therapeu@@ 1096
voranzubringen 1096
willigen 1096
zimmern 1096
Bandbreite 1095
Friedensprozess 1095
Jur@@ 1095
School 1095
Technology 1095
Vier 1095
affen 1095
beauftragt 1095
like 1095
ppen@@ 1095
vorherseh@@ 1095
Eck@@ 1094
Fotokopiereinrichtungen 1094
Genehm@@ 1094
Hochschulen 1094
PK@@ 1094
ausgebil@@ 1094
durchschnittliche 1094
scheinbar 1094
60@@ 1093
Maus 1093
Mobil@@ 1093
han@@ 1093
keits@@ 1093
oria 1093
par 1093
pflanzen 1093
view 1093
weis@@ 1093
Rou@@ 1092
Schienen@@ 1092
Schuh@@ 1092
Sports 1092
Vorsorge@@ 1092
betreffende 1092
phase 1092
platten 1092
völ@@ 1092
Infrastruktur@@ 1091
Klausel 1091
Len@@ 1091
Meilen 1091
Tut@@ 1091
anmerken 1091
cos 1091
icht@@ 1091
legten 1091
tener 1091
verkün@@ 1091
wes@@ 1091
ées 1091
Direkt 1090
Louis 1090
abgedeckt 1090
definitiv 1090
dichte 1090
gefährlicher 1090
gische 1090
handels 1090
künstlerischen 1090
laufend 1090
Bedauern 1089
Gutes 1089
Klärung 1089
Shops 1089
Sym@@ 1089
Tochter@@ 1089
Werken 1089
Wohlergehen 1089
Zutaten 1089
aten@@ 1089
befreit 1089
kost@@ 1089
ologen 1089
rassi@@ 1089
thaus 1089
unterschied@@ 1089
Anwen@@ 1088
Botschaften 1088
Informationsschalter 1088
Reparatur 1088
comfortable 1088
folgendes 1088
menden 1088
rolle 1088
traums 1088
zeugt 1088
Armen@@ 1087
NE@@ 1087
betragen 1087
direk@@ 1087
exakt 1087
gangen 1087
hang 1087
illa 1087
Galileo 1086
Geschäftsführer 1086
Hypoth@@ 1086
Stoffen 1086
familie 1086
fig@@ 1086
föder@@ 1086
gehalt 1086
nachfolgenden 1086
reiches 1086
sitzung 1086
NGL 1085
Pestizi@@ 1085
Publikationen 1085
Time 1085
Vorgang 1085
Wachstum@@ 1085
abends 1085
bewundern 1085
cre@@ 1085
stungen 1085
wiederherzustellen 1085
zte 1085
Fest 1084
Haushaltskontrolle 1084
Kurs@@ 1084
Müller 1084
Pic@@ 1084
Schwächen 1084
privater 1084
Parti@@ 1083
ables 1083
anscheinend 1083
cker@@ 1083
dnis 1083
fut@@ 1083
konvention 1083
obliegt 1083
rek@@ 1083
seinerzeit 1083
virtuellen 1083
vorüber@@ 1083
Ausgewogenheit 1082
Benz@@ 1082
Entdeckung 1082
Interventionen 1082
befürchten 1082
blicke 1082
christlichen 1082
fa 1082
indischen 1082
nachkommen 1082
slowak@@ 1082
verfassungs@@ 1082
Bab@@ 1081
Rä@@ 1081
Sound@@ 1081
Therap@@ 1081
angehört 1081
arch@@ 1081
gran@@ 1081
orts 1081
pflicht 1081
unweit 1081
überra@@ 1081
Beantwortung 1080
Erwägungen 1080
Gö@@ 1080
Jan 1080
Kamp@@ 1080
Rem@@ 1080
arbeitungs@@ 1080
attraktiven 1080
berg@@ 1080
bör@@ 1080
kreative 1080
mittelständi@@ 1080
offensich@@ 1080
sn@@ 1080
wunderbaren 1080
angen 1079
denkbar 1079
entsprechender 1079
ihrerseits 1079
richtlinien 1079
spit@@ 1079
team 1079
Abend@@ 1078
Bewirtschaftung 1078
Button 1078
Datens@@ 1078
geschul@@ 1078
kenne 1078
pass 1078
roten 1078
übertragung 1078
Wortlaut 1077
ario 1077
gestal@@ 1077
getre@@ 1077
lieferung 1077
pas@@ 1077
perfek@@ 1077
schwä@@ 1077
wahrgenommen 1077
8,@@ 1076
Kali@@ 1076
grenzt 1076
nachtei@@ 1076
plung 1076
veran@@ 1076
Einerseits 1075
Gewer@@ 1075
Hyper@@ 1075
Nigeria 1075
begeben 1075
linge 1075
Eigentums 1074
Medizin@@ 1074
Paradies 1074
Regierung@@ 1074
Single 1074
iss@@ 1074
jahres 1074
läßlich 1074
yp 1074
zwecken 1074
80@@ 1073
Ansehen 1073
Az@@ 1073
Spiels 1073
Symbole 1073
Texten 1073
ais 1073
behei@@ 1073
ethnische 1073
gründet 1073
rump@@ 1073
tom@@ 1073
.net 1072
Extre@@ 1072
Wollen 1072
geehrter 1072
hotels 1072
lehnt 1072
luß 1072
schaftsp@@ 1072
verknü@@ 1072
überwachung 1072
CON@@ 1071
Politikern 1071
ansprüche 1071
besser@@ 1071
echt 1071
fran@@ 1071
täu@@ 1071
zügig 1071
Autovermietung 1070
Charakter@@ 1070
Prüfungen 1070
arischen 1070
bat@@ 1070
gesu@@ 1070
span@@ 1070
ura 1070
versichert 1070
zusammenhän@@ 1070
Auslands@@ 1069
Campingplatz 1069
Gleiche 1069
Klassen 1069
Stro@@ 1069
aci@@ 1069
bon@@ 1069
entnehmen 1069
erzeugnisse 1069
gal@@ 1069
veränderten 1069
Bewegungs@@ 1068
Ferienhaus 1068
PE 1068
Valencia 1068
Wohl 1068
gegeb@@ 1068
geschah 1068
koordini@@ 1068
nein 1068
privilegi@@ 1068
zurufen 1068
Handhabung 1067
Heu@@ 1067
Kompetenz@@ 1067
Kunststoff@@ 1067
Trä@@ 1067
ermutigt 1067
heruntergeladen 1067
prü@@ 1067
tre 1067
von@@ 1067
Meinungsfreiheit 1066
Vergabe 1066
abhängt 1066
freundliches 1066
saubere 1066
Änderungsantrags 1066
Belastungen 1065
Lat@@ 1065
Periode 1065
Renten 1065
Taxi 1065
VIP 1065
Zen@@ 1065
besi@@ 1065
ernsten 1065
zir@@ 1065
Akteuren 1064
Anleger 1064
Breite 1064
Einmischung 1064
Spam 1064
Unions@@ 1064
aster 1064
erhöhte 1064
schwi@@ 1064
t.@@ 1064
verläss@@ 1064
wissenschaftlicher 1064
ô@@ 1064
Bestreben 1063
Energiem@@ 1063
Experim@@ 1063
Konz@@ 1063
Space 1063
Ticket@@ 1063
beeindruck@@ 1063
empfehle 1063
gewöhnlichen 1063
komplizierten 1063
visu@@ 1063
Heiz@@ 1062
Hinzu 1062
Parlamentarier 1062
Rezep@@ 1062
Vertrauens@@ 1062
ahn 1062
alist 1062
existi@@ 1062
verbesserten 1062
Fli@@ 1061
Formate 1061
Klim@@ 1061
Reichweite 1061
Teils 1061
akte 1061
dachten 1061
definierten 1061
esenen 1061
ome 1061
sky 1061
turm 1061
verweigert 1061
Nachfolger 1060
Set 1060
Tampere 1060
Themas 1060
Therapie 1060
Vertrag@@ 1060
Verts 1060
Viren 1060
englische 1060
lässig 1060
nä@@ 1060
positiver 1060
steine 1060
unüber@@ 1060
zufriedenheit 1060
Begleitung 1059
Bun@@ 1059
CE@@ 1059
Motoren 1059
Punk@@ 1059
anbieter 1059
betreut 1059
entscheidungen 1059
nächstes 1059
seg@@ 1059
teilnehmenden 1059
traf 1059
trinken 1059
Ergän@@ 1058
Strecken 1058
anony@@ 1058
auseinander@@ 1058
außen@@ 1058
beizu@@ 1058
deu@@ 1058
enswerte 1058
lit@@ 1058
wirst 1058
Tier 1057
Trek 1057
bedeutender 1057
beziehe 1057
gemeldet 1057
terien 1057
tran@@ 1057
Ansprüchen 1056
Behandlungen 1056
stufe 1056
tsprü@@ 1056
uen 1056
Fotografie 1055
Franzosen 1055
Still@@ 1055
Zigare@@ 1055
enttäu@@ 1055
tika 1055
wälte 1055
å@@ 1055
Beitrittskandidaten 1054
Eingabe 1054
Etagen 1054
Musiker 1054
angesprochenen 1054
anschauen 1054
künfte 1054
pack@@ 1054
palästinensische 1054
rahmen@@ 1054
schlicht 1054
shofes 1054
zusätzlicher 1054
Dur@@ 1053
UM@@ 1053
ao 1053
belast@@ 1053
elegant 1053
ino@@ 1053
multinationalen 1053
pak@@ 1053
repräsentiert 1053
versammlung 1053
ür 1053
Auftrag@@ 1052
Cab@@ 1052
Ira@@ 1052
Lust 1052
Verwand@@ 1052
Weiter 1052
behindertenfreundliche 1052
ereien 1052
weiterentwickelt 1052
Anleitung 1051
Drittländer 1051
Kommissionsmitglied 1051
Kriege 1051
Schwei@@ 1051
adel@@ 1051
forder@@ 1051
historisch 1051
Fan 1050
Grafik@@ 1050
berat@@ 1050
elung 1050
Schalt@@ 1049
antwor@@ 1049
beschleunigt 1049
ernde 1049
italien@@ 1049
prüft 1049
ssig 1049
tab@@ 1049
turel@@ 1049
tzei@@ 1049
unglück@@ 1049
wol@@ 1049
wünschte 1049
Chef 1048
Konsequenz 1048
Plug 1048
Schengener 1048
Tech 1048
Unrecht 1048
Versicherung 1048
agnen 1048
bestrebt 1048
buchs 1048
siedlung 1048
untersagt 1048
.-@@ 1047
Instanz 1047
beginn 1047
gänzlich 1047
unterzeichnen 1047
Aufpreis 1046
Ausnahme@@ 1046
Beschäftigungspolitik 1046
Bibliotheken 1046
Füßen 1046
Songs 1046
Unfälle 1046
bedient 1046
bestehend 1046
bot 1046
extremen 1046
liberale 1046
unglaublich 1046
unverändert 1046
versprechen 1046
vorsehen 1046
Auskunft 1045
Auswirkung 1045
Befreiung 1045
Berichterstattung 1045
Bevölkerungsgruppen 1045
Ref 1045
Vormittag 1045
ausgerüstet 1045
beeindruckende 1045
bekam 1045
gesetze 1045
herbeizuführen 1045
imstande 1045
lok@@ 1045
repräsent@@ 1045
spru@@ 1045
Dür@@ 1044
Europar@@ 1044
Gläu@@ 1044
News@@ 1044
Quer@@ 1044
area 1044
aufrecht 1044
kompet@@ 1044
kostenfreien 1044
zip@@ 1044
Baden 1043
Dok@@ 1043
Labor@@ 1043
Lev@@ 1043
Unterricht 1043
besichtigen 1043
maßgeblich 1043
mitzuteilen 1043
strengere 1043
Alliance 1042
Ay@@ 1042
Kampf@@ 1042
Kanz@@ 1042
Lande 1042
Löhne 1042
Monte 1042
air 1042
gelegentlich 1042
hielten 1042
initiativen 1042
müßten 1042
politi@@ 1042
stim@@ 1042
sweise 1042
Gesundheitsversorgung 1041
Wandern 1041
demokrati@@ 1041
erhielten 1041
kontrolli@@ 1041
lass 1041
org@@ 1041
uter 1041
versorgen 1041
übereinstimmen 1041
überschritten 1041
1988 1040
Brüder 1040
Geldpolitik 1040
Il 1040
Kontak@@ 1040
Pazi@@ 1040
Plattformen 1040
Variablen 1040
Ven@@ 1040
bran@@ 1040
bräu@@ 1040
dan 1040
erneuerbarer 1040
rak@@ 1040
0er 1039
Frau@@ 1039
Haushaltsmittel 1039
exportieren 1039
schlü@@ 1039
soren 1039
zusammengestellt 1039
Feri@@ 1038
Konfigurations@@ 1038
Lieblings@@ 1038
Management@@ 1038
Nachrichten@@ 1038
begrün@@ 1038
stuhl 1038
tter@@ 1038
world 1038
äter 1038
Block 1037
Drucker 1037
Forschungs- 1037
Gil@@ 1037
Kodex 1037
allgemeiner 1037
einrichtung 1037
kunfts@@ 1037
lichten 1037
lindustrie 1037
other 1037
willen 1037
Entscheidungsträger 1036
Exper@@ 1036
Rohr@@ 1036
Schie@@ 1036
Slideshows 1036
Straftaten 1036
TO 1036
WWU 1036
ics 1036
Busse 1035
Gestern 1035
Kürzung 1035
Prot@@ 1035
Zeitschrift 1035
chens 1035
funktions@@ 1035
geheim@@ 1035
griffe 1035
home 1035
kub@@ 1035
pfli@@ 1035
präsent 1035
veranstaltet 1035
ć 1035
Betrieben 1034
Cer@@ 1034
Co 1034
Kampfes 1034
Modellen 1034
NE 1034
Unfall 1034
ahl 1034
boot 1034
freiwillige 1034
konzep@@ 1034
por 1034
sein@@ 1034
Bewerber@@ 1033
Install@@ 1033
gelan@@ 1033
inischen 1033
vergabe 1033
Diskussions@@ 1032
Inhalts@@ 1032
Kloster 1032
ausgeht 1032
29@@ 1031
Ausdehnung 1031
Spaniens 1031
Tiefe 1031
arisierung 1031
fossi@@ 1031
genehm@@ 1031
mittelalterlichen 1031
Einigkeit 1030
Exporte 1030
Fund@@ 1030
Münzen 1030
Wirtschaft@@ 1030
beurteilt 1030
gendsten 1030
haltens 1030
historischer 1030
zwingend 1030
Rettungs@@ 1029
abe 1029
abilität 1029
aussieht 1029
derartiger 1029
römischen 1029
sebene 1029
tho@@ 1029
wettbewerbsfähig 1029
CA 1028
Errungenschaften 1028
Fut@@ 1028
Gepäck 1028
Haiti 1028
IX 1028
Jerusalem 1028
Line 1028
Milliarde 1028
business 1028
holt 1028
ji 1028
tien 1028
Aussprachen 1027
Cy@@ 1027
Downloads 1027
Umweltpolitik 1027
Verstoß 1027
exzellente 1027
geschnit@@ 1027
halts@@ 1027
igte 1027
kunde 1027
räte 1027
schwachen 1027
unterrichtet 1027
verbrauch 1027
vereinen 1027
verzö@@ 1027
Anstatt 1026
Kommunismus 1026
geplante 1026
öst@@ 1026
Klin@@ 1025
Konsultationen 1025
Patente 1025
befindlichen 1025
entfernten 1025
islam@@ 1025
kam@@ 1025
registri@@ 1025
streng@@ 1025
tür@@ 1025
Cur@@ 1024
EURO@@ 1024
Fron@@ 1024
KG 1024
Milli@@ 1024
Ostse@@ 1024
Seh@@ 1024
Spiegel 1024
Standpunk@@ 1024
Umwelt- 1024
Zuwanderung 1024
beabsichti@@ 1024
fehlenden 1024
ile 1024
staates 1024
tol@@ 1024
umfassender 1024
vi 1024
widmet 1024
wiesen 1024
Behandlungs@@ 1023
Bezug@@ 1023
Gewis@@ 1023
Häusern 1023
geräumige 1023
iPod 1023
kontra@@ 1023
litten 1023
orientieren 1023
steigerung 1023
tam@@ 1023
Akt 1022
Gefühle 1022
Monti 1022
Ros@@ 1022
Strafen 1022
blich 1022
herauszufinden 1022
komb@@ 1022
stetig 1022
tchen 1022
Kämp@@ 1021
Mehrheits@@ 1021
Telekommunikation 1021
Tragen 1021
angestre@@ 1021
beträchtlichen 1021
fachen 1021
fangs 1021
lebens 1021
sofortige 1021
Komplex 1020
ausreich@@ 1020
graus@@ 1020
individu@@ 1020
ünden 1020
FC 1019
Pakets 1019
Rap@@ 1019
Seel@@ 1019
Unser@@ 1019
Verzeichn@@ 1019
gelt 1019
transparenter 1019
Fundament@@ 1018
Gerü@@ 1018
Laufzeit 1018
Null 1018
Vollendung 1018
atom@@ 1018
under@@ 1018
vertrieben 1018
Erwärmung 1017
Fuss 1017
Griechenlands 1017
ME 1017
Montenegro 1017
Ori@@ 1017
allgemein@@ 1017
rest@@ 1017
schlag@@ 1017
Bestandteile 1016
Düsseldorf 1016
Engli@@ 1016
Instrument@@ 1016
Rücksicht 1016
Stern 1016
aufrichtig 1016
auszubauen 1016
echtes 1016
erzählen 1016
ex 1016
fert 1016
lla 1016
solle 1016
sphase 1016
spon@@ 1016
Behauptung 1015
Gru@@ 1015
Heraus@@ 1015
Trock@@ 1015
eingeb@@ 1015
insel 1015
kirche 1015
unden@@ 1015
vermieten 1015
währung 1015
Überschwemmungen 1015
überarbeitet 1015
Angestellten 1014
First 1014
Sab@@ 1014
Streitigkeiten 1014
Vertiefung 1014
afri@@ 1014
appellieren 1014
exist@@ 1014
web 1014
Eingliederung 1013
Got@@ 1013
Kernkraft@@ 1013
Kohle 1013
Put@@ 1013
Streit 1013
annter 1013
beizubehalten 1013
cken@@ 1013
dienstes 1013
ordnungsgemäße 1013
rede 1013
stabil 1013
vertrauens@@ 1013
zukommt 1013
Christian 1012
Hall 1012
artiges 1012
begehen 1012
dol@@ 1012
ehrte 1012
nit@@ 1012
ses@@ 1012
setzungen 1012
tour@@ 1012
verlaufen 1012
Chr. 1011
Experten@@ 1011
beherbergt 1011
iens 1011
terte 1011
Jahreszeit 1010
Mie@@ 1010
Vertreterin 1010
Viel 1010
dest 1010
er- 1010
glichkeiten 1010
wägen 1010
zyklus 1010
Anschließend 1009
Enttäuschung 1009
Zusage 1009
aben 1009
argum@@ 1009
bür@@ 1009
europaweit 1009
ham 1009
konfigu@@ 1009
ränk@@ 1009
zögern 1009
Erlaubnis 1008
José 1008
M. 1008
Räumlichkeiten 1008
Typ@@ 1008
Umstrukturi@@ 1008
Verwenden 1008
dringende 1008
erstklassige 1008
moralischen 1008
unterstütz@@ 1008
verwandelt 1008
Spen@@ 1007
bun@@ 1007
eindeutigen 1007
juristische 1007
ographie 1007
schiff 1007
scho@@ 1007
sports 1007
wählt 1007
überschreiten 1007
Buffet 1006
Fun@@ 1006
Leiden 1006
Taliban 1006
ain 1006
aufgezeigt 1006
bean@@ 1006
malen 1006
ras@@ 1006
robu@@ 1006
schir@@ 1006
services 1006
verse 1006
zucht 1006
Auseinandersetzungen 1005
Dolomiten 1005
Neg@@ 1005
Publi@@ 1005
Rechtsetzung 1005
Straßenverkehr 1005
Zufall 1005
erweist 1005
neten 1005
polnische 1005
unzählige 1005
verfasst 1005
zitiere 1005
Auslieferung 1004
Chat 1004
Messen 1004
Multimedia 1004
Prote@@ 1004
Völker@@ 1004
beschäf@@ 1004
def@@ 1004
erholen 1004
erung@@ 1004
ierter 1004
igungs@@ 1004
inn 1004
pflich@@ 1004
scheu@@ 1004
stellern 1004
CH 1003
Höhen@@ 1003
Marco 1003
Meeres 1003
Qualifikationen 1003
Saf@@ 1003
Terminal 1003
Vieh@@ 1003
ader 1003
dicht 1003
einigt 1003
etabli@@ 1003
herkömmlichen 1003
undes 1003
wahlen 1003
Dresden 1002
G20 1002
Haltestelle 1002
Nan@@ 1002
SMS 1002
Seminare 1002
been 1002
fängt 1002
helpful 1002
organisator@@ 1002
pol 1002
rez 1002
ök@@ 1002
Elektronik 1001
Leser 1001
Unger@@ 1001
Verknüpfung 1001
allen@@ 1001
gig 1001
mark 1001
revi@@ 1001
strategischer 1001
teu@@ 1001
var 1001
verarbeiten 1001
Gebäudes 1000
ankommt 1000
bed@@ 1000
bringung 1000
dlern 1000
gleicht 1000
shaushal@@ 1000
Fi 999
Imperi@@ 999
Kart@@ 999
Kä@@ 999
Persönlichkeit 999
Place 999
ROM 999
Schulungen 999
absoluten 999
akts 999
anführen 999
interven@@ 999
takt 999
typ@@ 999
wahl@@ 999
wöch@@ 999
AF@@ 998
Edinburgh 998
Harmonie 998
Quart@@ 998
Rüstungs@@ 998
Vollständigkeit 998
Zivilisten 998
ernsthaften 998
passi@@ 998
reservieren 998
schrei@@ 998
zwecke 998
Diplomatie 997
Fraktions@@ 997
Gegen 997
Machen 997
Mittagessen 997
Palast 997
SI 997
acc@@ 997
geograph@@ 997
hoben 997
perfekten 997
rechtlicher 997
vertiefen 997
Damals 996
Dimensionen 996
Mitglied@@ 996
einnahmen 996
erkt 996
freiwilligen 996
ganzes 996
physi@@ 996
traten 996
umfangreich@@ 996
zweit@@ 996
Illu@@ 995
Infos 995
Lieferungen 995
Rol@@ 995
Spannung 995
day 995
geänderten 995
iel 995
pot@@ 995
schich@@ 995
ux 995
Brok 994
Leipzig 994
Suites 994
Zeu@@ 994
esische 994
legungs@@ 994
sla@@ 994
übergreifenden 994
A. 993
Designs 993
auferlegt 993
cal@@ 993
deter 993
irakischen 993
unterstützten 993
verlor@@ 993
vertrete 993
vollsten 993
weitergehen 993
Einwanderungspolitik 992
Felsen 992
Glückwunsch 992
Momente 992
Portfolio 992
auszuarbeiten 992
chi 992
Lagerung 991
Mittelme@@ 991
Stärken 991
Vide@@ 991
esta 991
handelte 991
lität 991
mische 991
pakete 991
reinen 991
smo@@ 991
ICH@@ 990
IR 990
Kamer@@ 990
Pon@@ 990
Schwäche 990
Temperatur@@ 990
aku@@ 990
anschließ@@ 990
Aussehen 989
Misch@@ 989
Stehende 989
einfaches 989
halten@@ 989
jeglichen 989
mut 989
tschaft 989
ungarische 989
vermei@@ 989
zweites 989
ähnlicher 989
Investitionsbank 988
Rats 988
Schuld@@ 988
Skript 988
Vir@@ 988
auswahl 988
befaßt 988
beliebige 988
gelei@@ 988
geordnete 988
ritten 988
spot@@ 988
sprechende 988
verläuft 988
01.@@ 987
100@@ 987
Allah 987
Anbau 987
Balance 987
Leb@@ 987
Photo@@ 987
SL@@ 987
Schulung 987
ati 987
benachteiligten 987
ganzhei@@ 987
informellen 987
king 987
schätze 987
versorgt 987
Geg@@ 986
Herstell@@ 986
Hygi@@ 986
Ideologie 986
Speicherk@@ 986
alisierungen 986
anna 986
bindung 986
integri@@ 986
kapitali@@ 986
strikt 986
ummer 986
Blei@@ 985
Etage 985
Flo@@ 985
Gewähr 985
Krebs 985
Vertrauens 985
geleistete 985
kontinuierliche 985
kum@@ 985
schnellstmöglich 985
ämp@@ 985
Anlage@@ 984
Koalition 984
Rindfleisch 984
Sig@@ 984
ethischen 984
höre 984
magne@@ 984
merkt 984
modus 984
unterschiedlichsten 984
verschmutzung 984
Aufstieg 983
Haut@@ 983
Hotelzimmer 983
Israelis 983
Klassen@@ 983
Verbrech@@ 983
Verhaf@@ 983
augen@@ 983
breiter 983
file 983
operativen 983
zweier 983
übersehen 983
Entscheidungsfindung 982
Mineral@@ 982
Mir@@ 982
Panoram@@ 982
Singapur 982
bestätigung 982
deutlichen 982
din@@ 982
entlassen 982
ok 982
sahen 982
tolle 982
и@@ 982
Aktionsprogramm 981
Eis 981
Glei@@ 981
LCD 981
Tempel 981
Umstand 981
Welle 981
ards 981
ask@@ 981
aufnahmen 981
riebenen 981
salon 981
skri@@ 981
statisti@@ 981
Anlaß 980
Fili@@ 980
Gü@@ 980
Reisenden 980
ernähr@@ 980
katastrophal@@ 980
nig 980
nischer 980
sauber@@ 980
trop@@ 980
vorteil@@ 980
Assoziierungsabkommen 979
Beamte 979
Lit@@ 979
Tanz@@ 979
bles 979
eder@@ 979
erien 979
gos 979
haltungs@@ 979
hten 979
lossene 979
regul@@ 979
strei@@ 979
verlang@@ 979
Aufnahme@@ 978
Behin@@ 978
Distri@@ 978
Unterscheidung 978
Verwirrung 978
Wanderungen 978
acher 978
auszuführen 978
samt 978
sitzt 978
stritten 978
versuchte 978
vielfäl@@ 978
ř@@ 978
Ausbruch 977
Beschleunigung 977
Fahrrad 977
Typen 977
angem@@ 977
berge 977
night 977
stay 977
stitu@@ 977
By@@ 976
Nahrung 976
einstellungen 976
halbe 976
sident 976
tas 976
verzeichnis 976
zol@@ 976
Arzneimitteln 975
Europäern 975
Inneren 975
Kampagnen 975
Mitgliedsländern 975
Palma 975
Posten 975
Verfassungsvertrag 975
befin@@ 975
ende@@ 975
hindern 975
portal 975
schwächen 975
sheit 975
they 975
untergebracht 975
virtuelle 975
.ch 974
Blumen 974
Das@@ 974
anter 974
ators 974
beteiligung 974
dimension@@ 974
exo@@ 974
fortgeschrit@@ 974
gelegten 974
gres@@ 974
illegaler 974
komponenten 974
trug 974
unabdingbar 974
air@@ 973
aufgegeben 973
einheimischen 973
entzieht 973
fragte 973
mangelt 973
offener 973
schiff@@ 973
AP 972
Dauer@@ 972
Fachleute 972
Nachweis 972
Tennis 972
Times 972
Zü@@ 972
einzeln 972
einzuräumen 972
enfalls 972
geschäfte 972
inierte 972
konzer@@ 972
rem@@ 972
treibung 972
Dienstleister 971
Ernst 971
Frequ@@ 971
Radi@@ 971
Simul@@ 971
Standorte 971
eria 971
folgte 971
int@@ 971
objektiv 971
risk@@ 971
soll@@ 971
stehend 971
strit@@ 971
Jacques 970
Katalo@@ 970
Mountain@@ 970
andin@@ 970
beruhi@@ 970
bet 970
entschuldigen 970
formuli@@ 970
hi 970
light 970
norm@@ 970
realistische 970
vorsitzenden 970
win 970
zuzustimmen 970
Association 969
Weitergabe 969
You 969
besuchte 969
erledigen 969
familien@@ 969
finnischen 969
gesteuert 969
häufigsten 969
liebt 969
nder 969
zweck 969
Kamin 968
erledigt 968
großzügig 968
maxim@@ 968
mitgliedern 968
rän@@ 968
tent@@ 968
verschärfen 968
verständnis 968
zauber@@ 968
zwingt 968
ästheti@@ 968
C4 967
Kandidaten@@ 967
Kinderbetreuung 967
Linke 967
Wartungs@@ 967
Wäre 967
bedingten 967
behilflich 967
flexibler 967
gross@@ 967
indert 967
Aluminium 966
Benutz@@ 966
Besucher@@ 966
Biotechnologie 966
Familienzimmer 966
Tä@@ 966
Vizepräsidentin 966
ds@@ 966
einwand@@ 966
ffekt 966
iso@@ 966
kündigen 966
nnen 966
stattfand 966
verwendete 966
westen 966
Blau@@ 965
Schnee 965
Solarium 965
Wettbewerbspolitik 965
angen@@ 965
cl@@ 965
echnik 965
entdeckte 965
gefertigt 965
geist 965
gekürzt 965
marken 965
tivere 965
Amsterdamer 964
Automati@@ 964
Bezüglich 964
Bonus@@ 964
Finanzrahmen 964
GN@@ 964
Gum@@ 964
Obergrenze 964
Prozessen 964
Sozial- 964
Spr@@ 964
dent@@ 964
elektrischen 964
ennung 964
günstiger 964
ny 964
rent@@ 964
ye 964
ängen 964
Prestige 963
anges@@ 963
kaner 963
lot 963
speisen 963
Diagno@@ 962
Jazz 962
Zurück@@ 962
agen@@ 962
allgemeinem 962
ellen@@ 962
großartigen 962
identi@@ 962
jenseits 962
modells 962
station@@ 962
voranzu@@ 962
vorwiegend 962
wehr@@ 962
Bay@@ 961
Einstimmigkeit 961
Finanzdienstleistungen 961
Gemeinschaftsrechts 961
Rahmenrichtlinie 961
Verschmutzung 961
Wand 961
brenn@@ 961
ersucht 961
imperi@@ 961
raff@@ 961
rali@@ 961
schär@@ 961
sozialistischen 961
stationen 961
Ersten 960
Herzlich 960
Informationsaustausch 960
LED 960
Lot@@ 960
Mehrwertsteuer@@ 960
Micro@@ 960
UL@@ 960
Upgrade 960
Ve@@ 960
artikel 960
aufgeteilt 960
cer@@ 960
garanti@@ 960
ierungen 960
isieren 960
keln 960
unabhängiger 960
Filter@@ 959
Kapit@@ 959
Protot@@ 959
Strei@@ 959
Technologie@@ 959
assen@@ 959
ausgewo@@ 959
eda 959
ermuti@@ 959
inu@@ 959
nachzukommen 959
sorgungs@@ 959
umgewandelt 959
verank@@ 959
Übersetz@@ 959
Erwachsen@@ 958
Hunder@@ 958
Kö@@ 958
Währungsfonds 958
Wäldern 958
bru@@ 958
gebern 958
geografischen 958
häufi@@ 958
rückt 958
verhaftet 958
voraussichtlich 958
Abstimmungs@@ 957
Erfordernisse 957
Fische 957
Kontinuität 957
Konzeption 957
Kraftstoff@@ 957
Partition 957
Plätzen 957
Rub@@ 957
Tätigkeits@@ 957
gelder 957
nette 957
soviel 957
zuversichtlich 957
überwunden 957
Festivals 956
Gewässer 956
No 956
Pel@@ 956
Santer 956
Verbraucherpolitik 956
Verspä@@ 956
bevorzugen 956
läufig 956
risiko 956
tierungs@@ 956
veranlasst 956
Berat@@ 955
Diagnose 955
Schlussfolgerung 955
Wagen 955
bürgerlichen 955
ewi@@ 955
intensiver 955
rats@@ 955
starb 955
AND 954
Etappe 954
ash@@ 954
deutsch@@ 954
erschwert 954
lauten 954
verbot@@ 954
verletzen 954
Kron@@ 953
Mannschaft 953
Rek@@ 953
Serviceleistungen 953
eilung 953
güter 953
tier 953
älen 953
05@@ 952
1986 952
Behinderung 952
Cafés 952
Klang@@ 952
Konsum 952
Med@@ 952
Mitteilungen 952
angenommene 952
ball@@ 952
demnach 952
fikations@@ 952
gegensei@@ 952
grundsätzliche 952
hon@@ 952
manip@@ 952
persönliches 952
unlau@@ 952
1980 951
A.@@ 951
Berechti@@ 951
Dien@@ 951
Ehe@@ 951
Flusses 951
Pressemit@@ 951
VI 951
Werkzeug@@ 951
anwen@@ 951
behar@@ 951
rechnet 951
zusammengearbeitet 951
ümm@@ 951
Anpassungs@@ 950
Bestes 950
Handlung 950
Hob@@ 950
KE@@ 950
Sichtweise 950
Sou@@ 950
Verkehrsmitteln 950
jed@@ 950
kw 950
sinnvolle 950
verfü@@ 950
Auschecken 949
Darfur 949
Erforschung 949
Rücktritt 949
Salz@@ 949
Ten@@ 949
Zehn@@ 949
aktion 949
list 949
verbände 949
в@@ 949
Atlantik 948
Auftreten 948
Controller 948
Käl@@ 948
Luftverkehrs@@ 948
Metro 948
Sec@@ 948
Später 948
anträge 948
beanspru@@ 948
hen@@ 948
nachhaltiges 948
organe 948
restrik@@ 948
sorge 948
strecken 948
treffend 948
unde@@ 948
zugenommen 948
befugnisse 947
ku 947
ky 947
mende 947
spreis 947
zugewiesen 947
Akademie 946
Durchbruch 946
Holiday 946
Nächte 946
Schlacht 946
dreißig 946
kasus 946
pfer@@ 946
Öffnen 946
Auffassungen 945
Konvergenz@@ 945
Richtungen 945
Terroran@@ 945
beeindruckenden 945
dner 945
gerweise 945
japanische 945
sabstimmung 945
verfolgung 945
wohin 945
ão 945
Editor 944
IE 944
PD@@ 944
chel@@ 944
einzigartiges 944
katho@@ 944
menschen@@ 944
morgens 944
rot@@ 944
verantwortlichen 944
Beobachtung 943
Daß 943
Handelspolitik 943
Minim@@ 943
SP 943
Säulen 943
Zeilen 943
erei@@ 943
geld@@ 943
konsequ@@ 943
namentlich 943
slowen@@ 943
Biom@@ 942
Gleichberechtigung 942
Obst@@ 942
agten 942
appe 942
bring@@ 942
eintritt 942
einziger 942
existierenden 942
isti@@ 942
massiv 942
ungsermächtigungen 942
Bol@@ 941
Demonstrationen 941
QU@@ 941
Tie@@ 941
angekommen 941
beha@@ 941
betten 941
dd@@ 941
euer@@ 941
gestrigen 941
mau@@ 941
niedrigeren 941
potenzielle 941
vent@@ 941
ält 941
übergreif@@ 941
9001 940
GASP 940
Mobili@@ 940
SDL 940
Schnittstellen 940
Sied@@ 940
Verschiebung 940
Wall@@ 940
anerkennt 940
ankommen 940
ap 940
dafri@@ 940
excellent 940
länger@@ 940
ministers 940
ordnungs@@ 940
thos 940
Fehlern 939
Länder@@ 939
Male 939
Spritz@@ 939
akzept@@ 939
dio@@ 939
ef 939
gedrängt 939
konver@@ 939
minutes 939
portugiesische 939
stürzen 939
tic 939
Deck@@ 938
Grafik 938
Körpers 938
Research 938
Schande 938
Wertpapier@@ 938
diesjährigen 938
einleiten 938
erem 938
geschmackvoll 938
herum@@ 938
höchstem 938
ice 938
jenem 938
legitim@@ 938
rent 938
tspar@@ 938
ures 938
verhe@@ 938
ysteme 938
500@@ 937
Applikation 937
Tabak 937
Wahlkreis 937
ahl@@ 937
annimmt 937
bewusstsein 937
ekte 937
qualifizierter 937
verweigern 937
vorschlags 937
Aktionsplans 936
Bearbeitungs@@ 936
Binnenmark@@ 936
Finger@@ 936
Label 936
Mitgliedstaats 936
Vorteilen 936
Zusch@@ 936
beschä@@ 936
graf@@ 936
heiligen 936
ischerweise 936
shand@@ 936
til 936
uts 936
ziehungs@@ 936
zusammengefasst 936
Logos 935
Palacio 935
Softwa@@ 935
Sri 935
after 935
beleu@@ 935
ennt 935
glücklicherweise 935
tiz@@ 935
would 935
Aktion@@ 934
Auszeichnung 934
Brief@@ 934
Modell@@ 934
Road 934
Turm 934
aufer@@ 934
erwarteten 934
neut@@ 934
vorange@@ 934
vorgelegte 934
Dün@@ 933
Psych@@ 933
Reservierungen 933
Song 933
Sozialfonds 933
Süß@@ 933
auffor@@ 933
einseitig 933
pot 933
sk 933
unbesch@@ 933
unterstützte 933
wachstum 933
Auswertung 932
Flugzeug@@ 932
Freihandelsabkommen 932
Geduld 932
Marktan@@ 932
Resultate 932
aire 932
gesandt 932
geschlossen@@ 932
makro@@ 932
sums 932
tnismäßig 932
ungen@@ 932
wovon 932
Differenzen 931
Jesus 931
Platten 931
Plenar@@ 931
Zo@@ 931
brü@@ 931
ding 931
operative 931
sche@@ 931
schäd@@ 931
Ale@@ 930
IBM 930
KO@@ 930
Mehrzahl 930
Nationalen 930
Program@@ 930
allererst 930
aran@@ 930
blauen 930
drän@@ 930
explo@@ 930
räumt 930
schnit@@ 930
stur@@ 930
verbindlichen 930
worfen 930
überleben 930
140 929
Präsident@@ 929
Sandstrand 929
Toten 929
bewährten 929
doppelte 929
geleiteten 929
produktiv 929
Dev@@ 928
Geltungsbereich 928
Konzern@@ 928
SD 928
Schü@@ 928
Tap@@ 928
behin@@ 928
etzung 928
gängigen 928
noten 928
schlug 928
sil@@ 928
soziales 928
umfangreiches 928
Öffent@@ 928
Kompromis@@ 927
Riviera 927
anfän@@ 927
ender@@ 927
gestütz@@ 927
klingen 927
operi@@ 927
unterzogen 927
vorgesch@@ 927
CD@@ 926
COD 926
SC 926
Spiegel@@ 926
band@@ 926
geradezu 926
stamm@@ 926
veränderte 926
übernahm 926
Aufschwung 925
Radik@@ 925
eder 925
gebil@@ 925
idyl@@ 925
weiß@@ 925
Badewanne 924
Botschafter 924
Diesel@@ 924
Vorstands@@ 924
beschäftigungs@@ 924
carte 924
hundert@@ 924
legungen 924
prim@@ 924
thilfe 924
Development 923
Haushaltslinie 923
Nar@@ 923
Russen 923
Sul@@ 923
ausgeweitet 923
eingehend 923
extreme 923
gemütlich 923
gezielte 923
ien@@ 923
sist@@ 923
wirtschaftliches 923
Ass@@ 922
Besatzung 922
Fahrzeu@@ 922
Fitnesscenter 922
Note 922
Rati@@ 922
Tschechische 922
Weihnachten 922
bein@@ 922
deinem 922
demonstrieren 922
een 922
ermordet 922
fik 922
firma 922
galt 922
gang@@ 922
gangenen 922
restlichen 922
richtete 922
06@@ 921
21.@@ 921
Besatz@@ 921
angegangen 921
ares 921
beherrscht 921
beobach@@ 921
bisweilen 921
dramatisch 921
hinnehmbar 921
konstitu@@ 921
schritt@@ 921
о@@ 921
Cent@@ 920
Exempl@@ 920
Klein- 920
Nationalismus 920
Sogar 920
Zuver@@ 920
affung 920
einher@@ 920
enab@@ 920
holz 920
konsu@@ 920
nuklearen 920
sinken 920
their 920
unnötig 920
östlich 920
Entschließungs@@ 919
Labour 919
Liga 919
Ressource 919
anspruchsvollen 919
graben 919
ordnet 919
orienti@@ 919
s. 919
spunkt 919
Tarif@@ 918
Teilnehmer@@ 918
Verkehrs 918
Waff@@ 918
abili@@ 918
drastisch 918
engere 918
etabliert 918
lev@@ 918
two 918
unterworfen 918
vertik@@ 918
widersprüch@@ 918
î@@ 918
Abänderungs@@ 917
Adress@@ 917
Schlag 917
Verlagerung 917
Vin@@ 917
amerikan@@ 917
biegen 917
eingenommen 917
flucht 917
franzö@@ 917
gespannt 917
greifende 917
off 917
rationen 917
Übernachtungen 917
CO 916
Captain 916
Cir@@ 916
EE@@ 916
Handels- 916
Lärm@@ 916
Wertpap@@ 916
Zonen 916
geringfü@@ 916
niveaus 916
sammelt 916
unternehmen@@ 916
C. 915
Ford 915
Größen 915
Hit@@ 915
Koch@@ 915
Kooper@@ 915
Lenk@@ 915
Professional 915
Sav@@ 915
Wunsch@@ 915
begannen 915
einander@@ 915
geehrten 915
graphie 915
langjährigen 915
mußte 915
unvergleich@@ 915
verab@@ 915
verstößt 915
ähn@@ 915
Anschein 914
Begri@@ 914
Grundsatzes 914
Hussein 914
Jun@@ 914
Küh@@ 914
Olymp@@ 914
Organismen 914
Tepp@@ 914
Van@@ 914
Volkswirtschaft 914
administrativen 914
erbracht 914
int 914
lichte 914
liter@@ 914
setzbar 914
wörter 914
Blü@@ 913
CAD 913
Haftungs@@ 913
Instand@@ 913
Lebensdauer 913
Priv@@ 913
Public 913
Stolz 913
Verweis 913
ags 913
det@@ 913
gescheitert 913
haushalts@@ 913
innovativer 913
luxuriösen 913
rank 913
transparenten 913
transport 913
Übersetzer 913
örung 913
Beteilig@@ 912
Eisenbahn 912
Entwicklung@@ 912
Thematik 912
attraktiv 912
bir@@ 912
dramatischen 912
geringeren 912
gigen 912
grenzüberschreit@@ 912
ologien 912
ossen@@ 912
sektor@@ 912
strukturelle 912
tra 912
unen 912
Bli@@ 911
Fotografen 911
Paar 911
Tool@@ 911
Wi 911
bestimmtes 911
erkrank@@ 911
getro@@ 911
gif@@ 911
gül@@ 911
hauses 911
konstruktiv 911
rechtmäßig 911
tempor@@ 911
wanderung 911
1985 910
Digit@@ 910
Ex 910
Grie@@ 910
Lücke 910
Mani@@ 910
Rückzug 910
Schriften 910
Wiederaufnahme 910
blieben 910
dü@@ 910
kurzfristige 910
mediterranen 910
schwierig@@ 910
sprung 910
zeuge 910
Brust@@ 909
Jahrhunderten 909
Ras@@ 909
bestimmung 909
fasste 909
kus 909
schwerwiegende 909
stren@@ 909
zufügen 909
äne 909
übersetzen 909
1987 908
Band@@ 908
ENT@@ 908
Einfach 908
OR 908
Vernichtung 908
fing 908
rachte 908
strich 908
BE@@ 907
Bestand 907
FR@@ 907
Gehör 907
Grenzwerte 907
Kirk 907
Krankenhaus 907
Seu@@ 907
TM 907
Wörter 907
bürokrati@@ 907
essi@@ 907
legal 907
most 907
tragischen 907
ua 907
Ambitionen 906
Dialog@@ 906
Pressefreiheit 906
Varianten 906
double 906
eindeu@@ 906
ule 906
ühlen 906
Cast@@ 905
Donau 905
Lob 905
Religionsfreiheit 905
Schwein@@ 905
Südkorea 905
ausdrücken 905
demzufolge 905
keit 905
rangi@@ 905
schock@@ 905
ure@@ 905
zivile 905
Beitrittsländer 904
Christus 904
Gehäuse 904
Haupts@@ 904
Rechenschaft 904
Verantwortlichkeit 904
Zah@@ 904
agne 904
bewaffneten 904
keit@@ 904
such 904
summe 904
Gremium 903
Republi@@ 903
Tode 903
Wohnungs@@ 903
ania 903
beginn@@ 903
eingetreten 903
entierte 903
exklu@@ 903
irgen@@ 903
misst 903
wischen 903
Einsatzes 902
I. 902
Somm@@ 902
auszuschließen 902
erstattet 902
mie@@ 902
open 902
verdeutlicht 902
Fahren 901
Haushaltsausschuss 901
Intel 901
Reader 901
Reisende 901
Solidaritätsfonds 901
Substanz 901
Wärme@@ 901
elektronischer 901
first 901
folgen@@ 901
fortschrit@@ 901
gesundheitlichen 901
gründete 901
klick 901
komfort@@ 901
krei@@ 901
weites 901
Öffentliche 901
Beihilfe 900
Entwickl@@ 900
Fortschritten 900
Fähr@@ 900
Handbuch 900
Leh@@ 900
Oster@@ 900
Reihen 900
Zeichen@@ 900
brauch@@ 900
cou@@ 900
deuten 900
distan@@ 900
enkt 900
haush@@ 900
place 900
telefon@@ 900
verla@@ 900
Š@@ 900
Arbeitsprogramm 899
Betra@@ 899
Daniel 899
Hannover 899
Nahrungsmitteln 899
Roten 899
Telefonnummer 899
beitritts@@ 899
beträchtlich 899
eingeschlossen 899
niederländische 899
warm 899
Belange 898
Dringlichkeits@@ 898
Feind 898
Organis@@ 898
Skandal 898
Tauchen 898
Versamm@@ 898
bloß 898
eistungen 898
elligkeit 898
euren 898
gefaßt 898
gründliche 898
schriften 898
Befürworter 897
Erfahrungs@@ 897
Fro@@ 897
Homo@@ 897
PCs 897
Schlus@@ 897
Verschlüssel@@ 897
anti 897
berechnen 897
Abfahrt 896
Bügelservice 896
Fac@@ 896
Layout 896
Mar 896
Oper 896
Rasse 896
Schauen 896
Strö@@ 896
Stufen 896
Zertifikat 896
Zul@@ 896
gebucht 896
intellektu@@ 896
kontak@@ 896
tasie 896
tech 896
Nutzungsbedingungen 895
Samsung 895
Toskana 895
anzeige 895
egen@@ 895
genheit 895
kümmert 895
nationales 895
pflanz@@ 895
spezifischer 895
vermark@@ 895
Änderungsvorschläge 895
Einfuhr 894
FS 894
Filmen 894
Geschäf@@ 894
Lücken 894
Stern@@ 894
Trainings@@ 894
ausgedeh@@ 894
grei@@ 894
kommerzi@@ 894
miet@@ 894
quasi 894
standardi@@ 894
stimmung 894
strahlung 894
tliches 894
Überprü@@ 894
überraschend 894
üpp@@ 894
Dossier 893
Flexibili@@ 893
Kommun@@ 893
Langzeit@@ 893
Proteste 893
Verkauf@@ 893
Wellnessbereich 893
alp@@ 893
aufgreifen 893
befes@@ 893
club 893
feldern 893
gegn@@ 893
legislative 893
loses 893
nötige 893
spunkte 893
stanzen 893
türk@@ 893
utes 893
wohlhab@@ 893
Einträge 892
Ratspräsidentin 892
Stä@@ 892
UC@@ 892
discher 892
read 892
sert 892
sätz@@ 892
verschlechtert 892
zeuger 892
öl 892
übergehen 892
С@@ 892
Andernfalls 891
Daneben 891
Einzelpersonen 891
Fremdenfeindlichkeit 891
Multi 891
Sech@@ 891
Skrip@@ 891
Sky@@ 891
Vorgänge 891
ambition@@ 891
eu 891
freies 891
grä@@ 891
human@@ 891
konvention@@ 891
längeren 891
schwarze 891
sicherungen 891
sse@@ 891
üblicherweise 891
Inc 890
Main@@ 890
Sant 890
Saudi 890
Tank@@ 890
bester 890
bezo@@ 890
debattieren 890
eingetragen 890
erklärung 890
erschwing@@ 890
kombinieren 890
schädlichen 890
BS 889
Fischereisektor 889
Gesetzgeb@@ 889
Grüne 889
Nachtleben 889
Nähr@@ 889
Rechnungshofs 889
Sequ@@ 889
Weltmarkt 889
ausreichenden 889
erfolgreich@@ 889
flan@@ 889
gespräche 889
konzentri@@ 889
lagern 889
logisch 889
pran@@ 889
spr@@ 889
steil 889
Abwesenheit 888
Kontra@@ 888
Lärm 888
Patent 888
Umfrage 888
andernfalls 888
benennen 888
brauchs 888
einsehen 888
finanz@@ 888
ish@@ 888
ital 888
unverzichtbar 888
uropä@@ 888
verabschiedeten 888
Börsen@@ 887
Consulting 887
Phänom@@ 887
W. 887
beziehungsweise 887
impor@@ 887
jähr@@ 887
kostspie@@ 887
lier 887
statistischen 887
sung 887
Ausfuhr@@ 886
Gründer 886
Madeira 886
Unterstützungs@@ 886
Villen 886
Wunder@@ 886
engagi@@ 886
funktionierenden 886
hinweg@@ 886
komplexer 886
minist@@ 886
po 886
raschen 886
renommierten 886
thei@@ 886
DIN 885
Gründungs@@ 885
HP 885
Mobiltelef@@ 885
PAR@@ 885
Soft 885
geltende 885
ott 885
punkt@@ 885
westlich 885
1945 884
Aktualität 884
Gastronomie 884
Geschäftsreisende 884
Gesundheits- 884
Rechtsvorschrift 884
Superior 884
archie 884
bedingte 884
gültige 884
klingt 884
krie@@ 884
olen 884
vention 884
zufällig 884
Ansatzes 883
Bananen 883
Erholungs@@ 883
Europa@@ 883
Materials 883
Maßstäbe 883
Pfund 883
Repräsent@@ 883
Seitdem 883
anhaltenden 883
aufgeworfen 883
flich 883
hende 883
leger 883
soli@@ 883
öne 883
Ank@@ 882
Boutique 882
FA@@ 882
Haft@@ 882
Handelsabkommen 882
Inhaf@@ 882
Jungen 882
Südtirol 882
Vorgän@@ 882
Wachstumspakt 882
cat@@ 882
herausragende 882
identifiziert 882
komplizierte 882
och 882
pf 882
physikali@@ 882
schädlich 882
utz 882
vorantreiben 882
Flair 881
Schir@@ 881
Sus@@ 881
auslösen 881
cel@@ 881
gangs@@ 881
genügen 881
sin 881
sorgfäl@@ 881
stattfindenden 881
symboli@@ 881
versteck@@ 881
wohnt 881
Feedback 880
KS 880
Menschenleben 880
Programmier@@ 880
Volumen 880
bestmögliche 880
echn@@ 880
facilities 880
gesetzes 880
herzlichen 880
maßnahme 880
verträ@@ 880
widersprechen 880
Aktionäre 879
Ansonsten 879
Austausch@@ 879
Boo@@ 879
Gehen 879
Legitim@@ 879
Merk@@ 879
Mär@@ 879
Schattenberichterstat@@ 879
Sender 879
arium 879
ausmacht 879
ement@@ 879
entwicklungen 879
gelö@@ 879
städte 879
transportiert 879
ungsergebnisse 879
ühr@@ 879
GE 878
LateRooms.com 878
Ring 878
Verbesser@@ 878
Verdacht 878
ausch 878
einschränken 878
farbe 878
infrastruktur 878
strik@@ 878
zellen 878
Geschäftspar@@ 877
Quad@@ 877
eingebrachten 877
ereig@@ 877
gliches 877
jah@@ 877
kompati@@ 877
konstitutionelle 877
kore@@ 877
neun@@ 877
onds 877
Appart@@ 876
Entdeck@@ 876
Eth@@ 876
Import 876
Kollegi@@ 876
Mio 876
Oase 876
Universal@@ 876
Well@@ 876
anstehenden 876
autori@@ 876
betrachte 876
essel 876
flotte 876
fter 876
pfe 876
seid 876
symbo@@ 876
Erdgeschoss 875
Industrien 875
Kro@@ 875
Sho@@ 875
Vorgänger 875
Zivilbevölkerung 875
atisch 875
elektron@@ 875
privat 875
ritt@@ 875
terrasse 875
unberühr@@ 875
unterricht 875
vorankommen 875
zau@@ 875
Metho@@ 874
Minist@@ 874
Pixel 874
Rücküber@@ 874
Stable 874
befriedi@@ 874
kurzfristigen 874
rief 874
shop 874
terweise 874
weilen 874
Dokuments 873
Itali@@ 873
Kino 873
abhalten 873
bevorzugt 873
erklär@@ 873
festlegt 873
met 873
ordentlich 873
orn 873
risiken 873
vergangen 873
wolle 873
ünsti@@ 873
Defiz@@ 872
Luftverkehr 872
Malware 872
Modells 872
Richtlinien@@ 872
Waffe 872
ads 872
aufgetreten 872
ausdrückliche 872
bre 872
daraufhin 872
definierte 872
ehmern 872
pass@@ 872
relevante 872
sprachige 872
strand 872
teur 872
English 871
Kreis@@ 871
Mein@@ 871
Sitzungsperiode 871
anerkannte 871
decke 871
onas 871
Andreas 870
Bildes 870
Day 870
Fris@@ 870
Generaldirektion 870
Lamp@@ 870
Meerblick 870
Messung 870
Phan@@ 870
Servern 870
Verbrau@@ 870
blockieren 870
brand@@ 870
chers 870
getrennte 870
haltenen 870
hierher 870
jugosla@@ 870
tiefer 870
vorgebracht 870
zurückgreifen 870
Brot 869
Spenden 869
angekün@@ 869
erlangt 869
immen@@ 869
inneh@@ 869
notwendi@@ 869
schiffe 869
schot@@ 869
schritt 869
v.@@ 869
veren 869
17.@@ 868
J. 868
Kommen 868
Navigation 868
Sinn@@ 868
UM 868
VI@@ 868
arkt 868
beschriebenen 868
cc@@ 868
g. 868
inhaltlich 868
yk@@ 868
90er 867
Fischbestände 867
Lav@@ 867
Terrorismusbekämpfung 867
benachbarten 867
ege 867
ink 867
jk 867
nachhaltiger 867
plans 867
reichsten 867
rer 867
schrieben 867
skraft 867
verlin@@ 867
Dorf@@ 866
Kalten 866
Profil@@ 866
Umweltschutz@@ 866
Verhütung 866
Ziffern 866
ausstellung 866
chteten 866
eger@@ 866
entstehenden 866
ity 866
jenes 866
kunft 866
offers 866
spektrum 866
then 866
waffen@@ 866
warnt 866
widerspricht 866
т@@ 866
Kontin@@ 865
Sarkozy 865
Speed 865
Stück@@ 865
Verantwortlichkeiten 865
Verfü@@ 865
Versuchen 865
Züge 865
angemess@@ 865
außergewöhnlich 865
chambres 865
ließ@@ 865
lokal 865
mus@@ 865
verur@@ 865
vielerlei 865
worüber 865
Apart@@ 864
COM 864
Impuls 864
Korrek@@ 864
besetzten 864
erstaun@@ 864
gekehrt 864
gewalts@@ 864
handel@@ 864
kön@@ 864
militär@@ 864
ms@@ 864
musi@@ 864
sah@@ 864
spra@@ 864
streit@@ 864
ärz@@ 864
а@@ 864
Ausgaben@@ 863
Ausgleichs@@ 863
Blu@@ 863
Diszipl@@ 863
EP@@ 863
Einwanderungs@@ 863
Erzeug@@ 863
Finger 863
Kinnock 863
Riesen@@ 863
Wertschö@@ 863
belie@@ 863
fällige 863
pfeiler 863
relevant 863
verschwunden 863
when 863
widri@@ 863
älteste 863
Authenti@@ 862
Dienstleist@@ 862
Kuli@@ 862
Verlei@@ 862
Zuschauer 862
doppelten 862
eingesetzten 862
erfolgreicher 862
mauern 862
prior@@ 862
telefonisch 862
verlei@@ 862
Fluggesellschaft 861
Naturschutz@@ 861
amb@@ 861
angegriffen 861
digungs@@ 861
mitunter 861
weitergeleitet 861
zo 861
Gur@@ 860
Jeden 860
Medium 860
Mön@@ 860
Schwäch@@ 860
Verhand@@ 860
Wat@@ 860
bilanz 860
bo 860
egenheiten 860
einheitliches 860
gehender 860
langfris@@ 860
lizen@@ 860
lossenen 860
stage 860
wissen@@ 860
Anfänger 859
End 859
Schaltfläche 859
Sitzungs@@ 859
beides 859
detaillierten 859
gl 859
ketten 859
lehne 859
tro 859
verschieden 859
ästi@@ 859
Black 858
Erinnerungen 858
Frühling 858
Hochzeits@@ 858
Net 858
Notwendi@@ 858
arm 858
ava 858
beeindruckt 858
intern 858
num@@ 858
perat@@ 858
repar@@ 858
10.000 857
Apo@@ 857
CEO 857
Europarat 857
Politikbereiche 857
Schönheits@@ 857
Stornierungen 857
Zeugen 857
aufgabe 857
jeher 857
lis 857
reak@@ 857
reißen 857
sammlung 857
stattungen 857
verwen@@ 857
British 856
Bünd@@ 856
Dampfbad 856
Magazin 856
Meldung 856
Prozentsatz 856
anteil 856
eld 856
emm@@ 856
faßt 856
inkl 856
kä@@ 856
wesentliches 856
zuteil 856
Abfall 855
Handelsbeziehungen 855
Hav@@ 855
Hemm@@ 855
Initiativ@@ 855
Internetanschluss 855
LAN@@ 855
Oft 855
Paket@@ 855
Schokolade 855
Verlu@@ 855
befand 855
betro@@ 855
erkläre 855
glaubwürdig 855
herausgestellt 855
lings 855
ond 855
seits 855
yo 855
р@@ 855
3000 854
Beschlusses 854
Bonn 854
Embry@@ 854
Erwähnung 854
Fir@@ 854
Strafgerichtshof 854
Vereinig@@ 854
Wähler@@ 854
fris@@ 854
maßen 854
paßt 854
ping 854
stür@@ 854
tori@@ 854
Betrei@@ 853
Germany 853
Gütern 853
Sicher 853
Visi@@ 853
abzuschaffen 853
artik@@ 853
ecks 853
fielen 853
herrschende 853
his 853
höchstens 853
national 853
verbleibenden 853
Acc@@ 852
Ausschuss@@ 852
Entwicklungsziele 852
Erscheinung 852
Mund 852
Streichung 852
bedien@@ 852
down 852
elektro@@ 852
erschö@@ 852
jahre@@ 852
kund@@ 852
lenstoff@@ 852
them@@ 852
verbreitete 852
weitreich@@ 852
wäch@@ 852
Abhängi@@ 851
Ausgehend 851
Frühjahr@@ 851
Herangehensweise 851
Käse 851
Quark 851
Snacks 851
Völkerrecht 851
diesbezügliche 851
erwor@@ 851
krieg 851
niert 851
ph 851
terroristischen 851
vermin@@ 851
video 851
vorübergehend 851
е 851
Bedauerlicherweise 850
Dank@@ 850
Geltung 850
Kette 850
Konzerne 850
Liter 850
Olympus 850
REACH 850
Speicherung 850
Stoff@@ 850
Tarifa 850
biger 850
disziplin@@ 850
index 850
philosoph@@ 850
schten 850
stem 850
toleri@@ 850
zugeschnitten 850
Sicherheitsrates 849
Wiederbelebung 849
dal@@ 849
dokumentiert 849
erhöhten 849
langes 849
reformen 849
risi@@ 849
schil@@ 849
vorsorge 849
wertes 849
1990er 848
Meldungen 848
draußen 848
fassungs@@ 848
häu@@ 848
interinstitutionellen 848
zeitlichen 848
öffnung 848
üssen 848
Arbeitsplatz@@ 847
Bedar@@ 847
Geburtstag 847
Herunterladen 847
Holland 847
Logistik@@ 847
Mord 847
Pit@@ 847
ausgedehnt 847
begriff 847
blin@@ 847
hervorgeht 847
high 847
ränkte 847
wohnheiten 847
Bern@@ 846
Gebiet@@ 846
Ged@@ 846
Laufenden 846
Thun@@ 846
bezir@@ 846
car 846
gleichwer@@ 846
later@@ 846
misch 846
pa 846
schenko 846
sers 846
some 846
у@@ 846
Anreisedatum 845
Bettwäsche 845
Erfordernissen 845
King 845
Mitarbeit 845
Nationalstaaten 845
Obgleich 845
Ry@@ 845
Stress 845
anc@@ 845
ecker 845
istik 845
respek@@ 845
äufers 845
Ad 844
Anstrengung 844
Beauf@@ 844
Beitritts 844
How 844
Mitgefühl 844
Sign@@ 844
Summen 844
abler 844
baum 844
beauftragten 844
brasili@@ 844
geordnet 844
order 844
serie 844
Atomwaffen 843
Bezirk 843
Gali@@ 843
Gewalt@@ 843
HR@@ 843
Info 843
Produkts 843
Szenario 843
begünstigt 843
dazu@@ 843
gewirkt 843
jü@@ 843
motoren 843
nummern 843
stück@@ 843
töten 843
EGF 842
Seri@@ 842
bisherige 842
ehrgeizi@@ 842
einzubringen 842
entgegenzu@@ 842
etts 842
gebo@@ 842
kapazitäten 842
kers 842
maximalen 842
muster 842
nerin 842
sth@@ 842
tim 842
verhäl@@ 842
verhängt 842
verspricht 842
verspä@@ 842
Österreichs 842
Codes 841
Datener@@ 841
Engagements 841
Gedächtnis 841
Gross@@ 841
Rabatt 841
Schattenberichterstattern 841
Science 841
Venti@@ 841
Vulkan@@ 841
abzubauen 841
anischer 841
außenpolitischen 841
begri@@ 841
bliche 841
fremden 841
gon 841
kehrt 841
ommenen 841
operation@@ 841
qualifizi@@ 841
rale 841
renomm@@ 841
ueber 841
Flugzeugen 840
Stipen@@ 840
Urlaub@@ 840
Zauber 840
angewand@@ 840
funk 840
klam@@ 840
natürlicher 840
ox@@ 840
ratifizieren 840
sien 840
wiederhol@@ 840
Ausflug 839
INE 839
Metall 839
Pass 839
Rhyth@@ 839
Segment 839
beschränkungen 839
erholsamen 839
hänge 839
igt 839
isiert 839
leck@@ 839
lung@@ 839
space 839
univer@@ 839
Deut@@ 838
Konten 838
Speise@@ 838
Them@@ 838
Vorjahr 838
besserer 838
durfte 838
einladen 838
gewohnt 838
jedermann 838
konfiguriert 838
kontro@@ 838
omen 838
posten 838
titel 838
Beam@@ 837
Eltern@@ 837
Fat@@ 837
Genugtuung 837
Leucht@@ 837
Sicher@@ 837
assozi@@ 837
ausfallen 837
bekann@@ 837
entschied 837
entwicklungs@@ 837
exportiert 837
gelad@@ 837
gravier@@ 837
springen 837
techni@@ 837
tten@@ 837
vorbe@@ 837
yo@@ 837
zeug 837
übri@@ 837
HO@@ 836
Seeh@@ 836
Sendung 836
Transit@@ 836
Zugriffe 836
endsten 836
erheb@@ 836
erwartete 836
esa 836
experten 836
größt@@ 836
kreativen 836
[...]
