the 5805538
, 4671605
. 3848080
of 3034688
and 2684370
to 2600723
in 1874428
a 1648692
is 1356511
that 1099165
for 978317
on 778282
@-@ 719253
with 655127
be 648351
are 629978
The 610926
I 596271
this 569142
as 563629
it 501563
we 500794
have 471848
by 460521
not 458228
which 410995
you 410482
will 402817
from 358257
&quot; 356077
or 345532
at 343989
has 338052
an 337057
- 333465
&apos;s 321704
( 321659
) 318781
European 296167
can 281630
our 271127
all 269114
: 244864
also 243315
was 236848
its 201656
your 198901
would 197916
We 197863
but 196018
more 186787
their 183608
been 183386
Mr 180091
In 177155
should 174905
one 174878
This 170419
&apos; 168795
It 167858
Commission 167312
must 158447
President 145563
they 143472
there 142225
do 141934
other 138882
like 138781
new 138673
very 136192
time 134863
only 134659
/ 133510
about 131514
these 124750
us 123307
? 123017
Union 122821
so 121675
up 119632
who 118089
Parliament 116290
if 114150
Europe 111717
no 109710
any 106946
States 106655
people 106335
Member 105411
out 105003
report 104598
into 103735
countries 102334
what 100867
such 100473
Council 97676
need 96305
well 96035
; 95859
EU 95105
my 94113
than 93125
use 92513
were 91819
when 91201
important 90535
now 89425
some 88974
make 88150
work 87771
them 87314
because 87187
first 86933
between 86736
most 85443
many 84223
take 83325
his 81826
! 78965
way 78880
support 78337
made 77047
A 76056
those 75656
policy 75612
years 74550
information 74355
two 73211
If 72813
... 72435
just 72218
am 72179
world 71775
being 70800
over 70405
able 69420
s 68789
where 68221
system 66940
had 66913
even 65793
re@@ 65096
may 64955
he 64922
right 64708
un@@ 64401
year 64138
order 63333
market 62275
political 61859
hotel 61694
part 61613
economic 61263
rights 60202
possible 59576
here 59370
area 59165
development 58691
same 58562
see 58051
% 57971
As 57582
therefore 57557
through 57464
own 57435
good 57372
against 56993
place 56914
want 56462
how 56274
within 55687
country 55578
could 55357
then 55204
You 54976
does 53957
There 53710
after 53596
both 53545
much 53218
in@@ 52809
under 52614
For 52593
public 52409
point 52353
used 51768
social 51531
fact 51067
say 50826
without 50759
find 50438
de 50085
international 49971
believe 49911
2 49623
high 49598
1 49592
number 49043
me 48995
still 48827
future 48677
know 48632
ing 48515
services 48513
already 48078
long 47775
free 47534
ed 46906
last 46853
today 46842
different 46701
view 46642
think 46285
That 46242
cannot 45762
great 45610
Commissioner 45583
course 45447
human 45194
available 45186
set 45123
case 44989
too 44983
process 44946
before 44852
level 44792
end 44775
products 43840
financial 43685
debate 43665
o 43644
proposal 43625
issue 42934
But 42393
data 42367
national 42362
question 42022
said 41918
quality 41896
Hotel 41797
situation 41510
i 41507
example 41075
3 41006
means 40903
Committee 40168
day 39961
clear 39826
measures 39780
get 39684
particular 39662
service 39558
However 39492
S@@ 39404
since 39178
citizens 38992
es 38785
common 38407
during 38356
e 38340
agreement 38132
including 38087
offers 38038
energy 37925
based 37867
y 37798
help 37581
every 37541
best 37365
taken 37077
give 37050
areas 36906
ensure 36607
each 36514
put 36406
problem 36322
access 36306
c@@ 36267
C@@ 36264
small 36206
business 35883
next 35708
three 35322
problems 35208
provide 35190
Our 35141
P@@ 35029
security 35018
cooperation 35012
necessary 34872
far 34782
few 34625
further 34589
vote 34403
why 34316
again 34307
go 34161
&#91; 34107
given 33976
large 33855
come 33762
position 33719
&#93; 33702
s@@ 33671
change 33652
shall 33636
hope 33632
ation 33602
room 33567
offer 33409
4 33337
law 33311
however 33240
city 33200
On 33017
action 32876
All 32481
protection 32104
needs 32053
real 32001
er 31955
T@@ 31945
back 31932
Community 31835
group 31816
Mrs 31758
p@@ 31665
rooms 31498
company 31462
al 31423
United 31390
A@@ 31218
5 31174
while 31139
ers 31006
Group 30950
better 30906
B@@ 30830
always 30786
To 30766
whether 30751
particularly 30709
life 30654
With 30650
less 30628
What 30603
trade 30599
form 30590
current 30523
legal 30458
terms 30357
And 30353
working 30282
state 30071
power 30065
present 30030
using 29973
making 29964
down 29954
At 29892
House 29846
issues 29734
They 29679
d@@ 29677
10 29627
full 29551
m 29435
production 29425
M@@ 29398
her 29249
become 29120
result 28988
together 28983
ated 28896
D@@ 28835
certain 28823
conditions 28704
women 28626
sector 28574
G@@ 28566
did 28487
open 28429
role 28386
another 28197
When 28104
ate 28033
basis 28016
These 28010
main 28010
systems 27884
respect 27843
health 27838
special 27752
children 27748
budget 27652
matter 27597
second 27577
de@@ 27537
industry 27369
&amp; 27360
b@@ 27316
companies 27260
whole 27098
located 27089
done 27040
rapporteur 26983
o@@ 26967
specific 26920
en@@ 26895
per 26879
around 26866
account 26851
decision 26768
control 26739
E@@ 26728
H@@ 26721
various 26632
&apos;t 26622
L@@ 26611
especially 26499
government 26463
F@@ 26298
e@@ 26278
stay 26226
resolution 26181
third 26103
create 26025
K@@ 26003
research 25986
directive 25933
crisis 25830
programme 25802
continue 25745
gentlemen 25709
line 25704
regard 25674
million 25584
N@@ 25360
region 25280
page 25180
term 25130
g@@ 25128
called 25123
rules 25101
really 25096
itself 25077
going 25073
site 25013
non 24946
something 24838
experience 24822
fully 24717
look 24682
wish 24625
old 24576
global 24545
Treaty 24498
management 24494
US 24423
project 24373
Madam 24355
y@@ 24308
major 24254
least 24247
institutions 24243
local 24233
general 24196
ask 24184
dis@@ 24181
t@@ 24166
single 24147
water 24145
hand 24078
v@@ 24028
ted 23953
towards 23948
subject 23929
centre 23901
t 23889
V@@ 23856
d 23853
m@@ 23847
ating 23722
environment 23540
following 23489
R@@ 23456
thank 23416
ts 23370
growth 23358
O@@ 23355
transport 23329
welcome 23317
aid 23314
increase 23276
once 23233
often 23113
list 23037
days 23005
several 23001
Members 22994
start 22892
resources 22840
opportunity 22809
di@@ 22800
Germany 22737
forward 22720
things 22649
proposals 22525
agree 22516
amendments 22413
money 22406
close 22378
approach 22369
f@@ 22361
behalf 22340
German 22325
rather 22292
framework 22227
name 22173
i@@ 22168
call 22133
20 22128
individual 22066
ladies 22049
W@@ 21870
field 21865
ting 21810
30 21798
range 21785
product 21702
k@@ 21701
adopted 21687
No 21670
interest 21639
economy 21628
2009 21604
State 21592
&#124; 21587
software 21523
off 21510
away 21509
con@@ 21490
safety 21367
legislation 21355
yet 21345
activities 21335
n@@ 21328
u@@ 21326
food 21322
progress 21308
taking 21271
modern 21229
solution 21198
favour 21133
6 21111
opinion 21101
family 21089
until 21056
li@@ 21030
quite 20998
little 20948
an@@ 20944
price 20937
policies 20897
allow 20864
period 20845
private 20824
a@@ 20795
might 20792
found 20764
having 20739
costs 20720
China 20681
provided 20681
points 20658
al@@ 20576
effective 20566
concerned 20521
members 20487
&apos;@@ 20478
ti@@ 20478
So 20466
responsibility 20435
personal 20404
him 20338
7 20319
short 20317
reason 20258
side 20224
among 20222
technology 20179
ly 20124
key 20119
value 20092
excellent 20088
importance 20027
difficult 20001
strategy 19911
greater 19854
include 19792
above 19726
attention 19707
society 19691
air 19690
others 19667
projects 19663
principle 19619
environmental 19615
let 19610
results 19597
le 19576
content 19565
known 19561
play 19526
due 19515
application 19441
text 19433
groups 19368
ates 19354
makes 19330
I@@ 19309
8 19239
simply 19212
customers 19185
home 19154
ch@@ 19147
authorities 19111
light 19069
He 19047
p 19034
left 19023
employment 19018
clearly 19003
times 18991
words 18971
en 18965
questions 18963
building 18835
ar@@ 18732
15 18730
standards 18706
addition 18680
provides 18570
achieve 18536
ra@@ 18526
ro@@ 18515
proposed 18451
serious 18384
One 18369
version 18368
show 18341
age 18337
step 18309
l 18297
recent 18267
essential 18244
deal 18162
ations 18143
interests 18131
After 18098
z@@ 18072
risk 18056
regulation 18050
democracy 18033
k 18015
internal 17985
design 17982
regions 17974
voted 17970
co@@ 17962
pages 17932
.@@ 17885
der 17863
si@@ 17860
meeting 17855
h@@ 17820
website 17702
implementation 17697
technical 17676
training 17663
l@@ 17662
democratic 17651
cultural 17647
c 17628
freedom 17568
on@@ 17538
complete 17519
12 17508
required 17491
currently 17485
x 17452
efforts 17429
longer 17425
bring 17411
kind 17411
responsible 17399
contact 17387
Russia 17375
competition 17373
ri@@ 17347
j@@ 17344
address 17330
EUR 17310
involved 17299
easy 17296
related 17287
ago 17271
le@@ 17270
negotiations 17239
months 17229
peace 17216
enjoy 17168
location 17134
parties 17124
past 17115
2010 17107
natural 17052
user 17035
positive 17012
er@@ 16970
Internet 16965
themselves 16941
needed 16928
solutions 16916
J@@ 16909
wide 16858
b 16843
Presidency 16826
requirements 16817
sure 16817
town 16765
2008 16706
rate 16704
fundamental 16697
World 16695
minutes 16677
force 16675
ent 16644
cases 16643
along 16612
u 16513
feel 16498
directly 16495
markets 16492
nature 16484
developing 16450
funds 16436
developed 16430
se 16416
changes 16403
enough 16386
she 16322
als 16314
cost 16292
extremely 16255
four 16241
young 16221
C 16218
sea 16204
date 16201
upon 16184
regional 16135
ings 16121
thing 16114
states 16091
events 16050
person 16034
heart 15965
via 15936
man 15922
consider 15890
improve 15880
comes 15859
strong 15819
led 15816
or@@ 15767
st@@ 15764
education 15742
climate 15733
foreign 15732
workers 15725
history 15703
never 15672
low 15657
network 15644
procedure 15640
keep 15639
el@@ 15635
beautiful 15628
land 15626
staff 15618
effect 15551
house 15537
em@@ 15531
true 15495
appropriate 15445
thus 15445
as@@ 15421
50 15414
views 15414
th@@ 15376
accept 15368
either 15333
im@@ 15317
majority 15317
ar 15308
actually 15299
es@@ 15294
at@@ 15285
pre@@ 15268
understand 15262
share 15257
el 15207
art 15165
request 15153
2007 15136
event 15134
war 15127
century 15125
success 15121
held 15098
total 15091
idea 15088
seen 15082
la 15078
Re@@ 15061
pay 15049
lead 15039
tax 15005
online 14998
lot 14967
additional 14946
reform 14928
please 14916
relations 14913
context 14912
though 14896
created 14866
From 14861
according 14858
central 14842
w@@ 14826
language 14823
meet 14808
2000 14804
prices 14797
Turkey 14796
3@@ 14792
certainly 14790
International 14758
visit 14752
9 14750
live 14744
aware 14737
ever 14727
run 14722
soon 14722
Please 14702
concerns 14691
programmes 14677
investment 14669
agreements 14646
care 14633
tions 14625
D 14617
type 14607
committee 14590
guarantee 14571
turn 14564
almost 14559
top 14539
mentioned 14522
communication 14500
doing 14468
file 14466
receive 14454
significant 14431
France 14429
ous 14417
Government 14385
n 14377
decisions 14376
existing 14367
living 14358
everything 14347
plan 14311
guests 14295
am@@ 14294
five 14242
takes 14236
direct 14228
r@@ 14223
concerning 14219
road 14216
New 14166
impact 14159
men 14139
add 14129
included 14129
knowledge 14104
car 14102
po@@ 14100
French 14080
objectives 14076
looking 14048
initiative 13999
capital 13996
re 13982
des 13963
reasons 13951
writing 13945
red 13927
users 13912
facilities 13899
final 13857
try 13857
Lisbon 13850
over@@ 13849
near 13843
designed 13829
apply 13803
standard 13803
jobs 13758
25 13746
connection 13746
week 13727
Z@@ 13685
reach 13680
act 13679
military 13676
throughout 13660
team 13657
24 13628
works 13621
agricultural 13586
ad@@ 13581
parts 13521
ability 13481
values 13481
remain 13479
11 13476
community 13473
objective 13471
across 13465
unique 13448
4@@ 13421
outside 13386
concern 13385
space 13371
nothing 13359
amount 13354
fight 13338
took 13316
population 13293
100 13284
moment 13282
h 13271
practice 13270
although 13269
euro 13250
Affairs 13245
sh@@ 13229
Court 13224
party 13203
regarding 13198
integration 13188
How 13184
U@@ 13157
_ 13157
established 13139
sense 13129
etc 13121
leading 13110
hard 13105
media 13087
inter@@ 13086
member 13086
sp@@ 13083
program 13081
partners 13078
later 13075
ant 13066
ally 13064
basic 13059
keyword 13058
America 13048
By 13048
benefit 13047
customer 13040
ans 13036
develop 13029
Let 13024
reports 13022
situated 13022
completely 13015
aim 13010
dialogue 12992
stage 12986
et 12984
features 12967
km 12954
ways 12949
package 12937
ac@@ 12928
Y@@ 12922
early 12921
demand 12916
model 12914
American 12892
indeed 12881
ve 12877
Al@@ 12864
music 12847
performance 12827
governments 12802
body 12795
rates 12784
My 12769
achieved 12766
Finally 12763
Office 12750
move 12737
ine 12722
famous 12720
hours 12709
face 12691
culture 12645
2006 12633
amendment 12613
In@@ 12608
mean 12542
consumers 12528
night 12523
seems 12511
prevent 12508
check 12506
active 12499
S 12493
allows 12454
traditional 12451
table 12448
sustainable 12444
station 12440
est 12437
Since 12433
Article 12429
quickly 12423
ab@@ 12422
principles 12417
ist 12409
bar 12406
function 12405
focus 12394
goods 12394
nuclear 12387
includes 12381
+ 12371
X@@ 12361
ds 12361
ic 12352
entire 12320
lack 12313
send 12313
big 12298
commitment 12292
it@@ 12270
read 12251
treatment 12237
beach 12235
received 12232
agreed 12212
card 12201
contains 12191
professional 12184
potential 12180
book 12139
ideal 12136
matters 12118
increased 12116
os 12112
built 12079
lo@@ 12072
half 12061
* 12049
perhaps 12035
co 12031
border 12029
applications 12028
web 12027
levels 11995
ex@@ 11983
restaurant 11978
mind 11976
promote 11971
TV 11956
job 11948
successful 11948
everyone 11927
answer 11923
presented 11917
carried 11916
recently 11908
board 11893
original 11893
joint 11892
huge 11888
res 11882
game 11879
Con@@ 11877
Therefore 11862
18@@ 11834
below 11831
self 11823
g 11822
material 11819
follow 11818
enable 11814
South 11809
whose 11808
files 11803
actions 11792
simple 11763
les 11756
choice 11747
equipment 11721
B 11720
ty 11697
stop 11689
aspects 11686
return 11679
June 11664
enlargement 11660
beginning 11651
image 11626
x@@ 11611
creation 11599
May 11593
increasing 11593
East 11585
Here 11585
bo@@ 11575
possibility 11564
response 11541
higher 11510
funding 11474
00 11457
priority 11457
is@@ 11452
highly 11448
effects 11443
direction 11427
opportunities 11421
test 11414
tion 11413
pressure 11411
balance 11401
reduce 11399
added 11382
2@@ 11372
mail 11372
asked 11371
external 11341
capacity 11318
se@@ 11298
per@@ 11295
civil 11274
perfect 11268
previous 11262
note 11261
be@@ 11258
O 11239
closed 11228
speak 11223
equipped 11221
exchange 11214
shown 11208
coming 11189
T 11185
vi@@ 11161
forms 11157
thanks 11151
ma@@ 11147
comfortable 11145
prepared 11131
reached 11130
ding 11125
shows 11107
bi@@ 11106
ary 11102
op@@ 11093
protect 11087
rest 11087
oil 11078
setting 11077
consumer 11075
5@@ 11063
billion 11043
und 11033
pool 11030
An 11024
� 11013
press 10974
holiday 10968
fair 10956
Convention 10951
complex 10938
behind 10928
ver@@ 10925
Now 10921
considered 10915
categories 10912
supply 10905
mo@@ 10900
supported 10899
series 10880
assistance 10875
40 10859
friendly 10858
industrial 10849
regards 10833
2005 10831
Africa 10831
computer 10825
stability 10820
breakfast 10806
office 10800
ors 10799
providing 10796
pro@@ 10779
Spain 10776
regulations 10737
decided 10735
ten 10729
ance 10724
relation 10714
choose 10709
qu@@ 10707
remains 10703
sed 10684
cause 10675
rule 10674
movement 10669
tic 10668
ap@@ 10654
ce 10654
ec@@ 10640
efficient 10613
compromise 10606
Of 10599
style 10597
18 10583
creating 10580
® 10578
latest 10570
discussion 10567
pleased 10557
December 10516
Central 10491
que 10482
independent 10473
ci@@ 10472
commercial 10472
sites 10467
Some 10465
relevant 10463
materials 10455
Italy 10453
ves 10443
places 10426
procedures 10416
came 10415
size 10398
internet 10384
bed 10377
contribution 10374
operation 10373
2004 10369
gives 10367
limited 10360
item 10353
provisions 10349
z 10349
fishing 10348
former 10334
um 10312
violence 10286
Bank 10284
double 10268
labour 10261
purpose 10236
brought 10234
Berlin 10226
te 10214
statement 10204
6@@ 10203
draft 10201
walk 10181
criteria 10172
sound 10171
activity 10167
14 10142
September 10139
travel 10126
16 10125
search 10113
steps 10078
message 10073
transparency 10069
Minister 10067
document 10062
Mediterranean 10058
distribution 10024
instruments 10022
r 10019
English 10005
front 10005
ourselves 9991
easily 9978
instead 9971
similar 9971
tra@@ 9967
First 9966
Rights 9965
giving 9965
structure 9963
Republic 9956
solidarity 9954
tive 9952
th 9946
to@@ 9940
sub 9939
2003 9919
agenda 9913
property 9913
leave 9912
code 9909
E 9905
details 9905
medium 9887
ses 9877
status 9874
car@@ 9868
ones 9861
elections 9847
ment 9843
legislative 9842
safe 9837
equal 9829
produced 9825
star 9816
six 9813
don 9809
poverty 9806
express 9798
January 9791
floor 9783
cross 9780
effort 9780
task 9764
center 9756
Mar@@ 9743
source 9740
reviews 9738
credit 9732
conference 9729
consequences 9708
tell 9705
stand 9696
benefits 9682
Today 9674
2001 9669
UN 9669
March 9659
et@@ 9659
gas 9651
P 9647
.com 9645
damage 9622
produce 9621
challenges 9620
speed 9617
000 9601
ch 9593
lines 9593
tri@@ 9590
ling 9588
13 9587
video 9585
concept 9550
$ 9549
link 9548
construction 9547
terrorism 9543
October 9542
British 9539
paid 9537
allowed 9530
reading 9525
om@@ 9522
conflict 9510
di 9508
charge 9507
colleagues 9507
nor 9502
finally 9499
integrated 9499
summer 9489
ground 9474
study 9470
popular 9466
Service 9459
ag@@ 9459
Ro@@ 9453
reality 9447
documents 9436
forces 9435
7@@ 9434
accommodation 9416
Directive 9407
tomorrow 9407
written 9394
congratulate 9392
Furthermore 9380
saying 9343
establish 9342
te@@ 9327
partner 9325
require 9319
par@@ 9317
ise 9315
draw 9308
applied 9306
largest 9304
ties 9297
organisations 9286
option 9267
8@@ 9264
ins 9263
Amendment 9249
crucial 9248
General 9244
growing 9240
efficiency 9233
implemented 9227
interesting 9227
payment 9224
word 9220
ons 9215
review 9201
Co@@ 9199
talk 9198
started 9197
sing 9196
elements 9189
monitoring 9176
Italian 9175
enter 9169
sub@@ 9169
relating 9166
avoid 9155
ke 9148
An@@ 9122
DE 9121
tool 9104
atmosphere 9102
ou@@ 9101
voting 9101
Development 9089
hotels 9088
goes 9077
accession 9070
employees 9053
IT 9036
requires 9031
July 9027
ity 9018
processes 9013
submitted 9007
types 9007
analysis 9004
reduction 9003
practical 9001
immediately 8995
lives 8994
click 8993
Spanish 8985
ha@@ 8983
section 8982
ator 8944
Party 8941
farmers 8934
island 8931
instrument 8921
beyond 8906
ded 8903
carry 8902
variety 8867
9@@ 8866
2002 8860
class 8850
M 8841
minimum 8837
Ar@@ 8821
waste 8807
Israel 8803
official 8799
da 8794
su@@ 8794
Although 8779
tools 8765
November 8760
sectors 8759
happy 8756
powers 8751
reference 8746
rich 8743
0@@ 8732
ze 8717
G 8711
persons 8708
Many 8706
ms 8702
North 8695
X 8692
death 8688
Windows 8678
ter 8678
do@@ 8675
guest 8661
post 8655
highest 8642
extent 8640
useful 8640
comprehensive 8638
expect 8624
base 8622
under@@ 8618
wi@@ 8615
gra@@ 8614
mention 8601
historical 8587
begin 8567
ideas 8561
build 8559
links 8550
weeks 8547
ders 8541
server 8538
download 8536
namely 8526
secure 8517
Secondly 8514
0 8511
school 8510
ta@@ 8506
anti 8501
businesses 8501
la@@ 8488
implement 8480
accordance 8478
adopt 8474
cut 8468
numerous 8466
bus 8458
wine 8458
challenge 8454
€ 8447
National 8446
operating 8442
raised 8432
ul@@ 8426
strategic 8417
hold 8407
Fund 8386
starting 8384
During 8378
ry 8375
scientific 8371
ne@@ 8369
annual 8364
technologies 8361
digital 8352
ism 8349
ot@@ 8349
caused 8346
no@@ 8346
drive 8335
initiatives 8308
cohesion 8291
doubt 8290
gu@@ 8283
poor 8283
despite 8279
scale 8272
Even 8271
daily 8259
ge@@ 8258
borders 8254
pi@@ 8251
mobile 8238
Ireland 8232
sent 8217
methods 8211
L 8208
historic 8207
absolutely 8201
maximum 8201
ess 8196
alone 8190
innovation 8186
ready 8179
leaders 8175
Your 8167
&apos;ll 8164
representatives 8159
ol@@ 8156
April 8151
Moreover 8148
bit 8145
ces 8143
affected 8132
expressed 8125
ina 8125
scope 8125
transfer 8124
Western 8113
apartment 8112
anything 8105
month 8099
f 8095
method 8094
60 8093
sc@@ 8093
é@@ 8091
round 8087
friends 8086
probably 8084
rec@@ 8082
child 8080
reforms 8077
accepted 8076
sometimes 8065
1999 8060
R 8058
calls 8056
sts 8052
= 8050
ur@@ 8050
thought 8048
became 8045
published 8044
fine 8039
illegal 8033
Conference 8031
lower 8022
distance 8020
justice 8018
offered 8018
trying 8018
com@@ 8017
demands 8009
w 8006
sales 8005
structural 8003
machine 8001
so@@ 7997
ality 7993
offering 7983
gh@@ 7976
fall 7974
Thank 7972
heard 7967
ni@@ 7964
options 7963
late 7960
interested 7954
for@@ 7952
vital 7951
17 7947
confidence 7947
approved 7946
priorities 7943
lies 7938
influence 7931
learn 7931
extra 7918
chance 7917
talking 7911
advantage 7909
committed 7908
worldwide 7908
ge 7903
innovative 7903
languages 7902
regime 7890
While 7889
die 7876
intended 7874
rise 7870
village 7870
overall 7858
unemployment 7851
K 7847
conclusion 7843
banks 7834
processing 7830
maintain 7828
proper 7820
currency 7819
join 7819
stress 7809
wanted 7805
ators 7804
Chinese 7791
head 7788
news 7788
emissions 7767
Austria 7760
del 7757
ence 7756
mis@@ 7750
Do 7748
Iraq 7748
ed@@ 7748
clients 7745
release 7744
victims 7743
crime 7741
circumstances 7740
critical 7739
tabled 7734
sports 7733
ad 7729
-@@ 7721
Indeed 7717
fields 7713
F 7699
ensuring 7698
uses 7694
worked 7693
opening 7688
plans 7683
alternative 7681
lost 7681
pass 7674
administration 7671
mon@@ 7671
relationship 7659
Russian 7655
ful 7636
En@@ 7630
gi@@ 7625
got 7625
competitive 7621
increasingly 7621
cities 7606
decide 7605
Nations 7604
contribute 7595
Is 7586
improved 7580
agriculture 7578
budgetary 7578
encourage 7570
restaurants 7560
pe@@ 7556
players 7554
La 7551
21 7550
st 7543
fish 7537
contract 7536
morning 7531
fi@@ 7528
ck@@ 7525
effectively 7524
airport 7512
cover 7507
infrastructure 7498
comments 7494
Bo@@ 7491
us@@ 7491
participation 7489
target 7489
reduced 7484
II 7483
up@@ 7480
fellow 7471
pa@@ 7464
images 7459
ler 7456
park 7454
Public 7453
ski 7450
says 7442
changed 7426
met 7425
son 7416
aimed 7410
mainly 7398
res@@ 7393
mountain 7392
ments 7385
apartments 7384
ent@@ 7384
green 7378
il@@ 7361
Security 7352
whom 7345
out@@ 7343
goal 7341
correct 7338
placed 7331
19 7328
ir@@ 7328
specifically 7327
discussed 7321
exist 7321
partnership 7315
Room 7311
ic@@ 7311
planning 7310
risks 7308
assessment 7303
discuss 7302
ets 7292
player 7268
Only 7264
precisely 7256
games 7253
supports 7253
discrimination 7240
stated 7239
ving 7231
sources 7229
selection 7227
traffic 7225
bu@@ 7224
200 7223
motion 7222
laws 7218
ter@@ 7218
institutional 7217
protected 7217
running 7215
enterprises 7212
discussions 7211
Di@@ 7205
22 7196
manner 7194
fast 7190
strengthen 7185
ents 7178
hi@@ 7173
People 7172
suitable 7163
guidelines 7161
ps 7158
Agreement 7156
defined 7154
film 7146
Th@@ 7143
developments 7138
introduced 7134
{ 7133
families 7132
measure 7130
nice 7124
immigration 7120
ies 7119
rural 7119
Ma@@ 7106
ten@@ 7100
Car@@ 7095
box 7095
automatically 7091
ra 7083
ren@@ 7078
wrong 7078
represents 7068
referred 7061
train 7061
Centre 7059
introduction 7058
80 7055
fisheries 7033
sufficient 7030
wants 7029
yourself 7029
sign 7024
V 7015
500 7012
administrative 7011
speaking 7010
serve 7008
sk@@ 7007
covered 7006
ative 6997
quiet 6996
bank 6992
else 6985
da@@ 6975
animals 6974
phone 6972
closely 6971
sized 6968
competitiveness 6966
improving 6966
income 6957
sitting 6957
tor 6954
debt 6952
detailed 6950
27 6949
likely 6945
GmbH 6943
becoming 6943
limit 6942
relate 6939
minute 6936
installation 6935
More 6930
visitors 6925
police 6922
financing 6919
email 6916
broad 6913
ure 6911
coordination 6907
separate 6906
ho@@ 6905
managed 6899
India 6897
electronic 6897
clean 6894
linked 6893
exactly 6892
session 6888
appear 6882
supporting 6882
UK 6873
purposes 6872
menu 6870
Mo@@ 6868
Japan 6862
West 6862
Paris 6860
represent 6860
listed 6857
functions 6851
powerful 6851
presidency 6845
thousands 6843
parliamentary 6841
v 6841
considerable 6837
Park 6835
Greece 6834
ia 6831
zed 6830
delivery 6829
} 6817
loss 6815
entry 6813
Pro@@ 6812
www.@@ 6807
evening 6801
Web 6800
Policy 6796
networks 6796
duty 6787
AG 6783
parking 6781
hour 6779
provision 6779
Iran 6777
speech 6768
signed 6767
ati@@ 6755
shopping 6753
H 6747
Ch@@ 6746
sive 6742
den 6737
plant 6737
man@@ 6736
feature 6734
summit 6727
king 6723
happen 6705
inc@@ 6703
map 6703
Why 6699
den@@ 6698
bodies 6695
otherwise 6695
sion 6695
San 6691
sur@@ 6691
17@@ 6687
ages 6681
1.@@ 6673
swimming 6673
Asia 6671
garden 6668
Middle 6660
extensive 6659
earlier 6658
Cor@@ 6649
generation 6648
organisation 6648
remember 6645
thinking 6644
difficulties 6642
comfort 6641
Economic 6636
suggest 6630
ru@@ 6627
modified 6615
properly 6606
facing 6603
Social 6599
collection 6598
Its 6596
dealing 6588
comm@@ 6586
London 6584
authority 6581
Brussels 6580
pl@@ 6580
N 6578
founded 6571
ging 6571
positions 6567
usually 6566
operations 6564
end@@ 6563
port 6560
lu@@ 6550
record 6548
ut@@ 6548
00@@ 6539
ical 6532
wing 6529
spirit 6527
ca 6525
cu@@ 6524
understanding 6518
bad 6517
consideration 6517
sions 6514
degree 6512
animal 6506
getting 6499
Then 6498
refer 6492
followed 6484
street 6482
Ad@@ 6468
ber@@ 6465
&apos;re 6455
ship 6454
combat 6448
ously 6448
promoting 6446
presence 6445
ev@@ 6440
February 6430
entirely 6429
worth 6428
23 6421
flexibility 6421
trust 6416
regular 6407
love 6405
City 6396
ing@@ 6394
experts 6392
ep@@ 6389
students 6384
path 6369
applies 6364
hear 6362
humanitarian 6362
flexible 6360
expected 6358
Unfortunately 6348
white 6347
PC 6343
medical 6336
opened 6330
University 6326
defence 6325
informed 6311
cor@@ 6307
adoption 6300
implementing 6300
seriously 6290
programs 6286
paper 6284
sen@@ 6283
ka 6278
ph@@ 6276
fund 6275
aims 6271
selected 6271
terrace 6265
Czech 6264
origin 6260
save 6260
threat 6259
played 6257
camera 6256
establishment 6252
screen 6252
seem 6252
criminal 6251
tourism 6251
Firstly 6248
Gu@@ 6248
Each 6245
ably 6245
monetary 6241
ters 6239
began 6235
ys 6231
components 6229
track 6227
politics 6224
Switzerland 6222
marketing 6218
aspect 6203
Poland 6195
practices 6187
connected 6183
opposition 6180
spend 6180
ana 6179
Rooms 6171
bathroom 6170
sti@@ 6169
vehicles 6163
actual 6157
difference 6157
Not 6156
est@@ 6156
fixed 6154
90 6152
failure 6152
balanced 6151
reducing 6151
ES 6149
God 6149
ard 6142
client 6140
bar@@ 6139
exclusive 6138
appears 6136
1@@ 6134
domestic 6129
average 6127
myself 6127
metres 6124
Barcelona 6120
Y 6120
ale 6118
south 6118
differences 6116
born 6114
plants 6112
Debian 6111
Lo@@ 6108
&gt; 6102
propose 6101
tourist 6099
me@@ 6094
statements 6091
fo@@ 6089
meetings 6087
Europeans 6085
producers 6082
Ex@@ 6079
70 6077
attempt 6075
mar@@ 6073
Human 6072
Justice 6069
Bar@@ 6063
concrete 6062
Sea 6056
net 6056
respond 6056
structures 6055
ying 6055
comp@@ 6051
der@@ 6051
il 6050
recognition 6048
purchase 6047
playing 6042
Because 6041
unacceptable 6037
votes 6035
Just 6031
happened 6023
forget 6018
WTO 6017
St@@ 6011
buy 6010
reasonable 6000
easier 5993
served 5992
des@@ 5991
du@@ 5987
hands 5979
select 5975
0.@@ 5971
go@@ 5969
stable 5968
ban 5964
genuine 5963
buildings 5960
won 5959
EC 5955
sa@@ 5954
prior 5952
normal 5951
au@@ 5950
calling 5949
economies 5947
introduce 5938
agencies 5930
ness 5930
guarantees 5928
asylum 5926
sport 5926
unfortunately 5925
col@@ 5923
Amsterdam 5918
ese 5911
estate 5911
mission 5909
ali@@ 5907
instance 5904
finance 5903
larger 5901
numbers 5900
ne 5899
becomes 5898
union 5895
August 5892
Kingdom 5887
ari@@ 5885
dangerous 5884
generally 5882
ob@@ 5880
ahead 5879
ma 5877
houses 5876
gave 5868
Also 5863
negative 5863
telephone 5862
war@@ 5859
consumption 5851
items 5850
USA 5845
pre 5842
acts 5838
,000 5837
cards 5835
ches 5830
trading 5830
seek 5826
walking 5825
peaceful 5823
impossible 5818
immediate 5817
establishing 5816
fresh 5815
improvement 5815
elected 5805
raise 5804
inside 5802
High 5801
Free 5794
Once 5792
evidence 5788
Pre@@ 5784
Kosovo 5783
associated 5782
carefully 5780
Ri@@ 5779
can@@ 5777
Le@@ 5770
ks 5770
mi@@ 5769
voice 5767
Services 5766
machines 5764
un 5764
membership 5762
picture 5759
Regulation 5758
ants 5756
detail 5752
Q@@ 5744
election 5744
ology 5743
According 5734
wa@@ 5731
experienced 5724
urgent 5723
conclusions 5719
inform 5716
ak@@ 5712
went 5701
Christian 5698
strongly 5689
fear 5683
Ukraine 5681
ck 5680
wishes 5679
closer 5678
database 5672
Li@@ 5670
Linux 5669
display 5667
ish 5667
Po@@ 5665
sensitive 5664
figures 5663
desire 5660
winter 5660
advanced 5657
Turkish 5653
rightly 5652
gain 5650
spent 5650
Democrats 5648
fied 5647
shared 5645
territory 5641
unto 5640
Palestinian 5631
é 5631
anyone 5628
perspective 5625
core 5623
obtain 5623
Com@@ 5621
enormous 5621
stock 5621
wonderful 5621
truly 5620
told 5618
commitments 5617
continued 5617
convinced 5615
Irish 5612
he@@ 5612
continues 5611
photo 5608
participate 5607
bear 5606
paragraph 5604
sides 5604
African 5600
20@@ 5597
typical 5593
element 5591
tasks 5591
fire 5583
fiscal 5583
spending 5582
drawn 5576
era 5574
models 5574
Euro 5573
honourable 5567
changing 5566
remind 5562
Nevertheless 5559
availability 5554
warm 5552
cs 5550
CD 5536
exercise 5536
format 5535
300 5534
religious 5534
announced 5533
contrary 5533
cur@@ 5531
passed 5531
transparent 5528
Swiss 5522
Booking.com 5520
insurance 5520
definition 5517
á@@ 5514
Green 5513
greatest 5510
zing 5509
Vi@@ 5505
campaign 5503
Guest 5496
described 5494
studies 5492
candidate 5491
outcome 5490
Research 5489
export 5481
allowing 5478
charged 5475
equality 5474
tradition 5474
gen@@ 5473
Constitution 5471
translation 5471
combination 5469
institution 5469
achieving 5467
leader 5463
ambitious 5454
beds 5452
sort 5452
fl@@ 5449
comment 5446
possibilities 5445
Due 5444
kitchen 5444
tour 5440
unless 5439
packages 5436
character 5432
manage 5431
Mon@@ 5430
Prime 5429
controls 5423
firm 5423
organised 5418
weapons 5417
expenditure 5410
colleague 5407
entitled 5405
fying 5401
ble 5400
19@@ 5399
obligations 5398
.. 5381
Trade 5380
fun 5380
Foreign 5379
payments 5379
1998 5378
sets 5378
permanent 5375
factors 5374
reliable 5372
himself 5371
Most 5370
ently 5369
laid 5369
W 5363
lin@@ 5363
De@@ 5361
forced 5359
failed 5354
district 5348
ER 5344
ast@@ 5344
obviously 5344
advance 5342
Portugal 5338
ver 5331
yesterday 5331
initial 5329
granted 5325
season 5324
attractive 5321
vo@@ 5321
article 5320
shop 5319
ie 5316
26 5314
enables 5312
Par@@ 5310
28 5307
disease 5306
installed 5306
Board 5302
registered 5299
totally 5299
courses 5298
individuals 5298
War 5297
contain 5296
Such 5292
ges 5287
names 5287
learning 5286
Health 5278
Un@@ 5270
av@@ 5270
intervention 5269
unable 5266
2.@@ 5263
neither 5262
advertising 5261
completed 5261
exhibition 5255
promotion 5255
ats 5252
She 5249
Yet 5249
va 5244
cars 5243
Airport 5241
Eastern 5236
16@@ 5235
har@@ 5235
moving 5235
strengthening 5230
pointed 5229
Netherlands 5228
claims 5226
continuing 5225
recommendations 5225
vision 5220
prevention 5219
expression 5214
combined 5213
brand 5212
compared 5207
eg@@ 5204
devices 5199
asking 5198
dy 5198
targets 5190
His 5185
limits 5184
ta 5184
button 5179
black 5178
grounds 5175
independence 5172
extended 5165
deep 5160
merely 5158
reservation 5155
Be@@ 5147
cre@@ 5141
platform 5140
Summit 5137
kept 5134
stands 5131
mechanism 5129
responsibilities 5128
situations 5123
architecture 5122
conclude 5118
tu@@ 5117
tors 5116
binding 5111
sale 5107
IN@@ 5104
monitor 5101
skills 5098
governance 5096
31 5093
wood 5093
court 5090
Inter@@ 5087
bringing 5083
pleasant 5082
Another 5080
goals 5078
Every 5077
Greek 5072
zone 5072
middle 5070
substantial 5070
15@@ 5066
putting 5064
consensus 5058
shops 5058
corporate 5056
acceptable 5054
released 5053
pictures 5051
obvious 5048
ines 5042
storage 5040
ens 5038
science 5035
color 5031
eb@@ 5028
condition 5027
win 5026
acc@@ 5025
resort 5025
door 5021
agency 5013
compliance 5009
Thus 5006
cuisine 5005
U 5003
television 5003
install 5000
discussing 4998
ics 4996
seeking 4991
35 4990
AN@@ 4990
write 4990
consistent 4987
super@@ 4986
contained 4984
successfully 4979
communities 4975
attack 4974
maintenance 4973
Agency 4972
arms 4972
memory 4972
mass 4971
Su@@ 4966
ste@@ 4966
factor 4965
elegant 4963
north 4962
capable 4961
break 4957
weight 4957
advice 4955
ice 4947
background 4945
addressed 4944
trans@@ 4944
tried 4944
signal 4942
claim 4940
nations 4940
vehicle 4938
dimension 4935
extend 4935
ino 4934
ological 4934
Lu@@ 4933
constantly 4932
chosen 4930
bur@@ 4927
York 4925
Business 4920
biggest 4917
spacious 4915
piece 4914
operate 4913
thereby 4910
guaranteed 4909
ancient 4907
qualified 4906
perfectly 4905
mark 4901
mm 4894
AT@@ 4892
ber 4887
Ac@@ 4886
ven@@ 4886
sis 4883
accessible 4882
Can 4881
deliver 4877
rapid 4872
surface 4870
Romania 4869
Those 4866
dedicated 4866
meters 4866
interface 4864
testing 4858
attacks 4856
sting 4855
zation 4855
causes 4849
planned 4846
ships 4846
10@@ 4845
Dis@@ 4844
recovery 4844
Minutes 4840
urge 4840
Sch@@ 4838
Environment 4834
ig@@ 4825
organization 4825
recommend 4822
diversity 4821
beaches 4820
ised 4820
stone 4816
surrounding 4814
seven 4813
um@@ 4813
valid 4813
mechanisms 4811
railway 4807
adequate 4803
explain 4803
ner 4802
nation 4801
keeping 4800
29 4798
EC@@ 4798
Click 4795
phase 4794
ade 4791
AS@@ 4790
talks 4790
AR@@ 4788
evaluation 4788
hot 4785
competence 4781
dynamic 4780
ingly 4777
saw 4775
ass@@ 4774
delay 4773
update 4771
foot 4770
sun 4770
arrival 4769
Sweden 4767
ore 4765
fuel 4762
Are 4760
alism 4760
Management 4757
consultation 4757
1997 4756
print 4756
determined 4755
Latin 4754
contents 4752
dealt 4752
category 4750
Rules 4742
disposal 4741
someone 4740
device 4739
exp@@ 4737
physical 4730
mutual 4729
aircraft 4727
examples 4725
à 4718
conduct 4714
45 4713
Austrian 4711
investments 4711
relax 4702
decades 4699
industries 4698
sanctions 4695
recognise 4689
Museum 4688
cal 4687
leads 4685
host 4684
approval 4683
identity 4683
unit 4681
object 4675
representative 4673
emphasise 4671
association 4666
treated 4665
patients 4663
Association 4662
resulting 4662
IC@@ 4661
guide 4659
brings 4652
regret 4648
System 4644
coast 4643
coffee 4639
multi 4633
shower 4633
ger 4632
id 4631
Vienna 4628
beauty 4627
registration 4626
flight 4621
tests 4621
affect 4620
discover 4619
helpful 4617
sal@@ 4616
mer@@ 4614
older 4613
waiting 4612
spread 4611
cra@@ 4609
approximately 4606
tor@@ 4602
window 4601
speakers 4600
booking 4599
existence 4596
outstanding 4594
river 4592
primarily 4590
artists 4589
highlight 4589
engine 4585
fer@@ 4584
oral 4583
remove 4580
reply 4580
trip 4578
IT@@ 4575
flow 4571
previously 4571
ER@@ 4569
orders 4569
letter 4565
lic@@ 4565
technological 4562
Tra@@ 4561
lose 4561
rejected 4557
holidays 4556
nearby 4556
liability 4552
FR 4550
gre@@ 4547
delegation 4543
Gra@@ 4542
manufacturing 4542
refugees 4541
medi@@ 4539
reception 4539
compensation 4537
attitude 4535
species 4532
spaces 4526
amongst 4524
por@@ 4524
represented 4522
improvements 4518
obligation 4518
leadership 4516
resolve 4516
bra@@ 4515
story 4515
# 4512
burden 4509
drugs 4507
participants 4504
fraud 4503
ton 4503
requested 4499
rail 4497
race 4496
Chamber 4495
smoking 4494
Center 4492
rent 4492
Federal 4491
Red 4488
driving 4486
accounts 4484
primary 4483
bl@@ 4481
faced 4479
AL@@ 4475
intention 4475
Information 4472
combating 4472
disaster 4472
tur@@ 4471
church 4469
comply 4469
title 4469
ce@@ 4468
Both 4467
standing 4467
Ber@@ 4466
knows 4464
appeal 4463
cally 4462
politicians 4462
consists 4461
von 4461
square 4460
urban 4460
smaller 4458
Energy 4453
prepare 4450
willing 4449
ano 4448
renewable 4448
firstly 4446
manufacturers 4445
affairs 4443
GDP 4439
ring 4439
substances 4438
meaning 4435
ws 4433
turned 4427
helping 4422
route 4421
significantly 4420
Programme 4419
nearly 4416
mountains 4413
Any 4410
St. 4408
fin@@ 4407
ja 4405
mobility 4405
tly 4405
ran@@ 4404
solve 4402
touch 4402
ba@@ 4399
Man@@ 4396
emphasis 4395
recognised 4395
steel 4394
notice 4393
im 4390
versions 4390
forest 4389
Great 4387
ST@@ 4387
truth 4387
relaxing 4386
suffering 4386
Per@@ 4384
entered 4384
glass 4384
books 4383
profit 4383
ths 4381
dra@@ 4380
Se@@ 4379
UN@@ 4379
serves 4379
Paper 4378
constructive 4378
controlled 4378
Despite 4377
RE@@ 4377
directives 4377
danger 4375
pri@@ 4375
peoples 4373
ely 4363
kinds 4362
14@@ 4359
Find 4358
Thanks 4357
taxes 4357
landscape 4354
&apos;ve 4352
ists 4351
tan@@ 4351
tics 4350
EN@@ 4349
Restaurant 4344
Microsoft 4343
ak 4343
Dutch 4339
satellite 4338
attractions 4337
fighting 4336
luxury 4334
involving 4333
strength 4333
Ministers 4329
exists 4329
copy 4326
marked 4324
mandate 4320
rapporteurs 4319
ori@@ 4317
register 4316
surrounded 4316
liberalisation 4315
delivered 4310
fication 4310
Euro@@ 4309
drawing 4309
med 4309
sec@@ 4308
reflect 4306
extension 4304
schools 4301
requests 4300
ES@@ 4294
respective 4293
Strategy 4290
ite 4289
involvement 4287
operators 4287
cl@@ 4286
protecting 4285
presentation 4280
arrangements 4278
fac@@ 4274
diseases 4272
fail 4272
acting 4270
Safety 4266
treaty 4265
opposed 4262
Other 4260
pleasure 4260
min@@ 4258
stations 4257
Afghanistan 4254
expectations 4254
br@@ 4250
Club 4249
default 4249
store 4249
Bar 4248
Before 4245
Software 4245
naturally 4244
tes 4244
Market 4240
finding 4237
discharge 4234
Pi@@ 4233
opposite 4233
southern 4233
wealth 4231
Charter 4230
multiple 4229
personally 4227
applicable 4225
aries 4225
AC@@ 4224
shape 4224
dri@@ 4223
IS@@ 4221
debates 4218
repeat 4218
photos 4215
Ab@@ 4213
criticism 4212
whatever 4210
millions 4204
error 4200
van 4198
advantages 4194
ched 4193
felt 4193
launched 4193
hand@@ 4192
not@@ 4192
1996 4191
gets 4190
feeling 4189
mid 4188
happens 4187
Sp@@ 4182
hostels 4181
ined 4181
ster 4181
To@@ 4180
expertise 4180
lake 4177
author 4175
length 4175
sha@@ 4174
holding 4170
Private 4166
producing 4166
happening 4162
NATO 4159
Or@@ 4159
ff@@ 4159
figure 4157
wait 4157
32 4153
equally 4152
ian 4152
ended 4151
@ 4150
officials 4147
heavy 4145
Mor@@ 4142
latter 4140
defend 4138
eight 4138
confirmed 4136
mode 4136
whilst 4136
No@@ 4134
texts 4132
Located 4131
appreciate 4130
Home 4127
contemporary 4126
down@@ 4126
resolutions 4125
Swedish 4119
club 4119
MEPs 4118
cks 4118
ought 4118
covers 4117
ye 4117
Sa@@ 4116
constant 4110
parliaments 4110
reaching 4110
ur 4110
Rome 4109
opinions 4109
Bi@@ 4108
temporary 4108
pen@@ 4104
contributions 4101
restrictions 4099
bath 4097
berg 4097
fruit 4097
proof 4097
ff 4094
bars 4092
experiences 4092
om 4090
sell 4087
centres 4085
Instead 4081
regulatory 4080
recommendation 4079
furnished 4077
awareness 4076
tim@@ 4074
Ladies 4070
collective 4070
amounts 4068
strategies 4067
onto 4064
expensive 4063
ini 4063
determine 4060
Financial 4059
au 4057
browser 4056
eye 4056
valuable 4055
gender 4053
websites 4052
quick 4050
passengers 4049
2020 4048
fit 4047
skin 4047
healthy 4046
sol@@ 4046
units 4046
requirement 4045
yes 4043
bro@@ 4042
ker 4039
locations 4039
tical 4039
plus 4038
Control 4037
prove 4037
relatively 4032
radio 4031
Monetary 4028
handling 4023
intend 4021
back@@ 4018
increases 4017
define 4016
75 4014
DVD 4014
e.g. 4013
Cyprus 4010
Two 4007
Grand 4004
Note 4004
buffet 4004
sted 4002
largely 4001
ved 4001
SMEs 4000
conflicts 3999
involve 3999
president 3992
continent 3991
helps 3991
contracts 3989
Si@@ 3987
waters 3986
Go@@ 3985
runs 3985
inv@@ 3984
engineering 3982
Britain 3978
privacy 3978
sexual 3978
Company 3977
stra@@ 3975
i.e. 3974
Mi@@ 3973
Rule 3973
articles 3973
exclusively 3973
fill 3972
except 3970
audio 3965
uni@@ 3965
í@@ 3964
ars 3963
na 3963
sold 3957
els 3956
facilitate 3955
Bulgaria 3948
moved 3945
Croatia 3943
Where 3943
minority 3943
IP 3942
cing 3938
operational 3936
ethnic 3933
ou 3932
preparation 3931
head@@ 3929
alisation 3927
ther@@ 3927
Tri@@ 3926
du 3923
For@@ 3921
gar@@ 3920
automatic 3919
chain 3919
recommended 3919
precise 3918
obtained 3914
Alliance 3913
mu@@ 3913
volume 3913
cycle 3912
che 3910
Lake 3909
issued 3907
effectiveness 3906
Roma 3901
resi@@ 3900
ear@@ 3899
suite 3899
fe@@ 3897
water@@ 3897
meat 3893
removed 3893
welfare 3893
identify 3889
Lord 3887
charges 3887
discovered 3886
judicial 3886
sto@@ 3886
subsidies 3886
ement 3883
communications 3882
ei@@ 3880
golf 3878
terrorist 3878
jo@@ 3876
ve@@ 3875
gone 3874
worse 3872
cies 3871
fu@@ 3869
vel@@ 3867
trafficking 3862
grateful 3858
ering 3855
customs 3854
work@@ 3854
Last 3847
helped 3847
depends 3846
objects 3846
soft 3845
assist 3843
destination 3841
Luxembourg 3837
™ 3836
her@@ 3834
Ni@@ 3832
named 3830
Google 3829
glad 3828
confirm 3826
facts 3826
cal@@ 3825
migration 3824
Check 3822
grant 3821
understood 3819
spring 3818
tru@@ 3817
CO@@ 3816
functioning 3813
pollution 3813
creates 3812
massive 3811
occasion 3810
proved 3810
carbon 3809
elling 3807
declaration 3806
output 3806
wed 3805
Israeli 3803
creative 3803
seeing 3802
alised 3801
imposed 3801
organizations 3801
emergency 3796
exceptional 3796
maintained 3796
Enjoy 3794
cutting 3794
submit 3790
committees 3789
cheap 3788
cul@@ 3787
ft 3783
corruption 3781
spa 3781
Amendments 3780
launch 3779
impression 3776
ultimately 3775
Cal@@ 3774
fy 3772
reserves 3772
Pact 3771
eyes 3770
OS 3769
acy 3769
block 3769
cent 3765
command 3765
remaining 3764
ically 3763
Schengen 3760
reserve 3756
offices 3755
ann@@ 3754
looks 3753
perform 3753
pping 3748
ro 3744
wind 3744
reject 3743
visa 3742
electricity 3739
statistics 3739
RO@@ 3738
Foundation 3736
ron@@ 3736
counter 3735
delighted 3735
leaving 3734
parents 3733
universal 3732
characteristics 3730
° 3730
j 3728
ours 3728
Institute 3726
Art 3725
Procedure 3724
bilateral 3723
98 3721
Col@@ 3721
Villa 3721
justified 3720
temperature 3720
ced 3719
focused 3719
trees 3719
hundreds 3718
ports 3717
ward 3717
Applause 3714
minorities 3713
oc@@ 3713
topic 3713
Ba@@ 3708
ral 3707
and@@ 3706
Korea 3705
conducted 3703
demonstrate 3703
investors 3703
deals 3701
Book 3700
met@@ 3700
dly 3699
password 3699
Take 3695
Use 3695
Arab 3693
Gi@@ 3691
friend 3687
divided 3685
demanding 3684
answers 3682
Breakfast 3680
we@@ 3680
demonstrated 3679
poli@@ 3679
Over 3676
marks 3674
abroad 3673
somewhat 3673
extreme 3672
visible 3671
Question 3670
Under 3670
PT 3668
streets 3668
stri@@ 3668
EL@@ 3667
absolute 3666
adopting 3665
ends 3665
Funds 3663
Munich 3661
lay 3660
noted 3659
6.@@ 3657
ration 3657
boat 3656
mann 3653
tackle 3653
determination 3652
za 3652
connections 3651
compatible 3650
crimes 3648
museum 3648
maintaining 3647
are@@ 3646
taste 3646
Polish 3645
convenient 3645
residence 3645
strict 3644
ching 3640
ots 3640
asing 3636
credibility 3636
blue 3634
01 3633
hit 3633
Time 3630
ery 3630
immigrants 3629
proud 3628
3.@@ 3627
transition 3627
-- 3626
Portuguese 3625
phrase 3625
vast 3624
charming 3623
follows 3622
involves 3622
subsidiarity 3620
concluded 3619
speaker 3619
actively 3618
bri@@ 3618
bedroom 3614
impressive 3614
Her@@ 3609
constitutional 3608
regularly 3606
Qu@@ 3605
blood 3602
ged 3602
atic 3601
respected 3600
4.@@ 3599
grow 3599
globalisation 3597
journey 3596
dishes 3594
watch 3593
ang 3592
IS 3590
pension 3589
bre@@ 3588
Belarus 3581
intellectual 3581
ek 3580
ongoing 3580
Structural 3579
faster 3578
indicated 3578
satisfied 3578
taxation 3576
legitimate 3572
messages 3572
Copenhagen 3571
load 3571
signs 3571
competent 3566
Their 3565
feed 3565
Given 3562
citizen 3560
hardware 3559
So@@ 3557
1995 3554
Best 3550
edge 3550
wall 3548
conditioning 3547
ess@@ 3547
dates 3546
displayed 3545
firms 3545
Perhaps 3544
finished 3544
doors 3541
noise 3541
plenary 3540
Brazil 3539
Hotels 3539
PL 3539
organized 3535
overcome 3534
ID 3533
heritage 3533
all@@ 3531
chemical 3531
colour 3530
careful 3528
flat 3528
13@@ 3526
contacts 3525
declared 3525
je@@ 3519
roads 3519
east 3516
stronger 3516
Baltic 3515
furniture 3515
couple 3513
ill@@ 3512
multi@@ 3512
tr@@ 3512
emerging 3507
Nice 3506
ures 3506
Costa 3505
dec@@ 3505
eu@@ 3503
encouraging 3502
El@@ 3500
row 3500
dependent 3497
99 3496
5.@@ 3495
White 3495
accompanied 3494
Vice 3493
cold 3493
sm@@ 3493
assets 3491
frequently 3490
inclusion 3488
tional 3486
scheme 3481
fies 3478
Frankfurt 3476
Protection 3472
definitely 3472
familiar 3472
entertainment 3471
lets 3471
los 3471
tested 3471
meant 3470
spoken 3468
brief 3467
Thirdly 3466
ple@@ 3466
Can@@ 3464
Do@@ 3464
the@@ 3462
Japanese 3461
vers 3461
je 3460
ular 3459
pieces 3458
earth 3457
license 3455
proposing 3455
collaboration 3454
loc@@ 3454
400 3452
printing 3452
occasions 3451
inflation 3450
band 3447
lists 3447
possibly 3447
raw 3447
deficit 3446
newly 3446
proposes 3444
cable 3443
30@@ 3442
constitution 3441
ach@@ 3440
ó@@ 3439
seat 3438
23@@ 3436
eastern 3436
showing 3432
app@@ 3431
ir 3431
assume 3429
passenger 3427
owners 3425
died 3421
profile 3421
contrast 3419
bound 3415
doesn 3415
outdoor 3415
destruction 3414
drug 3413
joined 3413
afternoon 3412
reported 3412
resolved 3412
ell@@ 3411
impose 3411
leisure 3411
correctly 3410
apart 3408
sky 3407
flo@@ 3405
tures 3404
Pa@@ 3403
decisive 3403
settings 3403
cap@@ 3402
prefer 3401
depth 3398
Le 3397
clo@@ 3397
examine 3397
Belgium 3396
configuration 3394
regarded 3394
Am@@ 3391
our@@ 3391
bs 3390
satisfaction 3390
vulnerable 3389
Nos 3388
listen 3388
Canada 3384
drivers 3383
lasting 3383
air@@ 3382
bottom 3382
mor@@ 3382
depending 3380
provider 3380
updated 3379
150 3378
ser@@ 3378
Non 3377
em 3377
resistance 3377
ty@@ 3377
partly 3372
vol@@ 3372
ACP 3371
Yes 3371
desired 3371
properties 3371
hin@@ 3370
Action 3368
2011 3367
ga@@ 3367
invite 3367
fee 3366
land@@ 3366
Get 3365
driver 3365
ory 3365
library 3363
occur 3362
presents 3362
zz@@ 3362
rapidly 3361
documentation 3360
preparing 3360
Day 3358
tours 3358
Soviet 3357
log 3356
Fi@@ 3354
behaviour 3352
AD@@ 3348
starts 3347
transactions 3347
fil@@ 3345
settlement 3343
SP@@ 3340
dining 3340
Hungary 3339
ya 3339
tic@@ 3338
father 3336
ming 3336
95 3335
Data 3335
dinner 3335
tobacco 3332
Bu@@ 3330
cking 3330
expert 3330
oriented 3330
argument 3329
counter@@ 3329
bedrooms 3328
west 3328
returned 3327
widely 3326
interpretation 3325
ising 3325
maritime 3324
voluntary 3321
Whether 3320
Pakistan 3316
identified 3316
foundation 3315
cuts 3314
Kar@@ 3313
remote 3313
shares 3311
heating 3310
Framework 3309
generated 3308
channels 3307
northern 3307
12@@ 3306
Welcome 3306
sight 3303
nevertheless 3302
techniques 3302
THE 3299
percent 3299
woman 3298
award 3297
spot 3297
appointed 3296
excessive 3295
weather 3295
classic 3294
metal 3294
expansion 3293
sugar 3293
assure 3292
educational 3290
fre@@ 3287
stored 3285
owner 3284
duties 3283
applying 3281
replace 3281
visited 3281
sen 3279
freedoms 3276
walls 3276
absence 3273
mp@@ 3273
performed 3273
forum 3272
puts 3272
considering 3268
copyright 3267
corresponding 3266
dan@@ 3264
MS 3263
bly 3263
Desk 3262
Rec@@ 3261
inhabitants 3261
sian 3261
tion@@ 3261
containing 3260
quarter 3260
Ho@@ 3259
He@@ 3258
exports 3258
employed 3256
harmonisation 3254
Assembly 3253
Sh@@ 3253
Women 3253
distributed 3253
housing 3253
personnel 3252
banking 3251
com 3251
ein 3251
substance 3251
surroundings 3251
abuse 3247
saving 3247
transportation 3247
cat@@ 3244
gs 3244
suffer 3244
ast 3243
ay 3243
Agriculture 3239
suppliers 3239
Open 3238
elsewhere 3237
Well 3235
che@@ 3235
formed 3235
proceed 3235
amp@@ 3233
Hungarian 3232
syn@@ 3232
politically 3231
pursue 3231
Without 3230
Bush 3229
fashion 3229
ant@@ 3228
1,@@ 3227
flights 3226
arrive 3224
LE@@ 3223
mer 3223
alization 3222
ko@@ 3222
heat 3221
p.m. 3221
VAT 3219
97 3218
Saint 3218
El 3217
Legal 3217
Report 3215
ending 3215
solely 3214
imports 3213
La@@ 3212
manufacturer 3212
milk 3212
sending 3211
master 3209
COM 3207
Star 3207
invest 3205
mat@@ 3205
Mexico 3204
enhance 3204
representation 3203
² 3203
De 3201
component 3201
sharing 3201
blog 3200
prosperity 3200
wines 3200
wn 3200
providers 3199
wonder 3198
courts 3197
farm 3197
Square 3196
sta@@ 3196
exception 3195
exciting 3193
EL 3192
Will 3192
carrying 3192
realistic 3192
negotiating 3191
John 3190
das 3190
stance 3190
ticket 3187
ju@@ 3186
western 3185
Friday 3184
sum 3183
arguments 3182
complicated 3182
pped 3182
az@@ 3181
hor@@ 3181
intensive 3181
solid 3181
islands 3180
mostly 3180
valley 3179
ency 3178
extraordinary 3176
gener@@ 3175
channel 3174
falls 3174
pla@@ 3174
Auditors 3173
savings 3173
Following 3172
char@@ 3170
7.@@ 3169
CO2 3169
Station 3168
castle 3168
star@@ 3167
division 3165
moral 3165
patent 3165
referendum 3163
usual 3163
val@@ 3163
drink 3162
plays 3162
cy@@ 3161
Mal@@ 3160
gold 3160
cooperate 3159
Air 3156
Barroso 3156
pose 3156
replaced 3155
equ@@ 3153
farming 3153
iz@@ 3153
ns 3152
allocated 3151
fantastic 3150
fla@@ 3149
frame 3149
sauna 3149
surely 3149
match 3146
Second 3145
Northern 3144
Thursday 3144
men@@ 3143
count 3142
ss 3141
Special 3140
Stability 3139
ordinary 3136
ah 3134
functional 3134
army 3132
zi@@ 3131
bul@@ 3130
youth 3130
Transport 3128
Page 3125
Socialist 3125
Strasbourg 3124
difficulty 3121
renovated 3121
pe 3119
Description 3118
aged 3117
ght 3117
united 3116
ca@@ 3115
career 3115
professionals 3115
proven 3115
domain 3114
96 3113
ensures 3113
labelling 3112
Prague 3110
gri@@ 3106
constitute 3105
secret 3105
fulfil 3104
awarded 3103
recorded 3103
safeguard 3103
Shi@@ 3102
generate 3102
packaging 3102
trend 3101
Within 3100
ss@@ 3100
.... 3098
Du@@ 3098
forthcoming 3098
gy 3097
succeed 3097
supplies 3096
formal 3095
mother 3095
relaxation 3095
rising 3094
http 3093
necessarily 3093
significance 3090
tel@@ 3089
facility 3088
greatly 3085
pu@@ 3085
addresses 3083
thousand 3083
ach 3082
depend 3081
proceedings 3081
trial 3081
Palace 3080
Q 3078
concepts 3076
Spa 3074
societies 3074
consent 3072
ens@@ 3070
Dr. 3068
legally 3068
sa 3068
Madrid 3067
enabled 3066
cri@@ 3064
tickets 3064
updates 3062
forests 3061
promised 3061
Street 3059
balcony 3059
battle 3059
audi@@ 3058
def@@ 3058
department 3057
af@@ 3055
ational 3054
introducing 3053
hom@@ 3052
subjects 3051
Design 3050
preventing 3050
obliged 3049
slow 3049
str@@ 3048
hall 3046
attempts 3045
lie 3043
revision 3043
nu@@ 3042
theme 3039
enabling 3038
lessons 3038
supervision 3038
EADS 3037
Sal@@ 3037
artist 3037
suggestions 3037
Ver@@ 3035
hair 3035
Facilities 3034
firmly 3034
Har@@ 3033
explore 3033
48 3030
hundred 3029
suites 3028
specified 3026
spoke 3026
Egypt 3025
Serbia 3025
Tip 3025
suggested 3025
barriers 3024
dic@@ 3024
Code 3023
ISO 3020
Secretary 3020
comparison 3018
Commissioners 3017
del@@ 3017
fra@@ 3017
ture 3017
cash 3016
decorated 3016
exit 3016
EN 3015
micro@@ 3013
routes 3013
disasters 3012
fore@@ 3012
OR@@ 3011
sought 3011
adults 3010
ella 3010
swe@@ 3008
tro@@ 3008
exploitation 3007
PPE 3005
bridge 3005
owned 3005
towns 3003
raising 3000
realise 3000
con 2999
corner 2999
directory 2999
straight 2999
anti@@ 2997
pr@@ 2997
exclusion 2996
pres@@ 2994
religion 2994
endorse 2993
slightly 2993
interior 2992
stocks 2991
paying 2986
sel@@ 2986
sustainability 2985
2013 2984
Au@@ 2984
accurate 2983
ishing 2983
Ru@@ 2982
ales 2982
beings 2982
coordinated 2982
qui@@ 2982
directed 2981
ill 2981
obstacles 2981
tourists 2981
ame 2980
receiving 2980
disabled 2977
ine@@ 2977
cru@@ 2976
visiting 2975
dignity 2974
fitness 2974
soci@@ 2974
supplier 2974
traditions 2973
welcomed 2971
ric 2970
ECB 2969
cia 2969
topics 2969
arise 2967
AL 2966
Americans 2966
import 2966
remarks 2965
sters 2964
weak 2962
Ra@@ 2960
undoubtedly 2959
ministers 2956
violations 2954
pers 2953
refers 2953
periods 2951
ECU 2950
Very 2950
hu@@ 2949
nights 2949
shipping 2949
Old 2948
Technology 2948
ining 2948
sation 2948
diverse 2947
Enterprise 2945
Having 2944
gained 2944
armed 2942
disk 2940
module 2940
cast 2939
sovereignty 2939
Finland 2938
Balkans 2937
33 2936
Atlantic 2936
ley 2936
reservations 2934
und@@ 2933
input 2932
ls 2931
ser 2930
university 2930
contributed 2927
electric 2924
programming 2924
resource 2924
Gar@@ 2923
investigation 2923
virtual 2923
adapt 2922
notes 2922
1st 2921
ll 2921
cosy 2919
vacation 2918
clause 2917
permitted 2917
wider 2917
Guests 2916
Or 2915
US@@ 2915
suffered 2915
Roman 2914
zes 2913
lat@@ 2910
invited 2909
penalty 2909
restricted 2909
productive 2908
Chi@@ 2907
supposed 2907
approve 2906
sch@@ 2905
Like 2904
Agenda 2903
tically 2903
windows 2903
IM@@ 2901
centuries 2901
believes 2900
cont@@ 2900
web@@ 2899
drop 2897
lounge 2897
whereas 2895
1990 2891
Islamic 2891
rep@@ 2890
sheet 2890
entrance 2889
rock 2889
River 2888
ads 2887
ara 2887
everyday 2886
Church 2885
parliament 2885
Z 2884
une 2881
alized 2880
productivity 2875
scene 2875
treat 2874
Media 2873
motor 2873
finish 2872
label 2871
Bal@@ 2870
assess 2870
ben@@ 2870
explained 2867
patient 2865
Comp@@ 2864
Tor@@ 2864
sphere 2864
stylish 2864
faith 2863
estimated 2861
winning 2861
welcomes 2860
optim@@ 2859
gap 2857
3D 2855
reflected 2855
Bor@@ 2854
atory 2852
Cre@@ 2850
blo@@ 2850
elled 2850
restructuring 2850
artistic 2849
selling 2849
64 2848
Ju@@ 2847
leaves 2846
wor@@ 2846
gardens 2845
eventually 2844
yed 2844
hardly 2843
isation 2843
post@@ 2843
turning 2843
Monday 2842
enhanced 2842
ion 2842
08 2841
strengthened 2841
flows 2840
courage 2839
filled 2839
appropriations 2838
philosophy 2838
vessels 2838
conc@@ 2836
spectacular 2836
Cam@@ 2835
severe 2834
See 2833
Food 2832
fourth 2832
twenty 2832
van@@ 2832
continuous 2831
fishermen 2831
hearing 2830
losses 2828
indicate 2827
34 2826
overview 2826
Organisation 2825
pp@@ 2825
regardless 2825
planet 2824
theory 2824
1994 2823
protocol 2823
Besides 2822
PHP 2821
undertaken 2821
missing 2817
Does 2816
therapy 2816
• 2816
everybody 2815
movements 2815
imagine 2813
ado 2812
considerably 2811
roll 2809
gallery 2808
inn@@ 2807
plenty 2807
CAP 2804
ING 2803
magnificent 2803
enterprise 2802
MP@@ 2801
teams 2801
Year 2800
description 2800
excluded 2800
parameters 2800
sun@@ 2800
&apos;m 2799
Act 2799
ire 2799
pillar 2799
publication 2799
lift 2797
ok@@ 2797
specialist 2797
ov@@ 2796
wrote 2796
Congress 2795
ern@@ 2795
alist 2792
š@@ 2792
IN 2791
od@@ 2788
covering 2787
wear 2787
reflects 2786
checks 2784
MO@@ 2783
id@@ 2780
modules 2780
recognized 2780
acceptance 2779
gli@@ 2778
handle 2778
acknowledge 2777
concentrate 2776
mini 2775
Comm@@ 2773
cells 2773
Regional 2772
bike 2772
listings 2771
sensible 2770
ited 2769
shadow 2769
09 2768
rental 2768
worthy 2768
renowned 2767
sections 2766
NGOs 2765
dream 2765
colours 2764
dness 2764
gr@@ 2764
worst 2763
cancer 2761
departure 2760
none 2760
functionality 2759
weekend 2759
ping 2758
tables 2758
Ombudsman 2757
prime 2757
bio@@ 2756
organic 2756
root 2756
ered 2755
errors 2755
album 2754
aside 2754
lots 2754
mix 2753
reconstruction 2753
reaction 2752
Santa 2748
managing 2748
Asian 2746
films 2744
intends 2744
Georgia 2742
Me@@ 2742
budgets 2742
Obama 2738
connect 2738
fly 2738
ell 2735
restore 2735
sm 2735
Through 2734
generations 2734
tree 2734
Jo@@ 2733
rely 2733
accident 2732
homes 2731
instructions 2731
gen 2730
si 2730
targeted 2730
Geneva 2729
acted 2729
liber@@ 2727
Mer@@ 2726
Ne@@ 2725
Global 2724
pra@@ 2724
ize 2723
36 2722
A5 2722
Site 2722
urgently 2722
55 2721
Sunday 2721
confirmation 2720
ased 2717
freely 2717
sufficiently 2716
Law 2715
Tourism 2715
aff@@ 2715
profits 2713
Ste@@ 2711
RA@@ 2710
countryside 2710
threats 2710
ON 2708
liberal 2706
decade 2705
Budgets 2704
fairly 2703
mental 2703
roots 2703
transmission 2703
Lastly 2702
ranging 2702
sion@@ 2702
fleet 2701
killed 2701
ulation 2698
USB 2695
bor@@ 2695
driven 2694
Should 2693
saved 2693
xes 2692
destroyed 2689
ences 2689
ination 2689
prospects 2689
deposit 2688
proportion 2688
tation 2688
adapted 2686
Val@@ 2684
ong 2684
relates 2684
skiing 2681
07 2680
Consequently 2675
ah@@ 2673
neighbouring 2672
Cas@@ 2671
coherent 2671
universities 2671
logical 2670
Bra@@ 2669
internationally 2669
arising 2666
clubs 2666
ger@@ 2666
wards 2666
kernel 2665
promise 2664
Ta@@ 2663
cent@@ 2660
Dra@@ 2659
deeply 2659
showed 2658
territorial 2657
nine 2656
Who 2655
pm 2655
Protocol 2654
heading 2653
ki 2653
ki@@ 2652
Ti@@ 2651
presenting 2651
conventional 2650
fa@@ 2649
highlighted 2649
hostel 2649
pal@@ 2649
Consumer 2647
Treaties 2647
collected 2647
subsequent 2647
U.S. 2646
una 2646
Black 2645
birth 2645
combine 2645
pan@@ 2644
sole 2644
manager 2639
AM@@ 2638
Express 2638
wo@@ 2638
Culture 2635
9.@@ 2634
burg 2634
Belgian 2633
Br@@ 2632
dead 2632
ash@@ 2631
pun@@ 2631
8.@@ 2630
quotas 2630
600 2629
rare 2629
War@@ 2628
belong 2627
briefly 2627
convergence 2627
contextual 2626
eh@@ 2626
assembly 2625
gro@@ 2625
reliability 2625
ished 2624
England 2623
ecological 2623
miles 2623
ation@@ 2622
kers 2621
layer 2621
Notes 2619
ately 2619
villages 2619
trends 2616
cleaning 2615
considers 2615
football 2615
ware 2611
stages 2610
Ko@@ 2609
diplomatic 2609
pro 2609
tou@@ 2609
luxurious 2608
Mac@@ 2607
Constitutional 2606
forth 2606
decline 2605
supplied 2605
referring 2604
stars 2604
Denmark 2603
mit 2603
parallel 2603
processed 2603
upper 2603
oning 2602
consulting 2601
honour 2601
Systems 2600
800 2599
cultures 2599
fees 2598
Online 2597
insist 2597
phenomenon 2597
boot 2596
looked 2596
shi@@ 2596
lau@@ 2595
speci@@ 2595
ona 2594
PDF 2593
drinks 2593
learned 2593
lovely 2593
pure 2593
characters 2592
ey 2591
geographical 2591
lin 2591
massage 2591
pos@@ 2591
appeared 2590
ga 2590
remained 2590
Festival 2589
Pal@@ 2589
poses 2589
classes 2587
thermal 2587
transferred 2587
aci@@ 2585
affects 2584
prisoners 2583
pul@@ 2583
37 2582
belief 2582
essentially 2581
joining 2581
clarify 2579
push 2579
missions 2577
LA@@ 2576
ease 2575
funded 2575
imp@@ 2575
mistake 2575
stat@@ 2574
struggle 2573
Inn 2571
efficiently 2571
Executive 2568
equivalent 2568
SA@@ 2567
cked 2567
serving 2567
pat@@ 2566
favourable 2565
minister 2565
secondly 2562
chair 2561
ared 2560
eng@@ 2559
hill 2558
Bri@@ 2557
consequence 2557
ub@@ 2557
Front 2556
adds 2556
ables 2555
ada 2555
female 2554
seeks 2552
Plan 2551
Situated 2551
Fi 2550
ba 2549
lands 2549
Fundamental 2548
Wi 2548
arrived 2548
Hamburg 2545
originally 2545
ha 2544
abilities 2543
meaningfully 2543
Wi@@ 2542
accidents 2540
ect 2540
satisfy 2540
engaged 2539
trac@@ 2539
Prodi 2538
shift 2537
ti 2537
environmentally 2536
highlights 2536
uniform 2536
Education 2535
candidates 2535
MA@@ 2533
--@@ 2532
len@@ 2532
engage 2531
portfolio 2531
ride 2530
Cooperation 2529
enti@@ 2529
tennis 2529
computers 2528
rel@@ 2528
succeeded 2527
achievement 2526
appearance 2526
occurred 2526
warning 2526
eri@@ 2525
guided 2525
operates 2525
sounds 2525
int 2524
lived 2523
ome 2523
willingness 2521
AS 2520
ning 2517
aviation 2516
spec@@ 2516
shed 2515
sou@@ 2514
tively 2514
vit@@ 2514
lock 2513
CH@@ 2512
Card 2510
integrate 2510
manufacture 2510
Smoking 2509
á 2509
ster@@ 2508
wal@@ 2508
Im@@ 2507
bers 2507
Real 2506
Mu@@ 2505
harmful 2505
incorporated 2504
sit 2504
contextually 2503
lan@@ 2503
grammatically 2502
49 2501
Royal 2500
encouraged 2500
director 2499
execution 2498
anniversary 2496
pressing 2496
Island 2494
symbol 2494
compulsory 2493
ratification 2493
amended 2492
IMF 2491
printed 2491
unforgettable 2491
für 2490
42 2489
TH@@ 2489
holds 2489
III 2488
unfair 2488
regulated 2487
preserve 2485
attached 2484
wage 2483
euros 2481
Hu@@ 2480
widespread 2479
ban@@ 2478
User 2477
damages 2477
lunch 2477
Tour 2476
trips 2476
Beach 2475
entering 2475
implications 2475
reserved 2475
enjoyed 2474
purely 2474
tre@@ 2474
Fisheries 2473
dr@@ 2473
festival 2473
wellness 2473
43 2472
crises 2472
zu 2472
compact 2471
videos 2471
Town 2470
adding 2470
revenue 2470
boost 2468
insi@@ 2468
tend 2468
Char@@ 2467
negotiation 2467
non@@ 2465
ke@@ 2464
dies 2462
dollar 2462
bearing 2461
causing 2459
chairman 2459
snow 2459
stake 2458
utmost 2458
Kyoto 2457
Pri@@ 2457
individually 2457
resulted 2456
ek@@ 2455
poorest 2455
equi@@ 2453
edi@@ 2452
governing 2452
scientists 2451
Industry 2450
cas@@ 2450
Box 2449
explanation 2448
ghts 2448
switch 2448
alcohol 2447
associations 2447
delicious 2447
1992 2446
AND 2446
enforcement 2446
ID@@ 2444
heads 2444
tered 2444
produces 2443
Venice 2442
strictly 2442
Tre@@ 2441
quote 2441
Danish 2440
grown 2440
travelling 2438
sum@@ 2437
Peter 2436
cle@@ 2436
collect 2436
multilateral 2435
reporting 2435
suit 2435
hum@@ 2434
extending 2432
graphic 2432
Director 2431
ET@@ 2431
dark 2431
ins@@ 2431
unity 2431
Employment 2430
info 2429
virtually 2429
UR@@ 2428
Te@@ 2427
designs 2427
dry 2426
normally 2426
fans 2425
Bre@@ 2424
dispute 2424
hopes 2423
panel 2423
eat 2422
anywhere 2421
factory 2421
ko 2421
radical 2421
relative 2421
Nor@@ 2420
executive 2419
ini@@ 2419
promises 2418
24@@ 2417
DA@@ 2417
airports 2416
prison 2416
sia 2416
stream 2415
King 2414
Min@@ 2414
50@@ 2413
Saturday 2413
gers 2413
legitimacy 2413
hal@@ 2412
sex 2412
ment@@ 2411
incentives 2410
spite 2410
CA@@ 2408
IA 2407
agents 2407
cious 2406
aling 2405
medicines 2405
toward 2404
whereby 2404
Common 2403
School 2403
Sub@@ 2403
meets 2403
schemes 2402
Earth 2401
liable 2401
\ 2400
conciliation 2400
satisfactory 2400
codecision 2399
tea 2399
min 2398
Pas@@ 2397
gradually 2397
servers 2397
operated 2395
pick 2395
cell 2394
Exchange 2392
airlines 2392
wireless 2392
with@@ 2392
everywhere 2391
iled 2391
percentage 2391
sup@@ 2391
chi@@ 2389
addressing 2388
convention 2388
Christmas 2387
formats 2387
museums 2387
aging 2386
neighbours 2386
operator 2386
violation 2385
urgency 2383
Intergovernmental 2382
ai 2382
25@@ 2381
plastic 2381
Server 2380
mel@@ 2379
utili@@ 2379
vis 2379
ata 2378
observed 2377
recognize 2377
participating 2375
38 2374
las 2373
troops 2373
Tur@@ 2372
musical 2372
Among 2370
coun@@ 2370
debating 2370
65 2369
ai@@ 2369
zer 2368
Indian 2367
expense 2367
Er@@ 2366
edited 2365
Michael 2364
Federation 2363
Sk@@ 2363
custom@@ 2363
uri@@ 2362
choices 2361
foot@@ 2361
At@@ 2360
Family 2360
Paul 2360
ordered 2359
specialists 2359
catch 2358
eliminate 2358
Vo@@ 2357
marine 2356
rating 2356
Australia 2355
Fo@@ 2355
acquired 2355
dict@@ 2355
Ser@@ 2354
constitutes 2354
ste 2354
alongside 2353
bit@@ 2353
passing 2353
soil 2353
tal 2353
treatments 2353
ato 2352
poly@@ 2349
restored 2348
makers 2346
02 2345
Civil 2345
surprised 2344
DI@@ 2343
Internal 2343
begins 2343
edition 2343
evident 2343
OF 2342
genuinely 2342
index 2342
PR@@ 2341
financed 2341
graphics 2341
my@@ 2341
script 2341
85 2340
stabili@@ 2338
Subject 2337
cher 2337
moreover 2337
Authority 2336
gn@@ 2336
lia 2335
surprise 2335
Customer 2334
timetable 2334
PL@@ 2333
Vol@@ 2333
retain 2331
sli@@ 2331
Islands 2330
narrow 2330
bas@@ 2329
solar 2329
200@@ 2328
Cuba 2327
LO@@ 2327
arian 2327
ex 2327
seconds 2327
producer 2326
victory 2325
ress 2324
06 2323
ay@@ 2322
condemn 2322
ands 2321
miss 2320
amed 2319
guaranteeing 2319
hospitality 2319
Nor 2318
deserves 2318
engines 2318
repeated 2318
emb@@ 2317
ulate 2317
03 2316
Would 2316
labor 2315
letters 2315
inadequate 2313
organise 2313
varied 2313
Lin@@ 2309
Deutsche 2308
Using 2308
movie 2308
sand 2308
chapter 2307
floors 2307
Mr. 2306
Fe@@ 2305
read@@ 2304
Good 2303
SE@@ 2303
permit 2303
Based 2302
teaching 2302
cer@@ 2301
romantic 2301
twice 2301
yer 2301
Resort 2300
openness 2300
welcoming 2300
Gro@@ 2299
Next 2299
desk 2299
eli@@ 2299
mere 2299
considerations 2298
studio 2297
conf@@ 2296
shot 2296
Manager 2295
itable 2293
Valley 2292
approaches 2292
tracks 2292
vice 2292
Slovakia 2291
reputation 2291
ane 2290
Dublin 2289
accounting 2289
alities 2289
mouse 2289
Music 2288
amending 2287
External 2285
Golf 2285
NL 2284
emp@@ 2284
seats 2283
songs 2283
usage 2283
composition 2281
uted 2281
cell@@ 2280
economically 2280
ie@@ 2280
kilometres 2279
speeches 2279
Further 2278
ink 2276
m2 2276
repair 2276
ash 2275
desirable 2275
intentions 2275
olive 2274
bal@@ 2273
Casino 2271
capabilities 2271
foundations 2271
records 2270
Bay 2269
filter 2269
relationships 2269
fewer 2268
Martin 2267
ON@@ 2267
ED 2265
cho@@ 2265
val 2265
Meeting 2264
eurozone 2264
stic 2264
Ap@@ 2263
Dec@@ 2263
attend 2263
concentration 2263
inspired 2262
medicine 2262
39 2261
province 2261
scheduled 2260
campaigns 2259
intelligent 2258
mine 2258
sh 2258
teachers 2258
Forum 2257
faces 2257
foremost 2257
exact 2256
forming 2256
manual 2256
bonus 2255
sively 2255
.00 2254
blocks 2253
motor@@ 2253
unnecessary 2253
Acc@@ 2251
combines 2251
tragic 2251
wild 2251
ball 2250
fle@@ 2250
iling 2250
lar@@ 2250
prize 2250
developers 2249
hiking 2249
panoramic 2249
picturesque 2249
repeatedly 2249
visual 2248
examined 2247
song 2247
Sec@@ 2245
TO 2245
conferences 2244
dol@@ 2244
Heads 2243
View 2243
ises 2243
kes 2243
underground 2243
thorough 2242
alists 2241
journalists 2241
stuff 2240
Palestinians 2239
commit 2238
bel@@ 2237
completion 2237
Fl@@ 2236
Bel@@ 2235
sophisticated 2235
Muslim 2232
ol 2232
opens 2232
IL@@ 2231
importantly 2231
occupation 2231
shortly 2231
hon@@ 2229
inf@@ 2229
respects 2229
oni@@ 2228
Ben@@ 2227
Op@@ 2227
amenities 2227
stick 2227
examination 2226
vely 2225
Bosnia 2224
pensions 2224
phones 2224
ries 2224
federal 2223
sights 2223
withdraw 2223
actors 2221
Hall 2220
gl@@ 2220
sorry 2220
Morocco 2217
Pro 2216
mouth 2213
19th 2212
arch@@ 2212
ethical 2212
horse 2212
ica 2212
mal@@ 2212
tragedy 2212
communicate 2211
jointly 2211
magazine 2211
appointment 2210
signing 2210
Gal@@ 2209
Java 2209
sible 2208
expand 2206
underlying 2206
student 2205
cker 2204
riding 2204
Chairman 2203
JavaScript 2203
cm 2203
RO 2202
Ci@@ 2201
empty 2201
s.@@ 2201
hence 2200
ownership 2199
1993 2198
28@@ 2198
pretty 2198
clarity 2197
exposed 2197
wh@@ 2197
yn@@ 2197
inner 2196
kl@@ 2196
bes 2195
custom 2195
USD 2194
ambi@@ 2194
hidden 2194
ultimate 2194
05 2193
Rotary 2193
eded 2193
liked 2193
44 2190
upgrade 2190
EM@@ 2189
Castle 2188
electoral 2188
ot 2188
gue 2187
sessions 2187
dence 2186
recording 2185
asset 2184
pot@@ 2184
tolerance 2184
observe 2183
transitional 2181
Greens 2180
Growth 2179
Terms 2179
Van 2178
ap 2178
begun 2178
remarkable 2178
revolution 2177
Skype 2175
ert 2175
references 2175
compete 2172
ham@@ 2172
speciali@@ 2170
PS 2169
pace 2169
pilot 2169
stores 2169
checked 2168
permission 2167
complaints 2166
recall 2166
nor@@ 2165
doubts 2164
initially 2164
Apart 2162
oppose 2162
ri 2162
lec@@ 2161
log@@ 2160
Cri@@ 2159
comple@@ 2159
ello 2159
prec@@ 2158
uting 2158
Gaza 2157
Wednesday 2157
sake 2156
smooth 2156
Be 2155
Off@@ 2155
ney 2155
03@@ 2154
Is@@ 2154
As@@ 2153
ist@@ 2153
250 2152
ath 2152
disc@@ 2152
partial 2152
sees 2152
Have 2151
boats 2150
constructed 2150
ked 2150
loans 2150
off@@ 2150
bin@@ 2149
bright 2149
dramatic 2149
Network 2148
Ku@@ 2147
Representative 2147
describe 2147
lobby 2147
Sur@@ 2146
clicking 2146
solved 2146
textile 2146
affecting 2145
broader 2145
granting 2145
NI 2144
ang@@ 2144
concert 2144
Via 2143
dual 2143
collapse 2141
zero 2141
27@@ 2140
A4 2140
convenience 2140
colors 2139
sovereign 2139
Gentoo 2138
ac 2137
Player 2136
Cap@@ 2133
Syria 2133
ran 2133
stressed 2133
Storage 2132
ingredients 2132
till 2132
camp 2131
representing 2131
accordingly 2127
folder 2127
Set 2126
enn@@ 2126
minor 2126
suggests 2126
navigation 2125
revised 2125
Trans@@ 2124
losing 2124
pol@@ 2124
41 2123
alise 2123
ani 2123
deadline 2122
feet 2122
rit@@ 2121
vocational 2121
Ca@@ 2120
boards 2120
afraid 2119
amazing 2119
run@@ 2119
specialized 2117
Garden 2116
informal 2116
meal 2116
prospect 2116
sely 2116
Project 2115
ites 2115
ole 2114
chan@@ 2112
mixed 2112
apparent 2111
logic 2111
coastal 2110
sle@@ 2109
casino 2108
declare 2106
instantly 2106
enjoys 2105
wave 2105
subsequently 2104
conditioned 2103
hur@@ 2102
debated 2101
tionally 2101
AG@@ 2100
Mat@@ 2100
Cro@@ 2099
Presidents 2099
strike 2099
Flash 2098
ari 2098
viable 2098
Hostelsclub 2097
Three 2097
fax 2097
ace 2095
judge 2095
lab@@ 2095
preferred 2095
AB@@ 2094
keys 2094
revi@@ 2093
ous@@ 2092
broken 2091
collabor@@ 2091
fan@@ 2091
istic 2091
Quality 2090
ards 2090
whatsoever 2090
ction 2089
Life 2088
clock 2088
Putin 2087
TR@@ 2087
Bur@@ 2086
Mc@@ 2086
Support 2086
noon 2086
Pol@@ 2084
assurance 2084
cou@@ 2084
Single 2083
tin 2083
oldest 2082
terrible 2082
ts@@ 2082
Games 2081
governmental 2081
taxpayers 2080
Win@@ 2079
cel@@ 2079
delays 2079
ris@@ 2079
iting 2078
Don 2077
IC 2077
Together 2077
honest 2077
overlooking 2077
dependence 2076
expenses 2076
greenhouse 2075
portal 2075
healthcare 2074
ef@@ 2073
nation@@ 2073
Ob@@ 2072
comparable 2072
ratified 2071
Sc@@ 2069
secondary 2069
violent 2069
destroy 2068
Hol@@ 2067
sta 2067
PO@@ 2066
spectrum 2066
superior 2066
deb@@ 2063
electrical 2062
managers 2062
maybe 2062
teen 2061
Net@@ 2060
certainty 2060
Sun@@ 2059
afford 2059
loading 2059
villa 2059
integrity 2058
jurisdiction 2058
mes 2058
expressly 2057
GNU 2056
Left 2056
forgotten 2056
negotiated 2056
surveillance 2056
promoted 2055
deserve 2054
preparations 2054
Children 2053
bet 2051
certified 2050
populations 2050
removal 2050
és 2050
basically 2049
falling 2049
inspection 2049
Hel@@ 2048
Hong 2048
ME@@ 2048
SO@@ 2048
certification 2048
Kong 2047
translated 2046
q 2045
tivity 2045
04 2044
Ha@@ 2044
Maastricht 2044
beef 2044
devoted 2044
girls 2044
projec@@ 2044
thanking 2044
undertake 2044
Hi@@ 2043
roof 2043
Section 2042
Partnership 2041
listening 2041
ola 2041
Otherwise 2040
Airbus 2038
newsletter 2038
theatre 2038
nobody 2037
uncertainty 2037
700 2036
Fer@@ 2036
answered 2035
believed 2035
suspended 2035
trained 2035
Sam@@ 2034
alternatives 2034
ass 2034
autumn 2034
fer 2034
ich@@ 2034
orientation 2033
Sol@@ 2032
beer 2032
oring 2032
fifth 2031
person@@ 2031
Gre@@ 2030
hole 2029
publish 2029
Product 2028
art@@ 2027
assigned 2027
las@@ 2027
nationals 2027
optimal 2027
ignore 2026
viol@@ 2026
bought 2025
refused 2025
slo@@ 2025
stunning 2024
atives 2023
bing 2023
loaded 2023
credible 2020
civilian 2019
didn 2019
native 2018
stories 2017
Pl@@ 2016
calm 2016
voc@@ 2016
simultaneously 2015
47 2014
Lan@@ 2014
adjustment 2014
deficits 2014
frequency 2014
refuse 2014
tens 2014
territories 2014
tual 2014
Hor@@ 2013
Joint 2013
beneficial 2013
renewed 2013
20th 2012
audience 2012
indoor 2012
lo 2012
suited 2012
ung@@ 2012
dance 2011
ils 2011
bureaucracy 2010
dem@@ 2010
justify 2009
observation 2009
paths 2009
wooden 2009
2012 2008
Speci@@ 2008
ruling 2008
indicators 2007
ams 2006
Fu@@ 2005
studied 2005
exc@@ 2004
presidential 2004
Europol 2003
enting 2003
č@@ 2002
nit@@ 2001
sizes 2001
transaction 2001
Finnish 2000
OR 2000
SI@@ 2000
explicitly 2000
distinction 1999
mini@@ 1999
reali@@ 1999
admit 1998
Moscow 1996
Plaza 1996
ni 1996
Han@@ 1995
necessity 1995
Jean 1994
Rural 1994
akes 1994
technique 1994
expanded 1993
formation 1993
dge 1992
dialog 1992
employers 1992
posed 1992
51 1991
Award 1991
focusing 1991
gran@@ 1991
form@@ 1990
splendid 1990
false 1989
vis@@ 1989
Hour 1988
ening 1988
reflection 1988
TS 1987
spe@@ 1987
SA 1985
wers 1985
transfers 1984
principal 1983
string 1983
tar@@ 1983
2nd 1982
ading 1982
adventure 1981
worrying 1981
BSE 1979
cope 1979
ette 1979
freight 1979
ide@@ 1979
allocation 1978
dia 1978
adult 1977
height 1977
win@@ 1975
Fin@@ 1974
bathrooms 1974
ish@@ 1974
120 1973
postal 1973
soul 1973
MySQL 1972
ceiling 1972
manufactured 1972
Ministry 1971
dom@@ 1971
moments 1971
hot@@ 1970
intervene 1970
modify 1970
accuracy 1969
pas@@ 1969
prevented 1969
chemicals 1968
insufficient 1968
1991 1967
array 1967
demonstrates 1967
ili@@ 1967
supplementary 1967
telecommunications 1967
achievements 1966
negotiate 1966
classical 1965
competences 1965
ized 1965
1989 1964
David 1964
installations 1964
Burma 1963
focuses 1963
tonnes 1963
turns 1963
Jewish 1962
ack 1961
argue 1961
researchers 1961
dem 1960
authors 1959
DA 1958
10.@@ 1957
unanimously 1957
viewed 1957
46 1956
characteristic 1956
coal 1956
arrangement 1955
bug 1955
continuously 1955
alled 1954
cam@@ 1954
citizenship 1954
delete 1954
discount 1954
measurement 1954
son@@ 1954
wise 1954
enjoying 1953
inter 1953
boasts 1952
posts 1952
amm@@ 1951
hills 1951
soldiers 1951
Mag@@ 1949
closing 1949
cool 1949
rop@@ 1949
dimensions 1948
Sha@@ 1947
ania 1947
ase 1947
cy 1947
.de 1946
deaths 1946
mark@@ 1946
26@@ 1945
Ter@@ 1945
cancellation 1945
seemed 1945
doub@@ 1944
Maria 1943
Studio 1942
Yugoslavia 1942
don@@ 1941
ental 1941
applicant 1940
eds 1940
meals 1940
dist@@ 1939
pools 1939
escape 1938
fails 1937
inten@@ 1937
ization 1937
quantity 1937
mechanical 1936
residential 1936
Cup 1935
ories 1935
Lithuania 1934
defining 1934
notified 1934
coordinate 1932
neighbourhood 1932
ena 1931
catalogue 1930
dig@@ 1930
commerce 1929
judgment 1929
conservation 1928
fix 1928
Florence 1927
hes 1927
ned 1927
ye@@ 1927
Area 1926
agrees 1926
bigger 1926
tom@@ 1926
variable 1926
assi@@ 1925
authorised 1924
recession 1924
St 1923
angle 1923
ero@@ 1923
finds 1922
papers 1922
timely 1922
conversion 1921
accessories 1920
Pe@@ 1919
Suite 1919
calendar 1919
charm 1919
rated 1919
cancelled 1918
belongs 1917
lively 1917
Investment 1915
humanity 1915
cement 1914
52 1913
identification 1913
mistakes 1913
threatened 1913
unions 1913
chairs 1912
shor@@ 1911
ath@@ 1910
conventions 1910
sample 1910
procurement 1908
Holiday 1907
branch 1907
evaluate 1906
iron 1906
mandatory 1906
breach 1905
harm 1905
ita 1905
patents 1905
qualifications 1905
Fri@@ 1904
privileged 1904
gross 1903
desktop 1902
stopped 1902
Several 1901
by@@ 1901
relief 1901
Taiwan 1900
Read 1899
buying 1899
consistently 1899
Alps 1898
Bro@@ 1898
Power@@ 1898
Die 1897
emerged 1896
fir@@ 1896
sleep 1896
arbitrary 1895
arrest 1895
imported 1895
terrorists 1895
ner@@ 1894
Socialists 1893
ances 1893
San@@ 1892
signals 1892
survey 1892
withdrawal 1892
contributing 1890
Apartments 1889
fascinating 1889
protest 1889
leg@@ 1888
whenever 1888
biodiversity 1887
cookies 1886
earn 1886
Team 1885
trouble 1885
GB 1884
arti@@ 1884
cli@@ 1884
medieval 1883
react 1882
treaties 1882
vary 1882
contractual 1881
elderly 1881
unemployed 1881
systematic 1880
automotive 1879
Youth 1877
residents 1877
Make 1876
Third 1876
arranged 1876
experiencing 1876
ind 1876
layout 1876
ort 1876
pressed 1876
farms 1875
Bureau 1874
fur@@ 1874
Up 1873
blu@@ 1872
machinery 1872
preserved 1872
emphasised 1871
occupied 1871
purchased 1871
Multi@@ 1870
anda 1870
AIDS 1869
bon@@ 1868
potentially 1867
bureaucratic 1865
transit 1865
Department 1864
Mac 1864
ere 1864
mas@@ 1864
drafting 1863
ón 1863
rou@@ 1861
wheel 1861
Ban@@ 1860
publishing 1859
Fra@@ 1858
Iranian 1858
duration 1858
ene 1858
quar@@ 1858
J 1857
imposing 1857
PA 1856
cab@@ 1856
Deposit 1855
hei@@ 1853
undermine 1853
eding 1851
placing 1851
reads 1851
tis 1851
Ara@@ 1850
voters 1850
blame 1849
marquis 1849
port@@ 1848
pursued 1848
thri@@ 1848
consistency 1847
fan 1847
plug 1846
q@@ 1846
visits 1846
motorway 1845
interinstitutional 1844
ron 1843
The@@ 1842
stand@@ 1842
advise 1841
certificate 1841
Slovenia 1840
affordable 1840
innovations 1840
missed 1840
parti@@ 1840
precision 1840
plan@@ 1839
undertakings 1839
04@@ 1838
Parliamentary 1838
cro@@ 1838
trans 1838
gift 1837
Lebanon 1836
indicates 1836
mit@@ 1836
composed 1835
play@@ 1835
S.@@ 1834
precious 1834
Power 1833
zones 1833
George 1832
logistics 1832
dal 1831
perspectives 1831
Democratic 1828
Until 1828
baby 1828
officially 1828
AT 1827
ambition 1827
notably 1827
premium 1827
Liberal 1826
virus 1826
brands 1825
crops 1825
disputes 1825
specially 1825
yst@@ 1825
Pap@@ 1823
imm@@ 1823
sor@@ 1823
Prize 1822
cian 1822
fell 1822
ll@@ 1821
generous 1820
Mas@@ 1819
deci@@ 1819
fications 1819
ligh@@ 1818
behavior 1817
rig@@ 1817
Car 1816
contrac@@ 1816
dro@@ 1816
initiated 1816
vo 1816
Elevator 1815
regulate 1815
My@@ 1814
throw 1814
1000 1813
Mil@@ 1813
knew 1813
Olympic 1812
Similarly 1812
Video 1812
Washington 1812
dial 1812
dumping 1812
Communist 1811
Download 1811
smart 1811
warmly 1811
winner 1811
Ger@@ 1809
aus 1809
IG@@ 1808
Malta 1808
threshold 1808
bonds 1807
Vil@@ 1806
yp@@ 1806
bay 1805
pain 1805
ky 1804
holder 1803
structured 1803
tigh@@ 1803
newspaper 1802
releases 1802
wars 1802
adi@@ 1801
ala 1801
lev@@ 1801
publications 1801
Luggage 1800
Mobile 1800
featuring 1800
Obviously 1799
esc@@ 1799
excursions 1799
interactive 1799
Society 1798
acquisition 1798
declarations 1798
purchasing 1798
tangible 1798
Defence 1797
apparently 1797
finances 1797
gan@@ 1797
moves 1797
slopes 1797
Web@@ 1796
fulfilled 1796
subscribe 1796
Citizens 1795
Far@@ 1794
flu@@ 1794
wherever 1794
Palestine 1793
comprises 1793
opt 1793
tering 1793
fol@@ 1791
logo 1791
sad 1791
Heating 1790
Pacific 1790
cameras 1790
replacement 1789
wording 1789
revealed 1788
Co 1787
Standard 1787
realize 1787
schedule 1787
specify 1787
BO@@ 1785
Robert 1785
ate@@ 1785
ideally 1785
oth 1785
ratio 1785
Fre@@ 1784
attended 1784
essence 1783
expressing 1783
nonetheless 1783
spare 1783
enlarged 1782
archive 1781
destinations 1781
eth 1781
è@@ 1781
68 1780
Hamas 1780
ard@@ 1780
fuels 1780
pur@@ 1780
rein@@ 1780
SV 1779
asser@@ 1779
bel 1779
drives 1779
organize 1779
quest 1779
alo@@ 1778
elec@@ 1778
lam@@ 1778
ick 1777
tribute 1777
EF@@ 1776
LE 1776
Poker 1775
reg@@ 1775
suggestion 1775
talked 1775
Cologne 1774
Dom@@ 1774
Full 1774
Iraqi 1774
emission 1774
parks 1774
confident 1773
e.g 1773
sentence 1773
convince 1772
findings 1772
retail 1771
Ph@@ 1770
nur@@ 1769
returns 1769
substantially 1769
ther 1769
exhibitions 1768
superb 1768
OT@@ 1766
lic 1766
sign@@ 1766
We@@ 1764
alike 1764
rational 1764
Del@@ 1763
frequent 1763
regrettable 1763
IP@@ 1762
pursuant 1762
wages 1762
wife 1762
zo@@ 1762
travellers 1761
EA 1760
Macedonia 1760
gate 1760
measuring 1760
tower 1760
IR@@ 1759
2.0 1757
tough 1757
1.5 1756
Zurich 1756
academic 1756
creature 1756
ond 1756
Budgetary 1755
CON@@ 1755
kno@@ 1755
partnerships 1755
restrict 1755
ute 1755
intelligence 1753
Out 1752
poker 1752
160 1751
2,@@ 1751
Por@@ 1751
Pu@@ 1751
assured 1751
exchanges 1751
pair 1751
but@@ 1750
lim@@ 1750
onic 1750
raises 1750
handled 1749
airline 1748
consequently 1748
proc@@ 1748
shortcomings 1748
tab@@ 1748
tech 1748
tened 1748
ny 1747
72 1746
arrange 1746
para 1746
ups 1746
54 1745
ler@@ 1745
mar 1745
regimes 1745
TO@@ 1744
handed 1744
intensi@@ 1744
Ms 1743
progres@@ 1743
warming 1743
,@@ 1742
controversial 1742
ques 1742
condemned 1741
ov 1741
AM 1740
SS 1740
racism 1739
amb@@ 1738
diving 1738
preliminary 1738
progressive 1738
C5 1737
demographic 1737
eve 1737
incentive 1737
squ@@ 1737
sunny 1737
transatlantic 1737
Marina 1736
flying 1736
ly@@ 1736
eted 1735
photographs 1735
atively 1734
meantime 1734
Bas@@ 1733
antly 1733
duc@@ 1733
eled 1733
metro 1733
Argentina 1732
centers 1732
fallen 1732
outs 1731
tension 1731
pays 1730
Nordic 1729
heavily 1729
integral 1729
outset 1729
rever@@ 1729
spo@@ 1729
Shop 1728
crew 1728
expanding 1728
pattern 1728
Albania 1727
sil@@ 1727
nom@@ 1726
poll@@ 1725
Main 1724
SC@@ 1724
Southern 1724
oni 1724
posi@@ 1723
senior 1723
Pra@@ 1722
practically 1722
biological 1721
hel@@ 1721
sho@@ 1721
stor@@ 1721
Met@@ 1719
breaking 1719
creativity 1719
eth@@ 1719
Salzburg 1718
announce 1718
lon@@ 1718
HTML 1717
lights 1717
tropical 1717
codes 1716
downloaded 1716
clothing 1715
posted 1715
prosec@@ 1715
tory 1715
feedback 1714
occurs 1714
Small 1713
Space 1713
drinking 1713
victim 1713
Clearly 1712
tiz@@ 1712
avoided 1711
chat 1711
elle 1711
Adobe 1710
Website 1710
rejection 1710
simplification 1710
split 1710
yo@@ 1710
B5 1709
Budapest 1709
ble@@ 1709
silence 1709
worry 1709
genetic 1708
unusual 1708
53 1707
inclusive 1707
torture 1707
marking 1706
statistical 1706
tone 1706
amend 1705
dd@@ 1705
fi 1705
EX@@ 1704
Labour 1704
borne 1704
fitted 1704
passion 1704
blind 1703
disp@@ 1702
dollars 1702
minim@@ 1702
ton@@ 1702
Gen@@ 1700
busy 1700
intense 1700
ignored 1699
drafted 1697
Ren@@ 1696
transformation 1695
unknown 1694
Conditions 1693
Declaration 1693
acknowledged 1693
dog 1693
lowest 1693
ord 1693
ped 1693
quota 1691
tw@@ 1691
56 1690
dor@@ 1690
monitored 1690
performing 1690
yard 1690
adjust 1689
simplify 1689
specifications 1689
CS 1688
Direc@@ 1688
ier 1688
penalties 1688
rela@@ 1688
dy@@ 1687
licence 1687
patterns 1687
Ge@@ 1686
shuttle 1686
Academy 1685
Digital 1685
chose 1685
ys@@ 1685
cancel 1684
autonomy 1683
fears 1683
aring 1682
discipline 1682
AV@@ 1681
reiterate 1681
Pres@@ 1680
connec@@ 1680
power@@ 1680
71 1679
Nonetheless 1679
contra@@ 1679
controlling 1679
aj@@ 1678
dominant 1678
slowly 1678
fate 1677
refer@@ 1677
caught 1676
confusion 1676
notion 1676
ska 1676
SE 1675
claimed 1675
hab@@ 1675
incorporate 1675
arts 1674
pharmaceutical 1674
premises 1674
unfortunate 1674
vic@@ 1674
&apos;d 1673
21st 1673
Search 1673
boxes 1673
differ 1672
headquarters 1672
hesitate 1671
steam 1671
inde@@ 1670
painting 1670
MB 1669
Zimbabwe 1669
prestigious 1669
lesson 1668
undertaking 1668
Uni@@ 1667
indirect 1667
Libya 1664
dent 1664
keeps 1664
Scotland 1663
ession 1663
Place 1662
belonging 1662
buses 1662
copies 1662
infringement 1662
dating 1661
reinforce 1661
ums 1661
IV 1660
Men@@ 1660
arity 1660
indication 1660
sam@@ 1660
thoroughly 1660
tt@@ 1660
gaining 1659
publicly 1659
Plus 1658
consult 1658
e.@@ 1658
hoped 1658
wer 1658
dated 1657
develops 1657
exposure 1657
Which 1656
estimate 1656
reductions 1656
Stockholm 1655
bot@@ 1655
fs 1655
West@@ 1654
accepting 1654
eries 1654
receives 1654
Budget 1653
Da@@ 1653
Gr@@ 1653
bol@@ 1653
ken 1653
segment 1653
Sony 1652
equity 1652
fare 1652
underline 1652
icon 1651
Port 1650
displays 1650
ero 1650
ile 1650
ean 1649
lighting 1649
need@@ 1649
respecting 1649
AD 1648
Camp@@ 1648
emerge 1648
keen 1648
concerts 1647
flag 1646
isolated 1646
converted 1645
eing 1645
settled 1645
Sil@@ 1644
explains 1644
pact 1644
radi@@ 1644
Opera 1643
convert 1643
holders 1643
motions 1643
ora 1643
Poli@@ 1641
ett@@ 1641
stops 1641
ust 1641
platforms 1640
59 1639
Select 1639
encies 1639
lacking 1639
survival 1639
coverage 1638
disappointed 1638
zu@@ 1638
Wa@@ 1637
closure 1637
ven 1637
architectural 1636
exceptions 1636
measured 1636
ony 1636
plate 1636
Hence 1635
Pan@@ 1635
Wei@@ 1635
Beijing 1634
failing 1634
indi@@ 1633
Water 1632
allo@@ 1632
ples 1632
Las 1631
PC@@ 1631
diver@@ 1631
lovers 1631
plane 1631
dad 1630
CE 1629
respectively 1629
wake 1629
66 1628
acquire 1628
complexity 1628
ensured 1628
accepts 1627
observers 1627
dat@@ 1626
Access 1625
Canon 1625
Series 1625
ases 1625
Everyone 1624
rap@@ 1624
92 1623
Islam 1623
cr@@ 1623
itation 1623
sailing 1623
tem@@ 1623
tries 1623
MA 1622
heated 1622
monuments 1622
Milan 1621
fold 1621
fought 1621
asi@@ 1620
Sta@@ 1619
Tuesday 1619
chief 1619
cot@@ 1619
tackling 1619
IF@@ 1618
Nov@@ 1618
aire 1618
ros 1618
decent 1617
staying 1617
eting 1616
ills 1616
defending 1615
ground@@ 1615
inquiry 1615
Personal 1614
continuation 1614
Tibet 1613
designer 1613
hospital 1613
micro 1613
tin@@ 1613
trains 1613
EEC 1612
auf 1612
deemed 1612
eless 1612
favourite 1612
stays 1612
Sudan 1611
gam@@ 1611
nar@@ 1611
noticed 1611
tery 1611
EMU 1610
GN@@ 1610
News 1610
executed 1610
han@@ 1610
pack@@ 1610
strange 1610
unds 1610
interaction 1609
Out@@ 1608
downloading 1607
interim 1607
literature 1607
smo@@ 1607
Charles 1606
Guide 1606
auto@@ 1605
churches 1605
consolidation 1605
mur@@ 1604
responses 1604
Thomas 1603
hing 1603
typically 1603
acquis 1602
artificial 1602
ests 1602
stones 1602
governed 1601
lement 1601
listened 1601
snow@@ 1601
sustained 1601
AP@@ 1600
characterised 1600
maps 1600
oned 1600
whi@@ 1600
Master 1599
decre@@ 1599
magic 1599
reverse 1599
silver 1599
ints 1598
shareholders 1598
unlike 1598
12.@@ 1597
temp@@ 1597
Anonymous 1596
camps 1596
conjunction 1596
lig@@ 1596
na@@ 1596
relaxed 1595
Des@@ 1594
Indonesia 1594
actor 1594
delicate 1594
guard 1594
sandy 1594
taxi 1594
Science 1593
rem@@ 1593
unstable 1593
Ka@@ 1592
Point 1592
entries 1591
mo 1591
18th 1590
AC 1590
Open@@ 1590
collec@@ 1590
gains 1590
telling 1590
abolition 1589
column 1589
grants 1589
migrants 1589
unt 1589
Est@@ 1588
SD@@ 1588
Tu@@ 1588
a.@@ 1588
clearer 1588
describes 1588
founding 1588
hed 1588
holes 1588
ok 1587
sporting 1587
exceed 1586
denied 1585
harmony 1585
aches 1584
activated 1583
authorisation 1583
catering 1583
fires 1583
inform@@ 1583
wa 1582
horizontal 1581
Tunisia 1580
cer 1578
inst@@ 1578
recycling 1578
compare 1577
tionary 1576
workshop 1575
Cat@@ 1574
wind@@ 1574
Peace 1573
constitu@@ 1573
Above 1571
thro@@ 1571
workshops 1571
Al 1569
choosing 1569
editor 1569
hear@@ 1569
Consi@@ 1568
circle 1568
li 1568
sheets 1568
surprising 1568
0s 1566
58 1566
degrees 1566
denti@@ 1566
plain 1566
yers 1566
estimates 1565
invitation 1565
survive 1565
alarm 1564
ambitions 1564
ells 1564
parameter 1564
rubber 1564
tailored 1564
Naturally 1563
foods 1563
pursuing 1563
uring 1563
App@@ 1562
discrimin@@ 1562
battery 1561
booked 1561
ential 1561
robust 1561
watching 1561
Travel 1560
det@@ 1560
prohibited 1560
adap@@ 1559
lied 1559
aded 1557
bill 1557
tured 1556
Go 1555
accommodate 1555
bases 1555
book@@ 1555
AR 1554
Apartment 1554
TI@@ 1554
Tro@@ 1554
aming 1554
backing 1554
badly 1554
edit 1554
tells 1554
unch 1554
automation 1553
laser 1553
mobili@@ 1553
67 1552
Pen@@ 1552
banned 1552
ily 1552
vac@@ 1552
Gulf 1551
departments 1551
linguistic 1550
visitor 1550
Choose 1549
Liber@@ 1549
ired 1548
ç@@ 1548
kg 1547
Lau@@ 1546
PRO@@ 1546
assessments 1546
eter 1546
homo@@ 1546
preventive 1546
Moldova 1545
globalization 1545
manifest@@ 1545
reli@@ 1545
shaped 1545
temperatures 1545
adher@@ 1544
engineers 1544
signature 1544
specialities 1544
Na@@ 1543
Rot@@ 1543
oo@@ 1543
unanimous 1543
College 1542
evolution 1542
pack 1542
Organization 1541
bid 1541
Em@@ 1540
analyses 1540
coinci@@ 1540
hol@@ 1540
separately 1540
spots 1540
suff@@ 1540
thoughts 1540
.org 1539
consulted 1539
dar@@ 1539
profound 1539
Dan@@ 1538
Millennium 1538
ample 1538
dominated 1538
favorite 1538
authentic 1537
proximity 1537
reduces 1537
subsidiary 1537
Blue 1536
explo@@ 1536
ó 1536
congratulations 1535
· 1535
ark@@ 1534
evi@@ 1534
iti@@ 1534
mi 1534
Medi@@ 1533
eo 1533
guidance 1533
investigate 1533
tips 1533
Additionally 1532
Experience 1532
adjusted 1532
circulation 1532
coherence 1532
tives 1532
ñ@@ 1532
birds 1531
damaged 1531
demonstration 1531
deny 1531
securities 1531
57 1530
analy@@ 1530
capture 1530
ente 1530
alogue 1529
compatibility 1529
sla@@ 1529
announcement 1528
appreciated 1528
celebrate 1528
Industrial 1527
approx 1527
movies 1527
quantities 1527
tre 1527
allies 1526
furthermore 1526
socio 1526
hydro@@ 1525
minds 1525
solving 1525
tz 1525
BC 1524
Everything 1524
black@@ 1524
doctors 1524
implies 1524
ET 1523
Gold 1523
branches 1523
exec@@ 1523
Sho@@ 1522
accountability 1522
san@@ 1522
Mur@@ 1521
Road 1521
dangers 1521
railways 1521
skilled 1521
tening 1520
environments 1519
mm@@ 1519
Cent@@ 1518
Live 1518
stood 1518
Contact 1516
calculated 1516
concentrated 1516
derived 1516
photography 1516
rub@@ 1516
ED@@ 1515
ail 1515
continually 1515
enthusiasm 1515
optical 1515
supervisory 1515
ester 1514
racing 1514
requiring 1514
searching 1514
stakeholders 1514
twin 1514
challenging 1513
tain 1513
2.5 1512
Right 1512
investigations 1512
preferences 1512
stem 1512
invested 1511
abandoned 1510
cooking 1510
teacher 1510
tra 1510
tape 1508
CE@@ 1507
Norway 1507
alliance 1507
conver@@ 1507
partition 1507
defects 1506
fam@@ 1506
initi@@ 1505
servi@@ 1505
harbour 1504
ote 1504
terminal 1504
NO@@ 1503
BMW 1502
agent 1502
les@@ 1502
lor@@ 1502
Kr@@ 1501
clarification 1501
3rd 1500
Fax 1500
ened 1500
fault 1500
habit@@ 1500
multimedia 1500
prev@@ 1500
ut 1500
88 1499
accused 1499
optional 1499
reconciliation 1499
sn@@ 1499
bat@@ 1498
automated 1497
evil 1497
infrastructures 1497
lined 1497
mining 1497
tious 1497
weigh@@ 1497
Rap@@ 1496
paradise 1496
sin 1496
adaptation 1495
chen 1495
identical 1495
themes 1495
contributes 1494
economics 1494
inations 1494
murder 1494
secured 1494
vin@@ 1494
Start 1493
alle@@ 1493
att@@ 1493
dictatorship 1493
exploit 1493
ez 1493
filling 1493
laying 1493
male 1493
í 1493
Lam@@ 1492
PSE 1492
Super@@ 1492
explicit 1492
AN 1491
Fac@@ 1491
aqu@@ 1491
modes 1491
super 1491
sus@@ 1491
pending 1490
seekers 1490
unprecedented 1490
Fran@@ 1489
feels 1489
knowing 1489
sincerely 1489
vor@@ 1489
Puerto 1488
aking 1488
backed 1488
conviction 1488
Wall 1487
albeit 1487
assumed 1487
compar@@ 1487
enemy 1487
intergovernmental 1487
stringent 1487
ful@@ 1486
pot 1486
suddenly 1486
Sometimes 1485
bag 1485
inher@@ 1485
© 1484
AU@@ 1483
differently 1483
James 1482
deleted 1482
obtaining 1482
scre@@ 1482
sem@@ 1481
sw@@ 1481
characterized 1480
decentrali@@ 1480
pic@@ 1480
sanc@@ 1480
incredible 1479
semi 1479
turing 1479
ée 1479
brain 1478
Press 1477
directions 1477
mul@@ 1477
pione@@ 1477
Rental 1476
direc@@ 1476
pru@@ 1476
specialised 1476
demanded 1475
justification 1475
Currently 1474
SAP 1474
eller 1474
fifteen 1474
genetically 1474
hire 1474
realized 1474
Meanwhile 1473
constraints 1473
Regarding 1472
adequately 1472
powered 1472
IB@@ 1471
Order 1471
performances 1471
quot@@ 1471
Cha@@ 1470
Edition 1470
Spe@@ 1470
Wor@@ 1470
appreciation 1470
isn 1470
77 1469
illing 1468
enhan@@ 1467
translations 1467
Sar@@ 1466
Technical 1466
Tru@@ 1466
defense 1466
capacities 1465
damaging 1465
izing 1465
checking 1464
crystal 1464
tel 1464
upcoming 1464
wat@@ 1464
1980 1463
ee 1463
lakes 1463
tun@@ 1463
62 1462
essed 1462
Los 1461
tac@@ 1461
93 1460
doctor 1460
partially 1460
fts 1459
permanently 1459
EU@@ 1458
sensor 1458
Vietnam 1457
admi@@ 1457
chocolate 1457
connecting 1457
grade 1457
physi@@ 1457
shel@@ 1457
OL@@ 1456
unlikely 1456
eine 1455
optimum 1455
ouring 1455
sers 1455
cheese 1454
competitors 1454
newspapers 1454
witness 1454
ł@@ 1454
Could 1453
History 1453
Mel@@ 1453
jo 1453
scep@@ 1453
backs 1452
interpreted 1452
practi@@ 1452
sound@@ 1452
LU@@ 1451
SC 1451
82 1450
89 1450
humans 1450
fe 1449
ians 1449
Show 1448
lt 1448
strive 1448
Wil@@ 1447
aching 1447
ela 1447
removing 1447
adv@@ 1446
attract 1446
bak@@ 1446
investing 1446
struck 1446
vari@@ 1446
ier@@ 1445
mirror 1445
returning 1445
breaks 1444
excess 1444
rid 1444
rin@@ 1444
Dor@@ 1443
avi@@ 1443
impetus 1443
subscri@@ 1443
Chechnya 1442
Estonia 1442
bone 1442
conditional 1442
cop@@ 1442
grand 1442
halt 1442
ico 1442
irre@@ 1442
leather 1442
participated 1442
tot@@ 1442
grand@@ 1441
Part 1440
Program 1440
abo@@ 1440
atten@@ 1440
combining 1440
diplom@@ 1440
gement 1440
ishes 1440
isolation 1440
mb@@ 1440
passes 1440
notification 1439
s. 1439
Add 1438
Gran 1438
lier 1438
explanations 1437
peri@@ 1437
bach 1436
iPhone 1436
ú@@ 1436
Communication 1435
XP 1434
activ@@ 1434
alising 1434
deleg@@ 1434
demo@@ 1434
ater 1433
nis@@ 1433
rose 1433
short@@ 1433
stimulate 1433
Modern 1432
Training 1432
independently 1432
motivated 1432
striking 1432
Cra@@ 1431
LA 1431
Tel@@ 1431
crossing 1431
promotes 1431
editing 1430
formula 1430
inequality 1430
prominent 1430
Content 1429
Process 1429
bird 1429
hi 1429
aces 1428
advocate 1428
currencies 1428
harmonised 1428
taught 1428
modest 1427
monthly 1427
venture 1427
Doha 1426
Tim@@ 1426
ain 1426
bears 1426
login 1426
Image 1425
permits 1425
vegetables 1425
ze@@ 1425
ab 1424
gh 1424
wn@@ 1424
Apple 1423
Cu@@ 1423
abuses 1423
ultra 1423
lessly 1422
ori 1422
setup 1422
Pat@@ 1421
arm 1421
grave 1421
restoration 1421
Alpine 1420
Danube 1420
dged 1420
pan 1420
terror 1420
winners 1420
CHF 1419
DC 1419
ama 1419
78 1418
dam@@ 1418
hosts 1417
ologically 1417
outlined 1417
SQL 1416
socially 1416
Kor@@ 1415
Working 1415
score 1415
seminars 1415
Visit 1414
vent 1414
announ@@ 1413
divide 1413
excellence 1413
mod@@ 1413
hard@@ 1412
radiation 1412
DO@@ 1411
Golden 1411
Ol@@ 1411
hypo@@ 1411
Rather 1410
aw@@ 1410
dges 1410
ideological 1410
pop@@ 1410
trademarks 1410
gradual 1409
arrested 1408
hazardous 1408
activate 1407
dental 1407
origin@@ 1407
pil@@ 1407
Client 1406
avoiding 1406
configure 1406
flowers 1406
hopefully 1406
separated 1406
shore 1406
HD 1405
dé@@ 1404
fri@@ 1404
fundamentally 1404
neutral 1404
salt 1404
transformed 1404
twelve 1404
vil@@ 1404
Che@@ 1403
OM@@ 1403
eness 1403
well@@ 1403
Saddam 1402
Tyrol 1402
employee 1402
receipt 1402
scenario 1402
summary 1402
Ltd 1401
eligible 1401
tool@@ 1401
11.@@ 1400
86 1400
Allow 1400
surplus 1400
aled 1399
flash 1399
garage 1399
observations 1399
owing 1399
roughly 1399
ère 1399
coalition 1398
dep@@ 1398
enz@@ 1398
realised 1398
spiritual 1398
patri@@ 1397
rescue 1397
ST 1396
alize 1396
forums 1396
inevitably 1396
rati@@ 1396
Cy@@ 1395
Friendly 1395
lending 1395
peak 1395
su 1395
40@@ 1394
Rom@@ 1394
ald 1394
arm@@ 1394
breathtaking 1394
colonial 1394
hide 1394
labels 1394
revenues 1394
Work 1393
archi@@ 1393
fli@@ 1393
rolling 1393
Res@@ 1392
Sem@@ 1392
gence 1392
pleas@@ 1392
proliferation 1392
simplified 1392
unlimited 1392
Mont@@ 1391
dings 1391
distribute 1391
resumed 1391
audit 1390
inevitable 1390
tho@@ 1390
translate 1390
warranty 1390
bread 1389
hunger 1389
scenery 1389
stating 1389
Statute 1388
bility 1388
databases 1388
ich 1388
struc@@ 1388
systematically 1388
Ham@@ 1387
Supervisory 1387
controller 1387
dering 1387
fron@@ 1387
golden 1387
mas 1387
officers 1387
sten@@ 1387
Discover 1386
delayed 1386
mailing 1386
piano 1386
ante 1385
bathing 1385
complement 1385
moderate 1385
toler@@ 1385
wel@@ 1385
ail@@ 1384
alive 1384
criterion 1384
indispensable 1384
nowadays 1384
reinforced 1384
League 1383
gathered 1383
iness 1383
thy 1383
a.m. 1382
arians 1382
ems 1382
ham 1382
toilet 1382
entities 1381
gases 1381
indigenous 1381
rage 1381
urs 1381
camp@@ 1380
novel 1380
symbolic 1380
tain@@ 1380
capability 1379
net@@ 1379
set@@ 1379
venue 1379
Cathedral 1378
Thailand 1378
civili@@ 1378
influ@@ 1378
separation 1378
champ@@ 1377
discovery 1377
envisaged 1377
Climate 1376
advis@@ 1376
blocked 1376
maxim@@ 1376
opponents 1376
ords 1376
ols 1375
stry 1375
craft 1374
minimal 1374
objec@@ 1374
procedural 1374
reviewed 1374
judges 1373
thumbnail 1373
uns 1373
openly 1372
Py@@ 1371
frag@@ 1371
ras 1371
resolving 1371
aria 1370
endor@@ 1370
ford 1370
pin 1370
tight 1370
tiv@@ 1370
Criminal 1369
Sou@@ 1369
centrally 1369
restrictive 1369
Star@@ 1368
lob@@ 1368
retirement 1368
EP 1367
Petitions 1367
consisting 1367
globally 1367
interview 1367
invo@@ 1367
recover 1367
IGC 1366
New@@ 1366
SM@@ 1366
ament 1366
kit 1366
rigorous 1366
sing@@ 1366
disagree 1365
ea 1365
kids 1365
suspension 1365
commission 1364
gol@@ 1364
63 1363
Air@@ 1363
Stuttgart 1363
donors 1362
fic@@ 1362
fits 1362
mines 1362
ues 1362
Den@@ 1361
High@@ 1361
OK 1361
Vista 1361
boundaries 1361
vicinity 1361
embedded 1360
ography 1360
repression 1360
Region 1359
charter 1359
countless 1359
criminals 1358
subjected 1358
94 1357
Solidarity 1357
celebrated 1357
congratulating 1357
gent 1357
interference 1357
tial 1357
touched 1357
workforce 1357
conscious 1356
par 1356
trails 1356
Annual 1355
abstained 1355
carrier 1355
finest 1355
installing 1355
Christians 1354
fran@@ 1354
TA 1353
gel 1353
paintings 1353
Location 1352
Newspapers 1352
Sel@@ 1352
aller@@ 1352
divi@@ 1352
feelings 1352
Mau@@ 1351
hr@@ 1351
pointing 1351
sharp 1351
statute 1351
91 1350
bi 1350
examining 1350
integrating 1350
HIV 1349
amp 1349
cen@@ 1349
gar 1348
presentations 1348
tex@@ 1348
Trek 1347
UC@@ 1347
asks 1347
await 1347
instability 1347
kill 1347
quarters 1347
tia 1347
transmitted 1347
Rel@@ 1346
inning 1346
cip@@ 1345
limitations 1345
safely 1345
synchron@@ 1345
Bon@@ 1344
PM 1344
alling 1344
indirectly 1344
vine 1344
ENT 1343
Sun 1343
behold 1343
conveniently 1343
gon 1343
landscapes 1343
Bol@@ 1342
Professor 1342
profiles 1342
regul@@ 1342
unanimity 1342
PP@@ 1341
dre@@ 1341
stein 1341
Playa 1340
Written 1340
arises 1340
speaks 1340
Her 1339
cheaper 1339
lawyers 1339
revol@@ 1339
scrutiny 1339
Change 1338
Jerusalem 1338
adverse 1338
dimin@@ 1338
sensitivity 1338
CEO 1337
Hans 1337
SU@@ 1337
acceler@@ 1337
counts 1337
credi@@ 1337
top@@ 1337
Pla@@ 1336
eable 1336
ji 1336
oms 1336
sums 1336
umb@@ 1336
cum@@ 1335
pride 1335
sk 1335
culinary 1334
democracies 1334
eigh@@ 1334
evol@@ 1334
influenced 1334
laboratory 1334
About 1333
Disabled 1333
girl 1333
safeguarding 1333
threatening 1333
circuit 1332
existed 1332
Det@@ 1331
Mark 1331
cali@@ 1331
distinguished 1331
oting 1331
pillars 1331
refugee 1331
Kur@@ 1330
besides 1330
complic@@ 1330
eria 1330
imperative 1330
subscription 1330
Four 1329
Mari@@ 1329
Romanian 1329
advances 1329
lla 1329
tages 1329
trademark 1329
Spring 1328
boo@@ 1328
ght@@ 1328
rupt 1328
Bad 1327
Rio 1327
Muslims 1326
WC 1326
capitalism 1326
ital 1326
roles 1326
sofa 1326
walks 1326
74 1325
Caribbean 1325
Wal@@ 1325
ep 1325
excuse 1325
glob@@ 1325
op 1325
wis@@ 1325
Rob@@ 1324
cos 1324
ticul@@ 1324
tremendous 1324
Chief 1323
Hei@@ 1323
extends 1323
grass 1323
cket 1322
founder 1322
incomes 1322
81 1321
Finance 1321
Line 1321
deep@@ 1321
guides 1321
promising 1321
ruled 1321
utions 1321
69 1320
admission 1320
household 1320
ailed 1319
exclude 1319
73 1318
ci 1318
disastrous 1318
gear 1318
homepage 1318
refined 1318
tless 1318
utility 1318
delivering 1317
writer 1317
Professional 1316
compromises 1316
innocent 1316
61 1315
feder@@ 1315
hy@@ 1315
yellow 1315
profitable 1314
ía 1314
UT@@ 1313
voices 1313
Gor@@ 1312
Latvia 1312
ageing 1312
calculation 1312
entrepreneurs 1312
Cross 1311
Radio 1311
argued 1311
separ@@ 1311
tensions 1311
cher@@ 1310
eta 1310
magnetic 1310
MP3 1309
apo@@ 1309
determining 1309
distributors 1309
entity 1309
alls 1308
care@@ 1308
deeper 1308
troub@@ 1308
verse 1308
Sport 1307
cooling 1307
incident 1307
reproduction 1307
tains 1307
delegations 1306
ema 1306
linking 1306
oked 1306
Empire 1305
Mul@@ 1305
affir@@ 1305
continental 1305
lifestyle 1305
waves 1305
weekly 1305
16th 1304
Cho@@ 1304
civilians 1304
consultations 1304
encounter 1304
engagement 1304
adjustments 1303
cycling 1303
districts 1303
grew 1303
mes@@ 1303
rows 1303
fabric 1302
rivers 1302
Fair 1301
Reg@@ 1301
perpet@@ 1301
Cohesion 1300
Fil@@ 1300
cinema 1300
shr@@ 1300
viewing 1300
visas 1300
weapon 1300
designers 1299
endeavour 1299
monopoly 1299
Val 1298
ial 1298
sy@@ 1298
tonight 1298
worker 1298
HU 1297
absurd 1297
accum@@ 1297
assessed 1297
harmon@@ 1297
Corporate 1296
autonomous 1296
ey@@ 1296
hearts 1296
immunity 1296
int@@ 1296
render 1296
killing 1295
resistant 1295
Kal@@ 1294
ign@@ 1294
interfaces 1294
joy 1294
mounted 1294
show@@ 1294
Pack 1293
Tr@@ 1293
cements 1293
fes@@ 1293
mon 1293
neo 1293
surfing 1293
SS@@ 1291
organiz@@ 1291
qualities 1291
supplement 1291
analyse 1290
Christ 1289
attach 1289
endorsed 1289
fire@@ 1289
ices 1289
resorts 1289
sincere 1289
ules 1289
author@@ 1288
lens 1288
ple 1288
sch 1288
enter@@ 1287
inspiration 1287
paragraphs 1287
plugin 1287
width 1287
Joseph 1286
UNESCO 1286
generating 1286
margin 1286
prevents 1286
washing 1286
afterwards 1285
decrease 1285
dorf 1285
lion 1285
rain 1285
Don@@ 1284
Ther@@ 1284
perf@@ 1284
stro@@ 1284
tile 1284
76 1283
cit@@ 1283
deli@@ 1283
designated 1283
detention 1283
graphical 1283
Gui@@ 1282
ami 1282
appe@@ 1281
scra@@ 1281
stag@@ 1281
unilateral 1281
ano@@ 1280
California 1279
earned 1279
gging 1279
lays 1279
refusal 1279
Holy 1278
sympathy 1278
Allah 1277
finishing 1277
haven 1277
ix 1277
Nigeria 1276
Tom@@ 1276
Whilst 1276
communist 1276
elite 1276
libraries 1276
Natural 1275
Nature 1275
Products 1275
carriers 1275
infl@@ 1275
pop 1275
0.00 1274
Helsinki 1274
gym 1274
hectares 1274
ingen 1274
mers 1274
shing 1274
thin 1274
Come 1273
clothes 1273
foster 1273
convincing 1272
exploited 1272
Sor@@ 1271
Suites 1271
compens@@ 1271
consist 1271
filters 1271
formally 1271
Alexander 1270
abandon 1270
duction 1270
encomp@@ 1270
exploring 1270
maintains 1270
29@@ 1269
Staff 1269
enters 1269
fal@@ 1269
liquid 1269
panels 1269
portra@@ 1269
reaches 1269
interventions 1268
reaffir@@ 1268
tariff 1268
consolidate 1267
eff@@ 1267
intern@@ 1267
workplace 1267
carries 1266
clu@@ 1266
implic@@ 1266
modernisation 1266
omed 1266
preservation 1266
protests 1266
securing 1266
Hon@@ 1265
OLAF 1265
dest 1265
electronics 1265
endless 1265
gged 1265
irs 1265
ater@@ 1264
dreams 1264
plates 1264
sin@@ 1264
5th 1263
Gay 1263
IV@@ 1263
Plan@@ 1263
authorized 1263
bloo@@ 1263
chances 1263
Residence 1262
audiovisual 1262
ele 1262
Congo 1261
Dep@@ 1261
Unless 1261
commonly 1261
irrespective 1261
oria 1261
Blair 1260
Mad@@ 1260
asp@@ 1260
consolidated 1260
max 1260
KDE 1259
Tran@@ 1259
bags 1259
discretion 1259
enhancing 1259
obstacle 1259
technically 1259
с@@ 1259
02@@ 1258
Ak@@ 1258
Cold 1258
alu@@ 1258
distant 1258
energies 1258
illa 1258
shock 1258
wishing 1258
Administration 1257
ades 1257
cease 1257
gather 1257
insu@@ 1257
married 1257
punishment 1257
Unlike 1256
fertili@@ 1256
kilometers 1256
demonstrations 1255
hof 1255
incorrect 1255
notic@@ 1255
offset 1255
sweet 1255
symp@@ 1255
worried 1255
Wireless 1254
alt 1254
clauses 1254
moder@@ 1254
prop@@ 1254
gio 1253
outermost 1253
somewhere 1253
Library 1252
circum@@ 1252
detection 1252
thinks 1252
luck 1251
lying 1251
younger 1251
Jan@@ 1250
deciding 1250
Child 1249
reactions 1249
regre@@ 1249
900 1248
Jews 1248
hau@@ 1248
ong@@ 1248
plac@@ 1248
ails 1247
vous 1247
broad@@ 1246
preference 1246
rat@@ 1246
strikes 1246
anism 1245
brother 1245
dust 1245
Algeria 1244
Warcraft 1244
condi@@ 1244
downtown 1244
ici@@ 1244
oder 1244
Galileo 1243
ink@@ 1243
pull 1243
thereof 1243
Chile 1242
Language 1242
gaming 1242
styles 1242
Fa@@ 1241
Head 1241
confirms 1241
porting 1241
vacuum 1241
wire 1241
Post@@ 1240
attempting 1240
poin@@ 1240
proves 1240
tube 1240
Ki@@ 1239
Korean 1239
Over@@ 1239
complaint 1239
hosting 1239
sat@@ 1239
validity 1239
Between 1238
deadlines 1238
deployment 1238
olo@@ 1238
overwhelming 1238
spell 1238
BR@@ 1237
ratify 1237
shoes 1237
Ocean 1236
Round 1236
Wikitravel 1236
mass@@ 1236
seminar 1236
thirty 1236
Cab@@ 1235
asses 1235
character@@ 1235
guilty 1235
query 1235
reveal 1235
FOR 1234
Jesus 1234
ood 1234
Rei@@ 1233
SP 1233
concludes 1233
divisions 1233
ft@@ 1233
mp 1233
ín 1233
Mail 1232
bath@@ 1232
eco 1232
mile 1232
scenes 1232
selecting 1232
Aqu@@ 1231
Basel 1231
Much 1231
esses 1231
facilit@@ 1231
group@@ 1231
responding 1231
illi@@ 1230
mus@@ 1230
60@@ 1229
Cultural 1229
Privacy 1229
breeding 1229
extrac@@ 1229
tab 1229
Tar@@ 1228
Test 1228
bles 1228
collections 1228
democratically 1228
fulness 1228
limiting 1228
mol@@ 1228
Gallery 1227
Objective 1227
USS 1227
invites 1227
medicinal 1227
oh@@ 1227
silent 1227
wan@@ 1227
GPS 1226
aiming 1226
Piazza 1225
processor 1225
races 1225
Innovation 1224
Pet@@ 1224
Simply 1224
anger 1224
corporations 1224
Chancellor 1223
Sol 1223
bands 1223
disabilities 1223
os@@ 1223
recognises 1223
climbing 1222
disciplinary 1222
skill 1222
unified 1222
yl@@ 1222
ö@@ 1222
Ari@@ 1221
Country 1221
ME 1221
Partner 1221
impro@@ 1221
safeguards 1221
supporters 1221
Flo@@ 1220
coins 1220
critique 1220
alter 1219
tip 1219
87 1218
Anti 1218
Anti@@ 1218
Lat@@ 1218
cattle 1218
ually 1218
Adriatic 1217
Bat@@ 1217
Decision 1217
EX 1217
anders 1217
conce@@ 1217
glo@@ 1217
tioning 1217
Hostel 1216
Prin@@ 1216
differenti@@ 1216
forestry 1216
locally 1216
safer 1216
100@@ 1215
License 1215
bits 1215
remedy 1215
sur 1215
delivers 1214
teach 1214
Ei@@ 1213
Net 1213
boarding 1213
DP 1212
Explorer 1212
FI 1212
cep@@ 1212
day@@ 1212
inger 1212
Solana 1211
aggressive 1211
ambience 1211
domin@@ 1211
far@@ 1211
fruits 1211
Big 1210
Neither 1210
emphasize 1210
ph 1210
prot@@ 1210
Arts 1209
Colombia 1209
ack@@ 1209
meaningful 1209
tually 1209
Nero 1208
ocean 1208
trail 1208
awards 1207
geo@@ 1207
renewal 1207
symbols 1207
theoretical 1207
dos 1206
mal 1206
med@@ 1206
protective 1206
ville 1206
Double 1205
a.m 1205
cycles 1205
ruption 1205
tness 1205
ker@@ 1204
nutri@@ 1204
ouse 1204
simul@@ 1204
tracking 1204
vineyards 1204
insight 1203
limitation 1203
perception 1203
pour 1203
tig@@ 1203
vali@@ 1203
Av@@ 1202
Casa 1202
Je@@ 1202
Rem@@ 1202
XML 1202
appearing 1202
clinical 1202
definitions 1202
ghter 1202
imbalances 1202
praise 1202
rice 1202
titles 1202
ilt 1201
immense 1201
practic@@ 1201
pretext 1201
rative 1201
tage 1201
wished 1201
Cer@@ 1200
Singapore 1200
ective 1200
indications 1200
revolutionary 1200
DS 1199
Heritage 1199
assessing 1199
comforts 1199
fing 1199
loved 1199
pipeline 1199
witnessed 1199
Ashton 1198
Montenegro 1198
aus@@ 1198
donor 1198
macro 1198
profession 1198
reasonably 1198
15th 1197
Annex 1197
Eu@@ 1197
accompanying 1197
ects 1197
District 1196
GP 1196
Green@@ 1196
Roman@@ 1196
annually 1196
dairy 1196
dioxide 1196
fic 1196
herself 1196
wisdom 1196
xed 1196
3,@@ 1195
GA 1195
belt 1195
bian 1195
eating 1195
identifying 1195
Against 1194
colon@@ 1194
edly 1194
glu@@ 1194
prompt 1194
4th 1193
Bio@@ 1193
prerequisite 1193
printer 1193
ry@@ 1193
woods 1193
17th 1192
contest 1192
desc@@ 1192
lian 1192
tendency 1192
EP@@ 1191
adverti@@ 1191
ection 1191
exceptionally 1191
rarely 1191
wra@@ 1191
HO@@ 1190
IM 1190
Sy@@ 1190
dru@@ 1190
mand@@ 1190
multip@@ 1190
Being 1189
dogs 1189
erial 1189
incidents 1189
var 1189
Nikon 1188
admitted 1188
arriving 1188
beat 1188
Anyone 1187
Mus@@ 1187
Reform 1187
gel@@ 1187
retri@@ 1187
stimulus 1187
stit@@ 1187
stu@@ 1187
tiny 1187
yield 1187
Dresden 1186
classification 1186
fed 1186
personality 1186
va@@ 1186
Democracy 1185
Sen@@ 1185
Siemens 1185
Tower 1185
Firefox 1184
broadcasting 1184
globe 1184
oper@@ 1184
verify 1184
Dru@@ 1183
OECD 1183
certificates 1183
perceived 1183
cargo 1182
cotton 1182
marriage 1182
spi@@ 1182
tori@@ 1182
tz@@ 1182
80@@ 1181
Bag@@ 1181
alpine 1181
rank 1181
QU@@ 1180
broadly 1180
costly 1180
formul@@ 1180
Mah@@ 1179
aux 1179
cache 1179
hop@@ 1179
talent 1179
execute 1178
feasible 1178
musicians 1178
p.m 1178
prints 1178
rob@@ 1178
wanting 1178
Sig@@ 1177
enforce 1177
foodstuffs 1177
stering 1177
Bed 1176
SK 1176
cla@@ 1176
Sim@@ 1175
exacerb@@ 1175
introduces 1175
modification 1175
Ag@@ 1174
Ram@@ 1174
Saudi 1174
Top 1174
booth 1174
disappear 1174
inci@@ 1174
multinational 1174
oes 1174
Herzegovina 1173
counting 1173
trials 1173
universe 1173
Haiti 1172
IX 1172
Mark@@ 1172
ROM 1172
ais 1172
visibility 1172
dramatically 1171
warrant 1171
Terrace 1170
problematic 1170
program@@ 1170
Ö@@ 1170
Mis@@ 1169
Neu@@ 1169
sco@@ 1169
tn@@ 1169
83 1168
S. 1168
defeat 1168
ideology 1168
matches 1168
precautionary 1168
OSCE 1167
cross@@ 1167
elegance 1167
mount 1167
organs 1167
preserving 1167
pushed 1167
ranges 1167
textiles 1167
84 1166
Riviera 1166
attempted 1166
drew 1166
floods 1166
Louis 1165
Str@@ 1165
blocking 1165
cc@@ 1165
fulfilling 1165
gres@@ 1165
mineral 1165
wei@@ 1165
Provi@@ 1164
Rhine 1164
Sierra 1164
customized 1164
giant 1164
understandable 1164
Il@@ 1163
SY@@ 1163
advised 1163
lifting 1163
mented 1163
tioned 1163
uter 1163
Ed@@ 1162
continuity 1162
inappropriate 1162
sends 1162
configured 1161
earthquake 1161
encourages 1161
shooting 1161
stroll 1161
Ke@@ 1160
Max 1160
Wellness 1160
advisory 1160
elli 1160
hyper@@ 1160
mid@@ 1160
pt 1160
vessel 1160
fragile 1159
loan 1159
villas 1159
C. 1158
inspections 1158
justi@@ 1158
master@@ 1158
án 1158
boy 1157
gy@@ 1157
persu@@ 1157
rs 1157
BA 1156
Cl@@ 1156
Relations 1156
arri@@ 1156
coordinating 1156
distinguish 1156
Mart@@ 1155
carte 1155
lls 1155
Dry 1154
bus@@ 1154
diplomacy 1154
draws 1154
eive 1154
Land@@ 1153
Les 1153
PE 1153
camping 1153
daughter 1153
A.@@ 1152
Again 1152
Cir@@ 1152
bab@@ 1152
cus 1152
remin@@ 1152
DR@@ 1151
Ur@@ 1151
complementary 1151
convic@@ 1151
improves 1151
A. 1150
Bridge 1149
Kra@@ 1149
Patten 1149
ept 1149
gra 1149
psych@@ 1149
spreading 1149
dered 1148
packed 1148
ual 1148
Ay@@ 1147
Coast 1147
seaside 1147
stly 1147
eil 1146
genocide 1146
num@@ 1146
sibility 1146
variables 1146
visu@@ 1146
EB@@ 1145
Laundry 1145
List 1145
della 1145
iler 1145
legendary 1145
macroeconomic 1145
ray 1145
Especially 1144
headed 1144
initiate 1144
menus 1144
shell 1144
termin@@ 1144
CDs 1143
austerity 1143
eption 1143
insert 1143
lou@@ 1143
persecution 1143
Sie 1142
crus@@ 1142
etc. 1142
orious 1142
Articles 1141
CA 1141
alty 1141
concessions 1141
conscience 1141
painful 1141
thi@@ 1141
EIB 1140
distinct 1140
inequalities 1140
mixture 1140
ord@@ 1140
organising 1140
origins 1140
palace 1140
static 1140
vable 1140
Slovak 1139
barrier 1139
bo 1139
chamber 1139
construct 1139
lica 1139
reader 1139
stayed 1139
ès 1139
Freedom 1138
Indi@@ 1138
RSS 1138
asting 1138
ceremony 1138
newest 1138
settle 1138
tons 1138
council 1137
inland 1137
peripheral 1137
predic@@ 1137
pushing 1137
stically 1137
tournament 1137
yo 1137
Hague 1136
Michel 1136
attitudes 1136
completing 1136
escal@@ 1136
irregularities 1136
layers 1136
new@@ 1136
protectionism 1136
Lim@@ 1135
calcul@@ 1135
horses 1135
invoice 1135
quali@@ 1135
350 1134
credits 1134
ids 1134
stresses 1134
toxic 1134
upload 1134
DS@@ 1133
GMOs 1133
atri@@ 1133
definite 1133
dossier 1133
seas 1133
Equ@@ 1132
Liberals 1132
emotional 1132
protects 1132
ung 1132
Reserve 1131
ando 1131
ret@@ 1131
transnational 1131
Eff@@ 1130
Fle@@ 1130
Schulz 1130
Ticket 1130
Under@@ 1130
dive 1130
oli@@ 1130
penet@@ 1130
topical 1130
Bulgarian 1129
gal@@ 1129
keyboard 1129
law@@ 1129
onian 1129
xi@@ 1129
Village 1128
confidentiality 1128
preparatory 1128
psychological 1128
Capital 1127
complimentary 1127
encing 1127
main@@ 1127
ria 1127
weakness 1127
essing 1126
ji@@ 1126
samples 1126
sightseeing 1126
ALE 1125
Look 1125
Ober@@ 1125
anyway 1125
conducting 1125
fun@@ 1125
officer 1125
privileges 1125
rounds 1125
PH@@ 1124
cin@@ 1124
sett@@ 1124
transported 1124
Easy 1123
Islam@@ 1123
Political 1123
activists 1123
deser@@ 1123
itali@@ 1123
ume 1123
Cle@@ 1122
LCD 1122
facilitating 1122
insul@@ 1122
loo@@ 1122
reb@@ 1122
resol@@ 1122
tackled 1122
Edinburgh 1121
Ukrainian 1121
aving 1121
rear 1121
exemption 1120
kit@@ 1120
persuade 1120
reminded 1120
unt@@ 1120
Depending 1119
correction 1119
disadvantaged 1119
intent 1119
withdrawn 1119
Inc 1118
VIP 1118
clas@@ 1118
poorer 1118
Young 1117
ancy 1117
photo@@ 1117
repercussions 1117
ski@@ 1117
speculation 1117
§ 1117
Cleaning 1116
Post 1116
bla@@ 1116
din 1116
stence 1116
Kurdish 1115
NEW 1115
chair@@ 1115
developer 1115
evaluated 1115
insur@@ 1115
posing 1115
refurbished 1115
retained 1115
tan 1115
Lag@@ 1114
ope 1114
organisms 1114
serial 1114
1970 1113
ALDE 1113
UL@@ 1113
classified 1113
dress 1113
illness 1113
licensed 1113
theast 1113
Valencia 1112
featured 1112
grid 1112
listing 1112
sav@@ 1112
seed 1112
2015 1111
exam@@ 1111
pine 1111
scar@@ 1111
uty 1111
persi@@ 1110
.net 1109
Pic@@ 1109
buyer 1109
mad 1109
shots 1109
turn@@ 1109
Mountain 1108
banana 1108
bugs 1108
cooperative 1108
productions 1108
vising 1108
Richard 1107
Sac@@ 1107
Bru@@ 1106
Environmental 1106
Sav@@ 1106
aro@@ 1106
commands 1106
legacy 1106
patch 1106
sorts 1106
weaknesses 1106
Cli@@ 1105
Verheugen 1105
defines 1105
tied 1105
valued 1105
Engineering 1104
enemies 1104
relevance 1104
Canary 1103
Corporation 1103
Wikicars 1103
documented 1103
elev@@ 1103
elimination 1103
meter 1103
oll@@ 1103
broadcast 1102
buttons 1102
heim 1102
modifications 1102
pursuit 1102
ž@@ 1102
aston@@ 1101
crimin@@ 1101
eur 1101
lows 1101
pricing 1101
tag 1101
vertical 1101
convey 1100
couples 1100
fasc@@ 1100
responded 1100
studying 1100
1990s 1099
classi@@ 1099
debts 1099
positively 1099
successes 1099
LT 1098
attraction 1098
bicycle 1098
brutal 1098
healing 1098
sau@@ 1098
Med@@ 1097
batteries 1097
confidential 1097
contradiction 1097
enshrined 1097
Organ@@ 1096
Photocopying 1096
aluminium 1096
baggage 1096
bin 1096
deliberately 1096
downloads 1096
taining 1096
utor 1096
commend 1095
devi@@ 1095
temporarily 1095
bal 1094
dity 1094
inviting 1094
launching 1094
rup@@ 1094
Hussein 1093
acci@@ 1093
margin@@ 1093
ull 1093
Account 1092
Whatever 1092
belie@@ 1092
diversi@@ 1092
maker 1092
pig@@ 1092
rot@@ 1092
Looking 1091
commodity 1091
diagnosis 1091
hairdryer 1091
lifelong 1091
overnight 1091
tal@@ 1091
URL 1090
chi 1090
detect 1090
portion 1090
volumes 1090
79 1089
diet 1089
eliminating 1089
metals 1089
objections 1089
ordering 1089
Building 1087
Want 1087
accessed 1087
accessibility 1087
mess@@ 1087
tunnel 1087
employ 1086
Close 1085
ación 1085
dt 1085
gical 1085
retro@@ 1085
terraces 1085
Cur@@ 1084
Pack@@ 1084
deck 1084
ops 1084
AP 1083
Catholic 1083
On@@ 1083
Supp@@ 1083
burning 1083
socialist 1083
PD@@ 1082
design@@ 1082
gambling 1082
var@@ 1082
Class 1081
Fal@@ 1081
Fischler 1081
Nobel 1081
Nothing 1081
break@@ 1081
comb@@ 1081
readers 1081
warran@@ 1081
Users 1080
anticipated 1080
hunting 1080
imperi@@ 1080
liberty 1080
mption 1080
scripts 1080
wel 1080
Recently 1079
Continu@@ 1078
Tampere 1078
container 1078
counted 1078
rhetoric 1078
sleeping 1078
tran@@ 1078
wholly 1078
Mallorca 1077
Samsung 1077
aks 1077
brea@@ 1077
conservative 1077
instant 1077
pressures 1077
selec@@ 1077
AK@@ 1076
accountable 1076
ede 1076
emergence 1076
shorter 1076
statutory 1076
thou 1076
è 1076
Ass@@ 1075
affair 1075
complied 1075
fat 1075
highway 1075
there@@ 1075
tible 1075
fut@@ 1074
sequence 1074
settlements 1074
threaten 1074
wedding 1074
PAR@@ 1072
admire 1072
check@@ 1072
compiled 1072
retention 1072
ux 1072
Exhibition 1071
comfortably 1071
midst 1071
traditionally 1071
Conc@@ 1070
Leipzig 1070
Nokia 1070
ax@@ 1070
disappeared 1070
regulating 1070
ESS 1069
Solutions 1069
Marketing 1068
Mountains 1068
Oper@@ 1068
fastest 1068
galleries 1068
ium 1068
jet 1068
qualification 1068
sheep 1068
surfaces 1068
Pin@@ 1067
aspirations 1067
ckers 1067
compet@@ 1067
harder 1067
matic 1067
subjec@@ 1067
timing 1067
educ@@ 1066
pedestrian 1066
relie@@ 1066
smallest 1066
fers 1065
gic 1065
installer 1065
optimized 1065
paint 1065
recti@@ 1065
yiel@@ 1065
AF@@ 1064
Bir@@ 1064
Ref 1064
Upon 1064
beside 1064
decoration 1064
instances 1064
Kon@@ 1063
MEP 1063
alleged 1063
billions 1063
economical 1063
moon 1063
priori@@ 1063
Dol@@ 1062
bert 1062
formerly 1062
institute 1062
liquidity 1062
pragmatic 1062
quoted 1062
110 1061
Globalisation 1061
NE@@ 1061
Times 1061
concent@@ 1061
cular 1061
disadvantage 1061
shortage 1061
ounce 1060
partic@@ 1060
Chan@@ 1059
acknowled@@ 1059
altitude 1059
fossil 1059
furnishings 1059
grams 1059
surgery 1059
Vel@@ 1058
coach 1058
ements 1058
licences 1058
otel 1058
pedi@@ 1058
Fortunately 1057
GUE 1057
directors 1057
fically 1057
premi@@ 1057
Dam@@ 1056
EM 1056
Ori@@ 1056
envis@@ 1056
fav@@ 1056
gon@@ 1056
viruses 1056
smoke 1055
thirds 1055
Update 1054
diesel 1054
high@@ 1054
ref@@ 1054
180 1053
alarming 1053
artic@@ 1053
correspond 1053
definitive 1053
mood 1053
toys 1053
Airlines 1052
CR@@ 1052
Light 1052
Oc@@ 1052
accommodations 1052
detected 1052
shame 1052
stream@@ 1052
Along 1051
auch 1051
auto 1051
literally 1051
nutrition 1051
transform 1051
tro 1051
worlds 1051
Pr@@ 1050
advan@@ 1050
alogues 1050
contem@@ 1050
stricter 1050
Arti@@ 1049
Land 1049
cat 1049
experiments 1049
gathering 1049
ati 1048
capitalist 1048
hip 1048
landing 1048
six@@ 1048
Revolution 1047
embargo 1047
thesis 1047
vibrant 1047
HP 1046
Ky@@ 1046
concep@@ 1046
gla@@ 1046
recru@@ 1046
blan@@ 1045
depic@@ 1045
inary 1045
mitig@@ 1045
vig@@ 1045
Additional 1044
detriment 1044
lap@@ 1044
livestock 1044
orial 1044
painted 1044
resist 1044
Ah@@ 1043
Resolution 1043
ambiguous 1043
ern 1043
interven@@ 1043
invasion 1043
resp@@ 1043
som@@ 1043
Contrac@@ 1042
compla@@ 1042
organ 1042
vel 1042
Porto 1041
boom 1041
outer 1041
spam 1041
transpor@@ 1041
Afghan 1040
Marco 1040
centrali@@ 1040
grain 1040
question@@ 1040
shoulder 1040
CC 1039
Dr 1039
Force 1039
Zi@@ 1039
beautifully 1039
bis 1039
ckets 1039
compli@@ 1039
entary 1039
forever 1039
lad@@ 1039
sooner 1039
Hom@@ 1038
Quite 1038
VI 1038
ace@@ 1038
deterior@@ 1038
geared 1038
grey 1038
road@@ 1038
apped 1037
bic 1037
outline 1037
pap@@ 1037
prevail 1037
sty@@ 1037
utter 1037
1988 1036
Il 1036
Santer 1036
aboli@@ 1036
constituency 1036
fitting 1036
frames 1036
mag@@ 1036
real@@ 1036
Army 1035
Germans 1035
Warsaw 1035
ears 1035
gaps 1035
incurred 1035
lifts 1035
Certainly 1034
beneficiaries 1034
class@@ 1034
formulated 1034
hat 1034
hoping 1034
legitim@@ 1034
noble 1034
ship@@ 1034
strongest 1034
tender 1034
Croatian 1033
Future 1033
Stra@@ 1033
bold 1033
democratisation 1033
households 1033
inated 1033
singer 1033
displaced 1032
lum@@ 1032
mothers 1032
parent 1032
virtu@@ 1032
Forest 1031
Pool 1031
momentum 1031
quantitative 1031
restriction 1031
tle 1031
turnover 1031
Man 1030
Not@@ 1030
fundament@@ 1030
reveals 1030
vegetable 1030
Docum@@ 1029
Timor 1029
aer@@ 1029
deployed 1029
financially 1029
measurements 1029
negligence 1029
pay@@ 1029
pho@@ 1029
tiveness 1029
Ul@@ 1028
cabin 1028
cultivation 1028
duly 1028
gia 1028
human@@ 1028
Ant@@ 1027
biotechnology 1027
exquisite 1027
html 1027
pit@@ 1027
tuna 1027
500@@ 1026
Film 1026
chip 1026
depl@@ 1026
establishes 1026
liberalization 1026
luggage 1026
possession 1026
prof@@ 1026
Long 1025
routine 1025
suits 1025
Bus@@ 1024
criticisms 1024
enza 1024
mitting 1024
prin@@ 1024
intimate 1023
mut@@ 1023
nearest 1023
oxi@@ 1023
segments 1023
Call 1022
Guinea 1022
enfor@@ 1022
fusion 1022
injury 1022
replacing 1022
unter 1022
varying 1022
Es@@ 1021
NOT 1021
automobile 1021
baths 1021
issuing 1021
opera 1021
por 1021
tations 1021
Börse 1020
Mol@@ 1020
anc@@ 1020
cians 1020
ppy 1020
ré@@ 1020
sidents 1020
Age 1019
SI 1019
clari@@ 1019
dres@@ 1019
guiding 1019
tism 1019
bund@@ 1018
clarified 1018
realities 1018
screening 1018
Diam@@ 1017
Ven@@ 1017
compensate 1017
crop 1017
exotic 1017
signatures 1017
stell@@ 1017
aments 1016
eling 1016
ingu@@ 1016
lage 1016
pity 1016
thrown 1016
voltage 1016
Taliban 1015
altogether 1015
dear 1015
electro@@ 1015
eliminated 1015
verb@@ 1015
â@@ 1015
130 1014
Spirit 1014
alli@@ 1014
ax 1014
buffer 1014
een 1014
entation 1014
hec@@ 1014
industri@@ 1014
loads 1014
algorith@@ 1013
imagination 1013
indic@@ 1013
manually 1013
nicht 1013
propaganda 1013
ruins 1013
tariffs 1013
Fon@@ 1012
Serbian 1012
humane 1012
jum@@ 1012
3.5 1011
Later 1011
cathedral 1011
confronted 1011
decides 1011
ein@@ 1011
goo@@ 1011
Caucasus 1010
circul@@ 1010
collecting 1010
congress 1010
ferry 1010
pris@@ 1010
ranks 1010
vulnerability 1010
Sarkozy 1009
nic@@ 1009
Brok 1008
burdens 1008
cut@@ 1008
donation 1008
osity 1008
Bis@@ 1007
Instruments 1007
Save 1007
accompany 1007
aders 1007
decor@@ 1007
eping 1007
ferred 1007
injection 1007
lateral 1007
memories 1007
punished 1007
random 1007
sand@@ 1007
shut 1007
til@@ 1007
Iceland 1006
arena 1006
dening 1006
eck 1006
inser@@ 1006
len 1006
mem@@ 1006
passport 1006
и@@ 1006
Below 1005
Credit 1005
Summer 1005
TE 1005
Monti 1004
Version 1004
ag 1004
appropriately 1004
defended 1004
discriminatory 1004
legisl@@ 1004
nec@@ 1004
portable 1004
slight 1004
precedent 1003
respon@@ 1003
tailor 1003
tos 1003
Arena 1002
Côte 1002
Develop@@ 1002
Incre@@ 1002
Palma 1002
Technologies 1002
attacked 1002
criticised 1002
devastating 1002
hen@@ 1002
inch 1002
jec@@ 1002
journalist 1002
slide 1002
Egyptian 1001
Liberties 1001
contamination 1001
distinctive 1001
haus 1001
prohi@@ 1001
recipient 1001
snacks 1001
breast 1000
cost@@ 1000
einer 1000
iPod 1000
Madeira 999
Nu@@ 999
Ret@@ 999
encountered 999
festivals 999
hygiene 999
lend 999
queries 999
tionality 999
ão 999
Athens 998
Dolomites 998
Questions 998
aband@@ 998
ares 998
ura 998
ao 997
assumption 997
demonstrating 997
enjoyable 997
ented 997
hospitals 997
isi@@ 997
municipal 997
rehabilitation 997
transposition 997
Micro@@ 996
Sales 996
Yesterday 996
cream 996
sei@@ 996
sever@@ 996
thor@@ 996
Bl@@ 995
Theatre 995
clim@@ 995
illegally 995
long@@ 995
od 995
stan@@ 995
vian 995
Gift 994
corresponds 994
dei 994
dryer 994
forecasts 994
minded 994
treating 994
IBM 993
Mount 993
astic 993
oured 993
postponed 993
saf@@ 993
Medical 992
cure 992
enforced 992
factories 992
grat@@ 992
lical 992
zzo 992
Dri@@ 991
End 991
catalog 991
lay@@ 991
modular 991
negoti@@ 991
panorama 991
publi@@ 991
shes 991
spra@@ 991
updating 991
aults 990
generates 990
harmonise 990
overseas 990
remo@@ 990
solo 990
tivities 990
Institu@@ 989
Russians 989
appalling 989
conve@@ 989
earnings 989
identi@@ 989
mot@@ 989
pesticides 989
vals 989
Meas@@ 988
Vit@@ 988
accomplished 988
advocates 988
backup 988
dark@@ 988
experiment 988
popularity 988
Banquet 987
Sri 987
Tem@@ 987
accoun@@ 987
bis@@ 987
broadband 987
chart 987
chers 987
grace 987
polis 987
vague 987
Airconditioning 986
dropped 986
vent@@ 986
Lab@@ 985
Mir@@ 985
ecommerce 985
establishments 985
fair@@ 985
infection 985
lining 985
magazines 985
proofed 985
Balkan 984
CS@@ 984
Cin@@ 984
Comple@@ 984
Ir@@ 984
Tel 984
biofuels 984
coastline 984
educated 984
esta 984
recur@@ 984
05@@ 983
Basi@@ 983
Captain 983
indul@@ 983
mounting 983
pling 983
substitute 983
Large 982
Mar 982
Pur@@ 982
Zealand 982
commission@@ 982
dened 982
dying 982
ected 982
ethics 982
expects 982
gui@@ 982
omm@@ 982
swi@@ 982
boys 981
devote 981
din@@ 981
emphasises 981
guitar 981
materi@@ 981
night@@ 981
reward 981
wheels 981
File 980
archives 980
judged 980
judiciary 980
teenth 980
Arctic 979
Learning 979
alia 979
coating 979
escap@@ 979
mail@@ 979
predictable 979
verification 979
C4 978
Initiative 978
auction 978
dently 978
oasis 978
sus 978
violated 978
10th 977
Advanced 977
Competition 977
EG@@ 977
Still 977
irresponsible 977
uniqu@@ 977
verified 977
worthwhile 977
13th 976
Bot@@ 976
Game 976
Milosevic 976
SDL 976
Universal 976
ali 976
autom@@ 976
enced 976
favor 976
ling@@ 976
mild 976
mountain@@ 976
placement 976
red@@ 976
stret@@ 976
vi 976
anim@@ 975
construc@@ 975
dev 975
failures 975
individu@@ 975
purchases 975
righ@@ 975
severely 975
Likewise 974
attending 974
aul@@ 974
milit@@ 974
rous 974
vers@@ 974
ř@@ 974
Elec@@ 973
bio 973
competitions 973
dev@@ 973
jun@@ 973
nationality 973
1980s 972
Far 972
Plat@@ 972
Wol@@ 972
abolished 972
deter@@ 972
flood 972
intensity 972
optimistic 972
protein 972
Buyer 971
Darfur 971
Division 971
Os@@ 971
adapting 971
excluding 971
lei@@ 971
locate 971
organ@@ 971
Directors 970
Drive 970
Seville 970
accommod@@ 970
cus@@ 970
ellers 970
fest 970
gg@@ 970
promptly 970
stretch 970
barely 969
feeding 969
fiable 969
loud 969
nationalism 969
networking 969
tanks 969
wholeheartedly 969
FR@@ 968
mails 968
opp@@ 968
regi@@ 968
servatory 968
iring 967
marble 967
rel 967
tank 967
Any@@ 966
LED 966
Ski 966
brilliant 966
concluding 966
designing 966
nightlife 966
zia 966
6th 965
A3@@ 965
ario 965
block@@ 965
dest@@ 965
dish 965
sixth 965
Deb@@ 964
Lounge 964
Tibetan 964
architect 964
closest 964
kar@@ 964
multiannual 964
recommends 964
Blo@@ 963
CP 963
coupled 963
ested 963
graphy 963
metro@@ 963
pper 963
acks 962
civilisation 962
consultants 962
hosted 962
phenomena 962
CO 961
COD 961
alter@@ 961
anno@@ 961
architects 961
denom@@ 961
deterioration 961
haz@@ 961
stainless 961
thir@@ 961
Has 960
V. 960
alistic 960
cool@@ 960
exported 960
folk 960
hil@@ 960
notify 960
posting 960
å@@ 960
entails 959
flower 959
footing 959
lan 959
likewise 959
locked 959
recep@@ 959
respec@@ 959
scandal 959
ć 959
Auto@@ 958
Fourthly 958
Help 958
Sin@@ 958
organizing 958
privilege 958
screens 958
sided 958
weak@@ 958
9001 957
awaiting 957
blin@@ 957
contribut@@ 957
misleading 957
mou@@ 957
onal 957
resident 957
sectoral 957
submitting 957
additives 956
chains 956
competing 956
free@@ 956
quet 956
thwest 956
Dem@@ 955
Israelis 955
Source 955
cour@@ 955
drag 955
exert 955
gratitude 955
io 955
bac@@ 954
birthday 954
monopolies 954
mutually 954
seller 954
suspect 954
Rein@@ 953
blow 953
consul@@ 953
ik@@ 953
ires 953
uncertain 953
urged 953
use@@ 953
bulk 952
disparities 952
plot 952
transl@@ 952
ue 952
ör@@ 952
Sax@@ 951
aesthetic 951
descriptions 951
destroying 951
heav@@ 951
imag@@ 951
trage@@ 951
vor 951
7th 950
Bus 950
Chem@@ 950
erup@@ 950
journ@@ 950
multitude 950
pets 950
simpler 950
uphold 950
FC 949
Venezuela 949
burn 949
dient 949
iss@@ 949
licensing 949
past@@ 949
sons 949
tranquil 949
Bonn 948
Ear@@ 948
Goals 948
accurately 948
eda 948
encouragement 948
influences 948
merchan@@ 948
resear@@ 948
rises 948
rum 948
cially 947
distances 947
dom 947
mac@@ 947
privati@@ 947
radioactive 947
somehow 947
tie 947
motivation 946
occup@@ 946
ranking 946
sustain 946
understands 946
wash@@ 946
wonder@@ 946
geable 945
laim@@ 945
occurring 945
tasty 945
unequi@@ 945
Play 944
refreshing 944
scop@@ 944
yea 944
Š@@ 944
BS 943
Mach@@ 943
TM 943
ached 943
acute 943
formali@@ 943
humili@@ 943
remark 943
unite 943
06@@ 942
1986 942
Enter 942
Syn@@ 942
alle 942
corrected 942
merit 942
rigid 942
sy 942
terrain 942
tune 942
Bou@@ 941
abortion 941
condemnation 941
confront 941
crash 941
desert 941
expresses 941
gency 941
logy 941
ners 941
possess 941
sciences 941
stal@@ 941
successor 941
Bau@@ 940
GM 940
Pon@@ 940
embry@@ 940
exceeded 940
lawyer 940
organis@@ 940
sl@@ 940
Monte 939
bond 939
chaos 939
forbidden 939
proph@@ 939
sage 939
Currency 938
GR@@ 938
Installation 938
Istanbul 938
Production 938
conceived 938
deliveries 938
exhaus@@ 938
lit@@ 938
matching 938
sensi@@ 938
submission 938
vocal 938
Level 937
anymore 937
bridges 937
disability 937
episode 937
inherent 937
lling 937
thick 937
variations 937
D. 936
Intel 936
Sah@@ 936
anne@@ 936
frozen 936
recruitment 936
reiter@@ 936
sensors 936
Publi@@ 935
achiev@@ 935
density 935
lacks 935
stipul@@ 935
void 935
adhere 934
arities 934
bre 934
commissioned 934
contradic@@ 934
economists 934
gentle 934
grav@@ 934
lihood 934
olds 934
subsidiaries 934
Hand@@ 933
Nav@@ 933
bottle 933
comitology 933
host@@ 933
oming 933
towels 933
univers@@ 933
zy@@ 933
ava 932
shipment 932
Accordingly 931
Nord 931
destabili@@ 931
exercises 931
home@@ 931
incredibly 931
mankind 931
passive 931
trace 931
varieties 931
NGL 930
Railway 930
assemb@@ 930
aver@@ 930
cky 930
elli@@ 930
sex@@ 930
speeds 930
KG 929
PER@@ 929
adjacent 929
cle 929
gering 929
ka@@ 929
motto 929
sich 929
theater 929
xenophobia 929
SD 928
dable 928
distortion 928
fathers 928
genic 928
jeopardi@@ 928
minibar 928
nick@@ 928
servants 928
utes 928
SL@@ 927
VE 927
lush 927
pes 927
stran@@ 927
template 927
CL@@ 926
Mich@@ 926
administrations 926
evenings 926
reproductive 926
springs 926
ATION 925
Palacio 925
Type 925
antique 925
attracted 925
cane 925
emplo@@ 925
fier 925
impressed 925
personalized 925
tram 925
zo 925
Baroness 924
SH@@ 924
axis 924
casting 924
internally 924
rene@@ 924
techn@@ 924
Ford 923
Hot@@ 923
Super 923
anybody 923
avec 923
disappointment 923
inte@@ 923
ison 923
moratorium 923
persistent 923
Canadian 922
Esp@@ 922
Holland 922
ature 922
diam@@ 922
fen@@ 922
illu@@ 922
moul@@ 922
о@@ 922
Jan 921
assu@@ 921
capita 921
defect 921
jk 921
lit 921
mani@@ 921
pass@@ 921
seaf@@ 921
spark@@ 921
Kir@@ 920
Tuscany 920
celebration 920
exclu@@ 920
inability 920
offences 920
е 920
Learn 919
Scientific 919
administrator 919
favoured 919
happ@@ 919
С@@ 919
Word 918
disc 918
ei 918
fici@@ 918
flora 918
purchaser 918
screen@@ 918
tful 918
ticism 918
wearing 918
Respon@@ 917
expecting 917
ineffective 917
pump 917
therap@@ 917
timber 917
tus 917
.The 916
Local 916
Mes@@ 916
deta@@ 916
experimental 916
halls 916
orient@@ 916
phases 916
positioned 916
salaries 916
tissue 916
undermining 916
а@@ 916
CD@@ 915
calculations 915
courtyard 915
municipality 915
sentences 915
140 914
CFSP 914
abolish 914
injured 914
mill 914
restoring 914
shaping 914
soli@@ 914
1,000 913
Almost 913
deprived 913
fleets 913
nam@@ 913
outs@@ 913
shores 913
solarium 913
contracting 912
dimensional 912
ector 912
horri@@ 912
indicating 912
matched 912
seeds 912
trau@@ 912
utable 912
14th 911
300@@ 911
Kno@@ 911
Thai 911
backdrop 911
boutique 911
chapters 911
discou@@ 911
echo@@ 911
eme@@ 911
gle@@ 911
lav@@ 911
spot@@ 911
studios 911
suspend 911
.ch 910
EV@@ 910
Mand@@ 910
appropri@@ 910
conception 910
fabulous 910
fel@@ 910
interpret 910
postp@@ 910
reformed 910
secular 910
trendy 910
Cuban 909
dealer 909
finger 909
live@@ 909
locating 909
robots 909
stered 909
sudden 909
CAD 908
Düsseldorf 908
LAN 908
Sant 908
distur@@ 908
foreseen 908
nbsp 908
ssi@@ 908
tends 908
termination 908
therapeutic 908
trigger 908
ulated 908
1987 907
Customs 907
DI 907
Sab@@ 907
Sports 907
dan 907
drawings 907
recreational 907
Ale@@ 906
Ironing 906
assumes 906
bookings 906
eggs 906
minors 906
photographer 906
Jacques 905
ech@@ 905
sel 905
thly 905
varies 905
writers 905
ycle 905
Fif@@ 904
Mit@@ 904
appoint 904
bikes 904
eva 904
reflecting 904
£ 904
Rock 903
approxim@@ 903
confused 903
dealers 903
endo@@ 903
eti@@ 903
modernis@@ 903
recreation 903
refund 903
seasonal 903
thirdly 903
zen 903
Back 902
Father 902
Sup@@ 902
ames 902
mature 902
IL 901
RI 901
acid 901
basin 901
esa 901
exagger@@ 901
exer@@ 901
nia 901
ologies 901
Kat@@ 900
emotions 900
explanatory 900
harsh 900
incomplete 900
kin@@ 900
lot@@ 900
scienti@@ 900
subsidy 900
succ@@ 900
ô@@ 900
Bet@@ 899
compan@@ 899
confined 899
gor@@ 899
storm 899
API 898
Copyright 898
Ry@@ 898
anch@@ 898
anna 898
arily 898
recy@@ 898
scan 898
Taking 897
arre@@ 897
awa@@ 897
jan 897
strations 897
tongue 897
3.0 896
dare 896
deregulation 896
dur@@ 896
pa 896
unclear 896
zoom 896
1985 895
Nazi 895
conven@@ 895
lity 895
petition 895
sement 895
tier 895
Arabia 894
Gri@@ 894
Hin@@ 894
Watch 894
charging 894
chronic 894
simulation 894
Tal@@ 893
ae 893
approaching 893
forcing 893
remit 893
swift 893
tica 893
Five 892
Olympus 892
ees 892
frankly 892
mittedly 892
Commerce 891
applicants 891
dependency 891
diameter 891
stant 891
stimulating 891
Ga@@ 890
aren 890
immer@@ 890
manu@@ 890
opposing 890
ua 890
wins 890
yards 890
Cast@@ 889
defen@@ 889
interfere 889
realization 889
serv@@ 889
360 888
Gothic 888
atility 888
encryption 888
gies 888
jazz 888
lers 888
lifetime 888
likes 888
G20 887
acqu@@ 887
contradictory 887
exemplary 887
rus@@ 887
weaker 887
zy 887
Anim@@ 886
Maybe 886
Prof. 886
erti@@ 886
Works 885
ato@@ 885
echo 885
inserted 885
recognising 885
resume 885
sit@@ 885
specification 885
Auth@@ 884
Bavaria 884
Gau@@ 884
Police 884
bom@@ 884
dian 884
ino@@ 884
merits 884
omp@@ 884
qualitative 884
redundant 884
schol@@ 884
Arch@@ 883
José 883
Karl 883
Though 883
accessing 883
norms 883
populated 883
Malaysia 882
arisen 882
fireplace 882
Computer 881
GBP 881
earmarked 881
inau@@ 881
p.@@ 881
particip@@ 881
steady 881
Black@@ 880
Kinnock 880
Sand@@ 880
cup 880
flags 880
lengthy 880
nau@@ 880
persec@@ 880
sor 880
weaken 880
у@@ 880
anning 879
atics 879
draftsman 879
extract 879
fabrics 879
insecurity 879
linear 879
mixing 879
passage 879
promotional 879
Back@@ 878
Fol@@ 878
Vic@@ 878
aked 878
buil@@ 878
fortress 878
infected 878
pen 878
requesting 878
stle 878
yl 878
CF@@ 877
DR 877
LateRooms.com 877
REACH 877
anian 877
cken 877
ec 877
electorate 877
path@@ 877
peac@@ 877
1945 876
Bill 876
Francisco 876
Ok@@ 876
altered 876
chal@@ 876
critici@@ 876
critics 876
murdered 876
owe 876
rable 876
rum@@ 876
simplifying 876
1.2 875
11@@ 875
Basque 875
Cour@@ 875
Quark 875
aran 875
ceful 875
enchanting 875
geomet@@ 875
obligatory 875
peti@@ 875
scenarios 875
threatens 875
unded 875
EST 874
Tarifa 874
Verts 874
infin@@ 874
multinationals 874
nov@@ 874
prejudice 874
rocks 874
teeth 874
coin 873
facto 873
foreigners 873
ind@@ 873
oli 873
optimization 873
transi@@ 873
vegetation 873
captured 872
caution 872
fairs 872
filed 872
intermediate 872
masters 872
Available 871
GT@@ 871
Up@@ 871
adju@@ 871
alert 871
assuming 871
flour@@ 871
iti 871
occasionally 871
pluralism 871
slave 871
vocation 871
IR 870
Metro 870
Panasonic 870
Whenever 870
bli@@ 870
federation 870
func@@ 870
licenses 870
logi@@ 870
modi@@ 870
participant 870
Cit@@ 869
Lou@@ 869
Scottish 869
UM@@ 869
balancing 869
generic 869
pet 869
predecessor 869
sacrifice 869
translators 869
viewer 869
Der 868
Ty@@ 868
acres 868
containers 868
ech 868
fro@@ 868
undermined 868
versatile 868
в@@ 868
Daniel 867
Europa 867
Eurostat 867
Excellent 867
Queen 867
documentary 867
fast@@ 867
rejecting 867
strip 867
ê@@ 867
brigh@@ 866
differing 866
disappointing 866
investigated 866
methodology 866
prostitution 866
Official 865
codi@@ 865
eric 865
ure@@ 865
cooperating 864
correc@@ 864
rical 864
smoothly 864
symptoms 864
Cou@@ 863
Harbour 863
Neighbourhood 863
Starting 863
animation 863
anticip@@ 863
copper 863
picked 863
rali@@ 863
tut@@ 863
virtue 863
Smith 862
Sound 862
Tan@@ 862
Tokyo 862
acity 862
adop@@ 862
credited 862
earliest 862
fines 862
gladly 862
incoming 862
learnt 862
sexu@@ 862
straightforward 862
traceability 862
typ@@ 862
Slovenian 861
authoritarian 861
parliamentarians 861
proprietary 861
refuge 861
Dur@@ 860
colourful 860
cow 860
eks 860
highlighting 860
news@@ 860
rest@@ 860
swiftly 860
vention 860
wood@@ 860
Built 859
eses 859
expec@@ 859
nets 859
orange 859
shapes 859
Adjustment 858
Phot@@ 858
assisted 858
business@@ 858
govern@@ 858
nat@@ 858
Albanian 857
Exc@@ 857
Play@@ 857
binary 857
fairness 857
harmonization 857
mentioning 857
Application 856
Hal@@ 856
Review 856
William 856
cocktail 856
coup 856
fet@@ 856
incompatible 856
insofar 856
instruction 856
oun@@ 856
pec@@ 856
pered 856
zza 856
anonymous 855
dish@@ 855
enthusiastic 855
oils 855
plu@@ 855
promenade 855
sic 855
Ali@@ 854
Fir@@ 854
Regions 854
Various 854
bananas 854
bank@@ 854
conversation 854
laundry 854
let@@ 854
prefer@@ 854
privatisation 854
stipulated 854
thread 854
Direct 853
Rou@@ 853
Shanghai 853
ank 853
banning 853
cht 853
entirety 853
ext@@ 853
forecast 853
linen 853
py@@ 853
sick 853
vacc@@ 853
Relax 852
SL 852
criticise 852
husband 852
recital 852
sof@@ 852
wer@@ 852
Boh@@ 851
GU@@ 851
Get@@ 851
Nowadays 851
Renaissance 851
deposits 851
ik 851
indicator 851
ova 851
positioning 851
Classic 850
Follow 850
Inv@@ 850
Price 850
ago@@ 850
intermedi@@ 850
toll 850
ä@@ 850
Democrat 849
Key 849
chips 849
investor 849
manages 849
nan@@ 849
orph@@ 849
supposedly 849
Ele@@ 848
Jordan 848
Tam@@ 848
fund@@ 848
ions 848
longest 848
ologists 848
ool 848
recourse 848
stro 848
Brazilian 847
ILO 847
Ros@@ 847
agreeing 847
ave 847
cir@@ 847
honor 847
kon@@ 847
monastery 847
ordin@@ 847
seating 847
survi@@ 847
tv 847
veto 847
т@@ 847
Hitler 846
ados 846
distortions 846
icons 846
interrupted 846
mentation 846
onwards 846
professionalism 846
somebody 846
transferring 846
GE 845
Purch@@ 845
altern@@ 845
corrupt 845
exercised 845
hang 845
thetic 845
ultra@@ 845
B.@@ 844
broke 844
ont 844
po 844
refusing 844
rendered 844
steep 844
Bern@@ 843
Gate 843
diff@@ 843
eco@@ 843
foreseeable 843
fulfill 843
repe@@ 843
Connec@@ 842
FA@@ 842
Mugabe 842
any@@ 842
claiming 842
deri@@ 842
fting 842
judgments 842
onds 842
one@@ 842
reforming 842
round@@ 842
149 841
Adri@@ 841
Cz@@ 841
Frontex 841
Inclu@@ 841
Key@@ 841
hitherto 841
motiv@@ 841
onia 841
protocols 841
rolled 841
s.com 841
spor@@ 841
supplying 841
tiles 841
Apache 840
Bul@@ 840
Ibiza 840
Sound@@ 840
discounts 840
essors 840
scann@@ 840
Conciliation 839
Dar@@ 839
Wel@@ 839
berger 839
gifts 839
manipulation 839
neutrali@@ 839
optimize 839
slot 839
substantive 839
Motor@@ 838
Supreme 838
cand@@ 838
donations 838
gourmet 838
rations 838
rooted 838
salary 838
breaches 837
continu@@ 837
jump 837
nel 837
Communities 836
Das 836
Particip@@ 836
Provence 836
accelerate 836
destructive 836
dium 836
emph@@ 836
gur@@ 836
hath 836
lifted 836
princip@@ 836
Eli@@ 835
HR 835
Past@@ 835
assass@@ 835
cloning 835
college 835
consciousness 835
embar@@ 835
enta 835
excessively 835
ith 835
prevailing 835
unilater@@ 835
Coun@@ 834
Monitoring 834
W. 834
hydraulic 834
ks@@ 834
postpone 834
prosperous 834
Around 833
columns 833
jury 833
modern@@ 833
peaks 833
qualify 833
rac@@ 833
sadly 833
vir@@ 833
Clinton 832
Days 832
ENT@@ 832
Prince 832
Proc@@ 832
Throughout 832
console 832
dans 832
mil@@ 832
wet 832
Century 831
Garda 831
letting 831
lov@@ 831
magical 831
pas 831
rich@@ 831
time@@ 831
Bla@@ 830
Got@@ 830
Premium 830
Sky 830
bench@@ 830
chef 830
conduc@@ 830
ekeeping 830
mercury 830
politician 830
regulators 830
ront 830
Initi@@ 829
Machine 829
bomb 829
recordings 829
seal 829
stadt 829
tec 829
400@@ 828
Bundes@@ 828
Len@@ 828
Wo@@ 828
agi@@ 828
circles 828
courageous 828
fridge 828
reconcile 828
remembered 828
reunification 828
HS 827
commodities 827
desires 827
domains 827
elles 827
embark@@ 827
europ@@ 827
exhibitors 827
histori@@ 827
hops 827
ig 827
CAR@@ 826
Concerning 826
Mod@@ 826
bili@@ 826
cataly@@ 826
chron@@ 826
fashionable 826
found@@ 826
harmonious 826
inspectors 826
realisation 826
suspicion 826
vation 826
Es 825
TC 825
continents 825
dispat@@ 825
forti@@ 825
govern 825
happiness 825
hereby 825
kingdom 825
mechan@@ 825
operative 825
ority 825
risen 825
sten 825
sz@@ 825
Cambodia 824
Chair 824
DG 824
Pul@@ 824
abstract 824
adver@@ 824
advoc@@ 824
delightful 824
expressions 824
fifty 824
impa@@ 824
ja@@ 824
RS 823
brown 823
consultancy 823
warn 823
wns 823
Did 822
Naples 822
bets 822
cans 822
offensive 822
pumps 822
surveys 822
valleys 822
Prot@@ 821
Regi@@ 821
advocated 821
cosmetic 821
detrimental 821
fruitful 821
ho 821
mentions 821
refrain 821
suicide 821
tolerate 821
usable 821
Santiago 820
Steel 820
absent 820
comprising 820
deliberate 820
delight 820
pupils 820
surf 820
tern@@ 820
4,@@ 819
Already 819
Antonio 819
Audio 819
EGF 819
Oslo 819
Studies 819
dynamics 819
emen 819
kov@@ 819
og@@ 819
petrol 819
proactive 819
rez 819
ssa 819
stamp@@ 819
tub 819
DIN 818
aten 818
friendship 818
german 818
incorporating 818
HT@@ 817
amaz@@ 817
cel 817
oth@@ 817
yours 817
Kirk 816
chen@@ 816
constituents 816
publicity 816
underlined 816
unexpected 816
werden 816
Tex@@ 815
eld 815
hoc 815
instruc@@ 815
laptop 815
neg@@ 815
ousness 815
prob@@ 815
sens@@ 815
ttably 815
Assi@@ 814
Countries 814
Freedoms 814
PRO 814
affili@@ 814
copying 814
gent@@ 814
jack@@ 814
prizes 814
traces 814
underway 814
Little 813
SW@@ 813
Surely 813
Wat@@ 813
catastrophe 813
childhood 813
fauna 813
overla@@ 813
plastics 813
temple 813
attentive 812
connects 812
determines 812
etch 812
four@@ 812
frontier 812
hatred 812
iny 812
neighbour 812
spices 812
tones 812
traders 812
1979 811
CM@@ 811
DNA 811
Stock 811
asty 811
entail 811
oven 811
stries 811
uli@@ 811
CNS 810
Cop@@ 810
Date 810
G8 810
GO 810
ane@@ 810
evaluating 810
informing 810
intuitive 810
outlook 810
stabilisation 810
withstanding 810
Lar@@ 809
SIS 809
cap 809
employer 809
ministerial 809
questionable 809
seam@@ 809
suspected 809
Lev@@ 808
Nuclear 808
accesses 808
appealing 808
empire 808
interoperability 808
Beg@@ 807
Hop@@ 807
None 807
age@@ 807
expor@@ 807
prehen@@ 807
sty 807
Cubase 806
Rad@@ 806
adhe@@ 806
fat@@ 806
intellec@@ 806
molec@@ 806
playground 806
synthetic 806
5,@@ 805
FREE 805
benefited 805
bow@@ 805
ceilings 805
collectively 805
ctions 805
dict 805
dle 805
key@@ 805
obstruc@@ 805
unification 805
diversification 804
fr@@ 804
insisted 804
pts 804
wasn 804
ě@@ 804
450 803
RAM 803
cellar 803
demo 803
derivatives 803
hop 803
margins 803
pensioners 803
ake 802
duced 802
enda 802
gle 802
institutes 802
itiner@@ 802
powder 802
relatives 802
slaughter 802
Ful@@ 801
Gender 801
bil@@ 801
chas@@ 801
lag@@ 801
occupational 801
professions 801
prosecution 801
scho@@ 801
sson 801
utely 801
Ecofin 800
bow 800
frontiers 800
mediation 800
ologist 800
reinforcing 800
share@@ 800
Collection 799
DF 799
engineer 799
exporting 799
packing 799
part@@ 799
premature 799
sequ@@ 799
Jacuzzi 798
May@@ 798
TION 798
administ@@ 798
sity 798
successive 798
12th 797
Alber@@ 797
Eurex 797
HD@@ 797
Sir 797
Tools 797
bei 797
cautious 797
copy@@ 797
dentally 797
eleven 797
enthusiasts 797
tired 797
triple 797
yacht 797
Photo 796
Try 796
cave 796
infringements 796
kne@@ 796
multilingual 796
ough 796
patience 796
pel@@ 796
poorly 796
rant 796
readily 796
renovation 796
ring@@ 796
Chernobyl 795
ann 795
edges 795
gues 795
organisational 795
patented 795
shoe 795
thematic 795
Bed@@ 794
Mak@@ 794
Meg@@ 794
Upper 794
drastic 794
laundering 794
mobilisation 794
prem@@ 794
sentenced 794
strasse 794
strengthens 794
unchanged 794
Aires 793
Cala 793
Championship 793
Directorate 793
approving 793
delic@@ 793
derogation 793
ender 793
grows 793
handic@@ 793
holdings 793
idyllic 793
objection 793
rul@@ 793
weakened 793
Andreas 792
LAN@@ 792
aboard 792
disarmament 792
explaining 792
lea@@ 792
outlin@@ 792
ret 792
stimul@@ 792
strengths 792
Buenos 791
Frattini 791
SSL 791
behave 791
feld 791
presum@@ 791
seriousness 791
sister 791
subordin@@ 791
68@@ 790
FOR@@ 790
Kenya 790
alizing 790
awaits 790
dismantling 790
logos 790
switching 790
FS 789
acqui@@ 789
arc@@ 789
blend 789
influential 789
simpli@@ 789
tap 789
venues 789
Kit@@ 788
Maritime 788
aya 788
carriage 788
combinations 788
dozens 788
illustrate 788
isol@@ 788
judgement 788
offence 788
perc@@ 788
writes 788
Bell@@ 787
Gran@@ 787
Limited 787
Mexican 787
Near 787
Perspective 787
abide 787
acies 787
coloured 787
cyn@@ 787
forefront 787
imply 787
prisons 787
trucks 787
ALL 786
Lanzarote 786
Managing 786
SMS 786
anded 786
celebrations 786
chant 786
mali@@ 786
manipul@@ 786
pipe 786
precondition 786
quo 786
rus 786
Cav@@ 785
Chapter 785
Laeken 785
Lei@@ 785
Patri@@ 785
allocate 785
attributed 785
breakthrough 785
drop@@ 785
imprisoned 785
metre 785
neglected 785
sat 785
scenic 785
warned 785
1984 784
Gam@@ 784
Gold@@ 784
Ker@@ 784
Water@@ 784
absor@@ 784
anticipate 784
creatures 784
econom@@ 784
encrypted 784
holy 784
horny 784
leverage 784
underp@@ 784
M. 783
Techn@@ 783
anding 783
beginners 783
curious 783
exceeds 783
intolerable 783
lucky 783
religions 783
remuneration 783
unsatisfactory 783
Aid 782
Consulting 782
ambigu@@ 782
assy 782
attributes 782
manship 782
pixels 782
Cairo 781
Shar@@ 781
breath 781
fishery 781
font 781
honey 781
Hill 780
cio 780
copied 780
demic 780
els@@ 780
optimism 780
reflec@@ 780
Basic 779
Peru 779
Sit@@ 779
elect 779
emer@@ 779
incapable 779
juice 779
phi@@ 779
rebuild 779
revise 779
tabling 779
tag@@ 779
tch 779
Fat@@ 778
Winter 778
communicated 778
conformity 778
discrepan@@ 778
hoods 778
inventory 778
peninsula 778
resses 778
vil 778
FAQ 777
Van@@ 777
dou@@ 777
pit 777
priced 777
Hum@@ 776
Yugoslav 776
aph@@ 776
bration 776
gates 776
scores 776
signat@@ 776
0.0 775
MM@@ 775
disadvantages 775
disproportionate 775
hypocrisy 775
inciner@@ 775
ket 775
thrust 775
urity 775
zi 775
Speed 774
YOU 774
agen@@ 774
bedding 774
conductor 774
evalu@@ 774
sym@@ 774
10,000 773
ASEAN 773
ATA 773
Paragraph 773
brothers 773
completeness 773
discre@@ 773
disturbing 773
envel@@ 773
exemp@@ 773
exercising 773
pron@@ 773
sie 773
snack 773
truck 773
Lido 772
RES@@ 772
Sahara 772
brochure 772
deple@@ 772
excav@@ 772
lis 772
worn 772
you@@ 772
Hau@@ 771
Property 771
guest@@ 771
odds 771
petitions 771
precarious 771
predict 771
ICE 770
Premier 770
historically 770
ima@@ 770
pet@@ 770
radically 770
ratings 770
reas@@ 770
sharply 770
understand@@ 770
young@@ 770
Abu 769
IO 769
Journal 769
Mary 769
egoti@@ 769
enligh@@ 769
forge 769
gher 769
kitchenette 769
obe@@ 769
peculi@@ 769
suggesting 769
tee 769
Cube 768
Euros 768
Rus@@ 768
frequ@@ 768
informations 768
outbreak 768
reminds 768
thei@@ 768
ý 768
GM@@ 767
Love 767
accredi@@ 767
iner 767
woo@@ 767
С 767
Kh@@ 766
abstain 766
biking 766
exemptions 766
gestion 766
lean 766
recei@@ 766
scape 766
swim 766
Equality 765
Pierre 765
Prices 765
calculate 765
clearing 765
comprehen@@ 765
consuming 765
deepening 765
enrich@@ 765
idity 765
lah 765
mari@@ 765
turally 765
xx 765
0.000 764
Companies 764
Personally 764
accu@@ 764
amo 764
auer 764
confron@@ 764
millennium 764
nowhere 764
preview 764
realm 764
rier 764
spar@@ 764
stup@@ 764
IK@@ 763
Tool 763
analysed 763
coa 763
extensions 763
famili@@ 763
gesture 763
junior 763
monument 763
ration@@ 763
redundancies 763
tournaments 763
trium@@ 763
INTER@@ 762
Magic 762
Stay 762
champion 762
dedication 762
dot@@ 762
forgetting 762
impor@@ 762
jer@@ 762
nominated 762
stock@@ 762
Dun@@ 761
ECHO 761
Juan 761
Son@@ 761
ank@@ 761
architec@@ 761
castles 761
consequ@@ 761
counters 761
deposi@@ 761
emails 761
observer 761
rally 761
reassure 761
refin@@ 761
slope 761
р@@ 761
Anna 760
Beauty 760
Belar@@ 760
Fun@@ 760
Sici@@ 760
VER@@ 760
enth@@ 760
immune 760
lesser 760
paraly@@ 760
tastes 760
thou@@ 760
1960 759
Commun@@ 759
Store 759
bes@@ 759
compile 759
corners 759
dissemin@@ 759
isons 759
Customers 758
LateRooms 758
Ron@@ 758
assembled 758
cluster 758
composer 758
depar@@ 758
milestone 758
steering 758
En 757
Run@@ 757
atically 757
beliefs 757
cone 757
confrontation 757
constra@@ 757
cratic 757
distingu@@ 757
iger 757
loose 757
neck 757
odi@@ 757
profitability 757
royal 757
terri@@ 757
violate 757
Bak@@ 756
Ps 756
Recent 756
assisting 756
attack@@ 756
bree@@ 756
complain 756
d.@@ 756
ever@@ 756
lamps 756
monitors 756
triggered 756
xing 756
Berlusconi 755
Pit@@ 755
Stu@@ 755
aired 755
brush 755
celebrating 755
embo@@ 755
exhaust 755
fresh@@ 755
inate 755
menting 755
steadily 755
transmit 755
vens 755
Jackson 754
cham@@ 754
glance 754
lingu@@ 754
striving 754
tioners 754
Inst@@ 753
Ly@@ 753
Sul@@ 753
atro@@ 753
boy@@ 753
builds 753
cocktails 753
eman@@ 753
illumin@@ 753
ku@@ 753
lun@@ 753
sos 753
struggling 753
Gol@@ 752
ITY 752
Self 752
Wales 752
allowances 752
associate 752
beg@@ 752
beverages 752
grass@@ 752
ilers 752
overlook 752
relocation 752
restricting 752
worsen@@ 752
11th 751
Kol@@ 751
aforementioned 751
liberties 751
performs 751
pp 751
wasted 751
е@@ 751
Nobody 750
Tourist 750
aids 750
atoes 750
contaminated 750
counterparts 750
fru@@ 750
habits 750
hybrid 750
malaria 750
veri@@ 750
warnings 750
welding 750
Avi@@ 749
EURO@@ 749
Mercedes 749
Sz@@ 749
Wine 749
advisable 749
aters 749
cookie 749
employs 749
loyalty 749
retreat 749
shoot 749
sind 749
touches 749
tural 749
endeav@@ 748
illustrated 748
impacts 748
receiver 748
towers 748
zur 748
Erika 747
Republi@@ 747
ager 747
analyze 747
arest 747
assign 747
bor 747
cam 747
distri@@ 747
explosion 747
extraction 747
obli@@ 747
sul@@ 747
0.5 746
196 746
Itali@@ 746
Poly@@ 746
Print 746
Prix 746
Regulations 746
Watson 746
aric 746
vigilant 746
yourselves 746
..... 745
Barnier 745
Hy@@ 745
ailing 745
ampli@@ 745
engaging 745
rests 745
winds 745
1970s 744
PCs 744
benefiting 744
cription 744
deduc@@ 744
egg 744
racist 744
reck@@ 744
spheres 744
2.2 743
All@@ 743
Orchestra 743
empt 743
enjoyment 743
fen 743
frustr@@ 743
partitions 743
prescri@@ 743
rentals 743
tuals 743
volunteers 743
Conservative 742
Course 742
Kin@@ 742
Leg@@ 742
attaches 742
clean@@ 742
climb 742
compression 742
couldn 742
depression 742
liter@@ 742
normali@@ 742
outcomes 742
sky@@ 742
templates 742
trillion 742
AKVIS 741
Clo@@ 741
Excel 741
Mess@@ 741
Often 741
Reader 741
cial 741
cz@@ 741
disregard 741
oling 741
san 741
schi@@ 741
sid 741
Sus@@ 740
coat 740
complying 740
foo@@ 740
galax@@ 740
geographic 740
grip 740
heaven 740
invented 740
liqui@@ 740
misuse 740
tting 740
ush@@ 740
wellbeing 740
9th 739
Active 739
Beyond 739
ION 739
challenged 739
devast@@ 739
grapes 739
haul 739
inquiries 739
rain@@ 739
tastefully 739
IF 738
Others 738
buyers 738
eira 738
grasp 738
plant@@ 738
sail 738
tail 738
unk 738
viability 738
Cape 737
Governments 737
Klaus 737
Leonardo 737
Swoboda 737
archaeological 737
beginn@@ 737
casts 737
cofinancing 737
compressed 737
durable 737
fa 737
mann@@ 737
notable 737
recipe 737
tancy 737
1967 736
8th 736
Bolkestein 736
associ@@ 736
cens@@ 736
embrace 736
rian 736
roll@@ 736
sacred 736
1975 735
Turning 735
UPS 735
beta 735
eag@@ 735
ecting 735
massages 735
orts 735
Alternatively 734
Ethiopia 734
farmer 734
interviews 734
ogra@@ 734
public@@ 734
tar 734
wealthy 734
worries 734
1978 733
bra 733
ceramic 733
crafts 733
forwarded 733
inters 733
observ@@ 733
oping 733
proceeding 733
supranational 733
underlines 733
workable 733
35@@ 732
cozy 732
injuries 732
memorable 732
ped@@ 732
seventh 732
л@@ 732
Azerbaijan 731
Create 731
Mercosur 731
correctness 731
disgu@@ 731
edy 731
esti@@ 731
ges@@ 731
iles 731
laun@@ 731
terminals 731
utterly 731
Avenue 730
CC@@ 730
arose 730
authorization 730
brake 730
precau@@ 730
scour@@ 730
senses 730
ston 730
stopping 730
1.1 729
Cash 729
arch 729
attendance 729
breakdown 729
culmin@@ 729
depri@@ 729
disclosure 729
focal 729
frameworks 729
mortality 729
oppression 729
spokes@@ 729
upgraded 729
urable 729
vors 729
Kre@@ 728
az 728
entrusted 728
eval 728
has@@ 728
iel@@ 728
ignor@@ 728
mir@@ 728
showers 728
zen@@ 728
3000 727
CIA 727
Kam@@ 727
Name 727
Outlook 727
discovering 727
gas@@ 727
ject 727
mir 727
platz 727
pocket 727
readiness 727
summits 727
upgrading 727
Alpha 726
Mass@@ 726
acre 726
appliances 726
betting 726
cture 726
derogations 726
formulate 726
imbalance 726
otic 726
selective 726
Bali 725
emin@@ 725
eph@@ 725
femin@@ 725
fixes 725
reconc@@ 725
sacrific@@ 725
sunshine 725
vot@@ 725
1950 724
Channel 724
Night 724
PS@@ 724
Send 724
assert 724
ety 724
paramount 724
seize 724
sponsored 724
tif 724
twentieth 724
,00 723
Algarve 723
Victoria 723
Viol@@ 723
balances 723
berry 723
innov@@ 723
palm 723
shipped 723
singing 723
strugg@@ 723
wan 723
Every@@ 722
Georgian 722
Ji@@ 722
Pil@@ 722
Soci@@ 722
adjustable 722
ancest@@ 722
assurances 722
bollah 722
desperate 722
disorders 722
leng@@ 722
mask 722
prohibition 722
tox@@ 722
Bavarian 721
Cham@@ 721
Major 721
Musi@@ 721
ento 721
informative 721
policymakers 721
queu@@ 721
rape 721
spatial 721
tali@@ 721
totalitarian 721
umes 721
Design@@ 720
Fire 720
Oil 720
Venetian 720
corporation 720
injustice 720
iser 720
laboratories 720
reminder 720
vy 720
ça 720
6,@@ 719
DL@@ 719
Overall 719
Sky@@ 719
Tor 719
child@@ 719
consi@@ 719
curi@@ 719
geni@@ 719
ishment 719
kindly 719
Exclu@@ 718
Maison 718
Platform 718
Starfleet 718
alysts 718
dali@@ 718
folders 718
onn@@ 718
retailers 718
rough 718
tum@@ 718
vivi@@ 718
volunte@@ 718
Merkel 717
Mid@@ 717
Tuscan 717
Us 717
browsing 717
communic@@ 717
occupying 717
precedence 717
recipes 717
representations 717
Collec@@ 716
Sciences 716
condemning 716
incomprehensible 716
Ce@@ 715
Fur@@ 715
Granada 715
Seventh 715
accusations 715
appointments 715
bombs 715
ción 715
dation 715
ih@@ 715
mistaken 715
scanner 715
traded 715
Panel 714
assortment 714
bon 714
illustrates 714
perpetrators 714
preferential 714
reciproc@@ 714
strain 714
straße 714
warmth 714
Jer@@ 713
basi@@ 713
bass 713
comparative 713
illnesses 713
journeys 713
pipes 713
veterinary 713
36@@ 712
Baden 712
Independent 712
allowance 712
clou@@ 712
dancing 712
interpre@@ 712
inu@@ 712
mare 712
seasons 712
simplicity 712
watch@@ 712
MAR@@ 711
Manhattan 711
Rol@@ 711
Tat@@ 711
balconies 711
cheap@@ 711
decor 711
etta 711
opted 711
speedy 711
5,000 710
Pope 710
Var@@ 710
café 710
cereals 710
crowd 710
depend@@ 710
fulfilment 710
promotions 710
scrip@@ 710
slogan 710
stuck 710
Adam 709
Belgrade 709
Cel@@ 709
J. 709
Lic@@ 709
buff@@ 709
chem@@ 709
disclose 709
editorial 709
invention 709
loop 709
marvellous 709
perform@@ 709
recogni@@ 709
umbrella 709
weakening 709
Att@@ 708
Emer@@ 708
anton 708
cod 708
cryp@@ 708
ear 708
emo@@ 708
esh 708
fixing 708
hub 708
motors 708
odic 708
proving 708
publisher 708
repressive 708
stepping 708
tained 708
teen@@ 708
uranium 708
visi@@ 708
Deep 707
Tob@@ 707
agne 707
ans@@ 707
cry 707
deficiencies 707
terminate 707
Cotonou 706
FTP 706
Tyrolean 706
commerci@@ 706
exhau@@ 706
passwords 706
professor 706
travel@@ 706
unrealistic 706
&apos;E@@ 705
Aviation 705
FO@@ 705
amper 705
consumed 705
horizon 705
impunity 705
specialties 705
stru@@ 705
vaccination 705
Barack 704
Jon@@ 704
ML 704
Partners 704
Solar 704
Vision 704
appeals 704
deliberations 704
feeds 704
zip 704
ï@@ 704
And@@ 703
CH 703
Consul@@ 703
S.A. 703
Typ@@ 703
Vis@@ 703
appro@@ 703
assistants 703
cha@@ 703
dless 703
faithful 703
gene 703
literary 703
manoeuvre 703
volcanic 703
weekends 703
ø@@ 703
Editor 702
Points 702
aca 702
climatic 702
dissemination 702
ebook 702
harvest 702
inflic@@ 702
kin 702
loop@@ 702
ored 702
spirits 702
.000 701
DH@@ 701
Hz 701
Log@@ 701
Majorca 701
asion 701
astronom@@ 701
disagreement 701
disciplines 701
lug@@ 701
similarly 701
sulph@@ 701
targeting 701
testi@@ 701
000@@ 700
ARE 700
Beh@@ 700
discourse 700
drama 700
expan@@ 700
handy 700
nationalist 700
restraint 700
symboli@@ 700
take@@ 700
Bluetooth 699
Gothenburg 699
Top@@ 699
airspace 699
compress@@ 699
dead@@ 699
photographic 699
planted 699
wick@@ 699
ér@@ 699
1976 698
Classi@@ 698
Easter 698
Tab@@ 698
additionally 698
assent 698
atis@@ 698
demon@@ 698
esse 698
geopolitical 698
nik 698
ported 698
suspi@@ 698
tended 698
Base 697
Deutschland 697
MAN@@ 697
appreci@@ 697
decommission@@ 697
eful 697
emphasized 697
iz 697
jects 697
opponent 697
politan 697
practise 697
pression 697
protectionist 697
Keep 696
TEN@@ 696
accelerated 696
commemor@@ 696
eu 696
particles 696
repository 696
view@@ 696
vised 696
Fel@@ 695
Produc@@ 695
Rwand@@ 695
actu@@ 695
disman@@ 695
gene@@ 695
impul@@ 695
iners 695
mercy 695
mobilise 695
peripher@@ 695
rush 695
ym@@ 695
Km 694
Oli@@ 694
TB 694
advertisements 694
approached 694
enlar@@ 694
lie@@ 694
simultaneous 694
sional 694
wrong@@ 694
FF@@ 693
Person@@ 693
Soft 693
chy 693
describing 693
guardian 693
reactors 693
repeti@@ 693
Australian 692
BE 692
Christ@@ 692
Cs 692
Johannesburg 692
Moh@@ 692
Officer 692
Pop@@ 692
Vor@@ 692
attain 692
bou@@ 692
cleaner 692
controllers 692
controversy 692
honoured 692
lectures 692
low@@ 692
omas 692
sponsor@@ 692
Lama 691
Patent 691
Submitted 691
alla 691
cited 691
energe@@ 691
hero@@ 691
i.e 691
inal 691
rendering 691
rt 691
vente 691
vern@@ 691
Dre@@ 690
Low 690
Pir@@ 690
Son 690
Tom 690
interiors 690
sighted 690
vitally 690
Agricultural 689
Marbella 689
Parking 689
Poettering 689
Remember 689
catches 689
duplication 689
infring@@ 689
ld 689
pilgri@@ 689
tter 689
Lamanites 688
Red@@ 688
Terminal 688
applaud 688
applause 688
cosmetics 688
fairer 688
mortgage 688
ras@@ 688
rings 688
unresolved 688
BM@@ 687
Camp 687
Pau@@ 687
Presiden@@ 687
Province 687
aly@@ 687
conceivable 687
displaying 687
ete 687
floating 687
intervals 687
twi@@ 687
Fab@@ 686
Groups 686
Temple 686
athletes 686
browse 686
differs 686
emble 686
este@@ 686
genes 686
hearings 686
legs 686
photograph 686
physically 686
rewards 686
summar@@ 686
tant 686
wich 686
Ast@@ 685
ICT 685
Lanka 685
Men 685
Ten 685
Uz@@ 685
acknowledges 685
activation 685
assignment 685
cers 685
dirty 685
graduate 685
growers 685
nach 685
overcoming 685
span 685
thickness 685
Associ@@ 684
OP@@ 684
finger@@ 684
forty 684
guys 684
hair@@ 684
lends 684
maternity 684
occupy 684
prompted 684
stairs 684
supplemented 684
tubes 684
IA@@ 683
Mozilla 683
Too 683
entrepreneurship 683
epidemic 683
issu@@ 683
photographers 683
plying 683
sto 683
streams 683
ulsion 683
wap 683
wned 683
BL@@ 682
Fine 682
Head@@ 682
Oracle 682
Visual 682
censure 682
exempt 682
flexi@@ 682
hit@@ 682
pockets 682
pornography 682
statistic 682
Der@@ 681
cycli@@ 681
elaborate 681
feit 681
incorporation 681
rays 681
ree 681
sqm 681
thic 681
1982 680
CFP 680
Wolfgang 680
ats@@ 680
cils 680
endeavours 680
ika 680
pav@@ 680
planes 680
prim@@ 680
ridiculous 680
thee 680
witnessing 680
workflow 680
Euratom 679
Free@@ 679
Gl@@ 679
Stri@@ 679
add@@ 679
cake 679
cation 679
cled 679
denial 679
hits 679
mond 679
omis@@ 679
scandalous 679
staff@@ 679
I.@@ 678
Intel@@ 678
adidas 678
charts 678
coexistence 678
corro@@ 678
directories 678
dynamism 678
pitch 678
prov@@ 678
saves 678
station@@ 678
travelers 678
unspo@@ 678
Awards 677
Boli@@ 677
TER@@ 677
Tech 677
effec@@ 677
gely 677
midnight 677
Fed 676
Syrian 676
TE@@ 676
ander 676
emia 676
etal 676
machining 676
mati@@ 676
obsolete 676
provo@@ 676
proxy 676
shirt 676
sq@@ 676
stric@@ 676
tories 676
EE@@ 675
Vall@@ 675
bills 675
culosis 675
degra@@ 675
dictator 675
essi@@ 675
intact 675
ow@@ 675
proportionality 675
puri@@ 675
quiet@@ 675
recipients 675
zum 675
Ages 674
Newsletter 674
Qui@@ 674
Radi@@ 674
Share 674
adapter 674
amen@@ 674
backwards 674
bies 674
dging 674
eradication 674
fabri@@ 674
lowering 674
organizational 674
plasma 674
stamp 674
timet@@ 674
Franz 673
Mun@@ 673
chap@@ 673
custo@@ 673
nut 673
theatres 673
zzle 673
Café 672
Essen 672
No. 672
Siena 672
accompli@@ 672
anxious 672
contractors 672
declining 672
evolved 672
excursion 672
municipalities 672
presses 672
recovered 672
strings 672
trusted 672
useless 672
Bremen 671
Lun@@ 671
Six 671
Superior 671
brochures 671
counterfeiting 671
cultivated 671
dose 671
glory 671
stepped 671
urely 671
valuation 671
weg 671
128 670
Americ@@ 670
Arrival 670
Lower 670
PVC 670
aker 670
bey 670
crossed 670
dubious 670
hanging 670
modernization 670
pdf 670
proportions 670
sey 670
ulty 670
2.1 669
Money 669
Number 669
Recomm@@ 669
atorial 669
mirrors 669
missile 669
70@@ 668
Andalu@@ 668
Generally 668
Knowledge 668
Natura 668
aga 668
crats 668
cz 668
goodwill 668
lac@@ 668
leap 668
mix@@ 668
privately 668
provinces 668
ING@@ 667
Karel 667
Kremlin 667
Senate 667
Sustainable 667
True 667
authentic@@ 667
bap@@ 667
boosting 667
communism 667
fest@@ 667
inspec@@ 667
mins 667
moist@@ 667
panic 667
pled 667
tely 667
24th 666
Armenia 666
Sard@@ 666
Trading 666
bankruptcy 666
cinem@@ 666
clinic 666
pubs 666
tico 666
trap 666
unter@@ 666
Castell@@ 665
Former 665
Hav@@ 665
Let@@ 665
NOR@@ 665
ade@@ 665
aggression 665
attri@@ 665
boutiques 665
het 665
insulation 665
lamp 665
marina 665
merger 665
olls 665
tax@@ 665
142 664
Bei@@ 664
But@@ 664
Coordin@@ 664
Frank@@ 664
Guaran@@ 664
Nat@@ 664
TA@@ 664
allo 664
analog 664
cables 664
extrem@@ 664
regain 664
responsibly 664
ulations 664
1960s 663
1983 663
C6 663
Important 663
Text 663
U.@@ 663
UV 663
assistant 663
belts 663
distributing 663
extensively 663
fix@@ 663
pole 663
quer@@ 663
robot 663
scru@@ 663
Better 662
Canal 662
USE 662
allet 662
brave 662
cast@@ 662
dice 662
ideals 662
inn 662
printers 662
repa@@ 662
resu@@ 662
slip 662
sures 662
waiver 662
wheel@@ 662
0,@@ 661
ACE 661
Chicago 661
Som@@ 661
UM 661
Verona 661
alcoholic 661
card@@ 661
deeds 661
dus 661
gi 661
legend 661
mies 661
orship 661
passionate 661
peer 661
ı@@ 661
к@@ 661
Cru@@ 660
Frank 660
Swi@@ 660
anxiety 660
beam 660
conflic@@ 660
disputed 660
facilitates 660
fibre 660
infections 660
neglect 660
secrecy 660
shifting 660
Ent@@ 659
Palazzo 659
Pass 659
arrogan@@ 659
diagra@@ 659
enormously 659
excise 659
logging 659
neighbors 659
ren 659
spiral 659
tactics 659
tices 659
д@@ 659
CPU 658
DJ 658
chie@@ 658
contradictions 658
gements 658
inspire 658
keywords 658
kidn@@ 658
nose 658
nt 658
realism 658
revitali@@ 658
tasting 658
treasures 658
м@@ 658
Making 657
Virtual 657
adjour@@ 657
after@@ 657
diagno@@ 657
fon@@ 657
gay 657
incorporates 657
olo 657
processors 657
provisional 657
safeguarded 657
sequences 657
ü@@ 657
170 656
Tau@@ 656
acoustic 656
doctrine 656
english 656
ourcing 656
stim@@ 656
а 656
Entertainment 655
Histor@@ 655
SPA 655
Sakharov 655
Ten@@ 655
Visa 655
destined 655
infra@@ 655
interpreters 655
narro@@ 655
ovi@@ 655
predicted 655
radic@@ 655
reign 655
1.3 654
Edit 654
Electronic 654
Posselt 654
Rimini 654
SV@@ 654
Serbs 654
bell 654
bubble 654
delines 654
helicopter 654
repeating 654
shire 654
username 654
Certi@@ 653
Fire@@ 653
Ideal 653
apologise 653
basket 653
categor@@ 653
cornerstone 653
dic 653
igrant 653
institution@@ 653
jeopardis@@ 653
kil@@ 653
lessness 653
microph@@ 653
newer 653
pollut@@ 653
predominantly 653
rede@@ 653
risky 653
strust 653
terminology 653
viewpoint 653
â 653
Auto 652
Equal 652
Lor@@ 652
Performance 652
ache 652
bans 652
caves 652
emphasi@@ 652
ignoring 652
mig@@ 652
ophi@@ 652
surprisingly 652
winding 652
1968 651
Succ@@ 651
WHO 651
agers 651
brethren 651
compounds 651
harv@@ 651
intensify 651
legislators 651
manus@@ 651
patio 651
reciprocity 651
90@@ 650
Blan@@ 650
Conservatives 650
Never 650
Sant@@ 650
Zu@@ 650
abor@@ 650
arguing 650
best@@ 650
bottles 650
dition 650
heart@@ 650
intimid@@ 650
invisible 650
irrit@@ 650
yn 650
za@@ 650
Ash@@ 649
Edi@@ 649
IE 649
Lodge 649
Maj@@ 649
ase@@ 649
banner 649
bud@@ 649
coff@@ 649
cryst@@ 649
democrats 649
fiction 649
hedge 649
hike 649
ition 649
locals 649
refuses 649
renew 649
sail@@ 649
solvency 649
ured 649
Clar@@ 648
aton 648
beforehand 648
bour@@ 648
cafes 648
doubled 648
dozen 648
forcement 648
internation@@ 648
kan@@ 648
prescribed 648
referendums 648
reviewing 648
shelter 648
unci@@ 648
5.00 647
Fifth 647
Mini 647
Monte@@ 647
Moroccan 647
Movement 647
PR 647
Translation 647
accomplish 647
efully 647
extremists 647
gin 647
hierarchy 647
implied 647
inia 647
rejects 647
relies 647
standardisation 647
tt 647
upheld 647
з@@ 647
13.@@ 646
Made 646
UT 646
accord 646
analysing 646
ather 646
coordinator 646
fatal 646
gan 646
hostile 646
illusion 646
isc@@ 646
ku 646
like@@ 646
meas@@ 646
overwhel@@ 646
parish 646
sarge 646
versa 646
Champ@@ 645
Cont@@ 645
Kim 645
guy 645
overlooked 645
percep@@ 645
physics 645
wil@@ 645
ña 645
н@@ 645
1930 644
Quartet 644
bered 644
cca 644
disrup@@ 644
edo 644
lobby@@ 644
ml 644
overlooks 644
replied 644
shocks 644
swing 644
tent 644
traveling 644
220 643
Bab@@ 643
Doctor 643
Events 643
FP@@ 643
Ltd. 643
MD@@ 643
Petersburg 643
Progress 643
advertisement 643
gun 643
hausen 643
orchestra 643
pin@@ 643
prerog@@ 643
revel@@ 643
semi@@ 643
tative 643
wald 643
wi 643
Sat@@ 642
acious 642
addic@@ 642
ado@@ 642
balls 642
bet@@ 642
bitter 642
incidentally 642
lics 642
loung@@ 642
nominal 642
slots 642
tsch@@ 642
DVDs 641
Event 641
Main@@ 641
Mei@@ 641
Sty@@ 641
apparatus 641
attacking 641
avoidable 641
dele@@ 641
formulation 641
fragmentation 641
interpreting 641
publishers 641
spectac@@ 641
tera 641
tops 641
Carlos 640
Gardens 640
TU@@ 640
bad@@ 640
extradition 640
fortune 640
odd 640
succe@@ 640
FL@@ 639
dio 639
harmonising 639
kat@@ 639
php 639
scal@@ 639
wholesale 639
IRC 638
ament@@ 638
cas 638
enni@@ 638
gru@@ 638
hero 638
legality 638
ographic 638
perio@@ 638
pir@@ 638
pregnant 638
125 637
Benjamin 637
Gil@@ 637
HOTEL 637
Tony 637
Vir@@ 637
abri@@ 637
allegations 637
conv@@ 637
exterior 637
gest@@ 637
impressions 637
inhabited 637
missible 637
mont 637
neighbor@@ 637
neighborhood 637
rad 637
undeni@@ 637
undergoing 637
unk@@ 637
yearly 637
Colom@@ 636
Desktop 636
Emperor 636
Roth 636
Sau@@ 636
Sixth 636
UR 636
ander@@ 636
browsers 636
cha 636
fundamentalism 636
musi@@ 636
outdated 636
pronounced 636
restra@@ 636
slides 636
tutorial 636
undergo 636
CAN 635
Cul@@ 635
Sharon 635
adequ@@ 635
aler 635
ark 635
bear@@ 635
interpretations 635
kan 635
los@@ 635
orchest@@ 635
protagon@@ 635
rides 635
shame@@ 635
thumb 635
wen@@ 635
ATE 634
Certain 634
Identi@@ 634
RT@@ 634
Unit 634
advent@@ 634
arom@@ 634
asymmet@@ 634
diagnostic 634
gencies 634
honesty 634
investigating 634
mainstreaming 634
pos 634
sorted 634
wid@@ 634
zers 634
Buil@@ 633
Canaria 633
Emb@@ 633
MEDA 633
Sto@@ 633
admissible 633
aka 633
cann@@ 633
cart 633
cruise 633
decreased 633
elem@@ 633
favou@@ 633
lag 633
lasts 633
mainland 633
open@@ 633
quanti@@ 633
repairs 633
secretariat 633
seemingly 633
zer@@ 633
î@@ 633
1973 632
2014 632
Economy 632
Que@@ 632
Tax 632
benchmark 632
civilization 632
consolidating 632
county 632
dread@@ 632
ecosystems 632
ign 632
laim 632
mainstream 632
mathemati@@ 632
squares 632
Angeles 631
Behold 631
Either 631
Galicia 631
Municip@@ 631
Workers 631
brut@@ 631
coupling 631
distributor 631
elabor@@ 631
emerges 631
eradicate 631
fired 631
imprisonment 631
juris@@ 631
nai@@ 631
numer@@ 631
unbe@@ 631
Approval 630
Armen@@ 630
BE@@ 630
Brun@@ 630
Camping 630
Ethernet 630
beneath 630
butter 630
constructions 630
frustration 630
imminent 630
izes 630
migratory 630
rotation 630
tention 630
Crete 629
Early 629
Iron 629
Stre@@ 629
Tak@@ 629
afford@@ 629
arance 629
avia 629
awak@@ 629
contexts 629
cultiv@@ 629
dam 629
debut 629
dischar@@ 629
entrepreneurial 629
get@@ 629
iev@@ 629
industrialised 629
maturity 629
milli@@ 629
mono@@ 629
spin 629
vigorously 629
Ben 628
Color 628
Numerous 628
Prop@@ 628
VI@@ 628
borrowing 628
chemistry 628
disorder 628
distorted 628
exceeding 628
mili@@ 628
ovo 628
resur@@ 628
slaugh@@ 628
toy 628
unders 628
urban@@ 628
variant 628
vendors 628
Airways 627
Automatic 627
Creative 627
Estate 627
Lum@@ 627
Messenger 627
Stat@@ 627
differ@@ 627
homeland 627
lane 627
manufactures 627
redress 627
sert 627
stre@@ 627
undermines 627
ASA 626
Buy 626
Converter 626
Councils 626
Dubai 626
EDF 626
ISA 626
bury 626
circu@@ 626
declined 626
ef 626
generator 626
ghtful 626
housed 626
persist 626
retaining 626
searches 626
sounding 626
translator 626
transposed 626
wheat 626
1981 625
2.4 625
Burmese 625
Greater 625
Model 625
PCI 625
administered 625
alleviate 625
complies 625
consecutive 625
interfer@@ 625
lem@@ 625
orities 625
oted 625
slavery 625
stadium 625
tivirus 625
vaccines 625
à@@ 625
Guantánamo 624
Link 624
Mou@@ 624
NT 624
PXI 624
Shuttle 624
TP 624
annex 624
conform 624
observing 624
solic@@ 624
supplements 624
tale 624
verti@@ 624
Category 623
Living 623
Manufac@@ 623
commun@@ 623
converter 623
converting 623
defeated 623
fortunately 623
handles 623
iel 623
lady 623
loses 623
loyal 623
ozone 623
pluses 623
protec@@ 623
taxpayer 623
tract 623
Commercial 622
abundance 622
brick 622
chann@@ 622
ebo@@ 622
extremism 622
freeze 622
frigh@@ 622
legislator 622
march 622
preval@@ 622
standardis@@ 622
talented 622
7,@@ 621
COM@@ 621
HTTP 621
SK@@ 621
adventures 621
concerted 621
fluid 621
harassment 621
mos@@ 621
oric 621
parall@@ 621
pregnancy 621
prote@@ 621
woody 621
07@@ 620
Fischer 620
Junior 620
Mann 620
Philippines 620
Somalia 620
Volkswagen 620
critically 620
delights 620
fertile 620
imagin@@ 620
lasted 620
leg 620
mighty 620
quicker 620
suppose 620
technicians 620
ANY 619
Castro 619
Eur@@ 619
Total 619
WiFi 619
aves 619
conten@@ 619
deploy 619
enty 619
whis@@ 619
Buch@@ 618
Comfort 618
Conver@@ 618
Govern@@ 618
Lady 618
Malaga 618
Pay@@ 618
Telec@@ 618
Tool@@ 618
acquain@@ 618
alties 618
andum 618
assing 618
otypes 618
questioned 618
reconsider 618
riders 618
servant 618
warehouse 618
1.4 617
Cannes 617
Cypriot 617
Impro@@ 617
Innsbruck 617
MIDI 617
Sum@@ 617
Tenerife 617
bying 617
det 617
ener 617
frank 617
meadows 617
scanning 617
smuggling 617
2,000 616
Gy@@ 616
STE@@ 616
Spi@@ 616
Walter 616
absorption 616
authentication 616
blat@@ 616
committing 616
crazy 616
detained 616
flooding 616
furnis@@ 616
gravity 616
hydrogen 616
nineteenth 616
ologi@@ 616
think@@ 616
transp@@ 616
ulist 616
unge@@ 616
zione 616
UEN 615
Vac@@ 615
boot@@ 615
brie@@ 615
dial@@ 615
essly 615
hate 615
illed 615
immigrant 615
justifiable 615
oo 615
responds 615
rom@@ 615
subsidis@@ 615
than@@ 615
Dev@@ 614
Gener@@ 614
Mayor 614
NA 614
Sti@@ 614
aquaculture 614
assuring 614
battle@@ 614
constituted 614
feasibility 614
skiers 614
spel 614
vei@@ 614
Map 613
bombing 613
byp@@ 613
ican 613
payable 613
secrets 613
testimony 613
theories 613
versal 613
Beautiful 612
Blizzard 612
Join 612
Loc@@ 612
Medina 612
capitali@@ 612
dividing 612
fonts 612
icing 612
mind@@ 612
shoul@@ 612
sponsors 612
strategically 612
switched 612
temptation 612
uphol@@ 612
Berg@@ 611
Construction 611
DO 611
Integration 611
Mozart 611
Occ@@ 611
Silver 611
TER 611
Terra@@ 611
baroque 611
biomass 611
chro@@ 611
condu@@ 611
dows 611
expectation 611
flats 611
focus@@ 611
handi@@ 611
inventions 611
marketplace 611
negli@@ 611
offen@@ 611
replies 611
roo@@ 611
telep@@ 611
travels 611
tsun@@ 611
utilization 611
и 611
1974 610
25.@@ 610
25th 610
ART 610
Henry 610
Ré@@ 610
Visitors 610
accomodation 610
afflic@@ 610
arium 610
concentrating 610
confirming 610
destiny 610
entit@@ 610
excitement 610
firewall 610
ingo 610
liberalism 610
relying 610
underwater 610
Azur 609
Grande 609
Kan@@ 609
Marine 609
Register 609
Stor@@ 609
Was 609
bureau@@ 609
command@@ 609
flowing 609
gens 609
myst@@ 609
originating 609
treas@@ 609
wai@@ 609
Kl@@ 608
Set@@ 608
Zone 608
acking 608
align@@ 608
anten@@ 608
catastrophic 608
constructing 608
doc@@ 608
emphasising 608
enquiry 608
funny 608
outlets 608
streaming 608
Arafat 607
Continental 607
Norwegian 607
OM 607
Pom@@ 607
Princ@@ 607
Refu@@ 607
SLR 607
Secure 607
Split 607
Trans 607
Vin@@ 607
colli@@ 607
dically 607
recognizes 607
struction 607
synergies 607
tags 607
tom 607
Arc@@ 606
Eurocopter 606
Expl@@ 606
FT 606
Human@@ 606
Players 606
Ran@@ 606
Strategi@@ 606
Wher@@ 606
blank 606
buried 606
dense 606
dine 606
eins 606
exchanged 606
fres@@ 606
meanwhile 606
proclaimed 606
recover@@ 606
1500 605
Agreements 605
Facebook 605
Müller 605
Something 605
aps 605
bizarre 605
dell 605
exhi@@ 605
graph@@ 605
ila 605
lish 605
mach@@ 605
mergers 605
preci@@ 605
priv@@ 605
tana 605
CN@@ 604
Crus@@ 604
Pakist@@ 604
amateur 604
animated 604
catching 604
deline 604
drum 604
hr 604
memor@@ 604
motives 604
propri@@ 604
richest 604
sortium 604
veness 604
éri@@ 604
ń@@ 604
Added 603
Bangkok 603
Catalan 603
Chirac 603
HI 603
Hat 603
Phar@@ 603
Sofia 603
amounting 603
battles 603
congratul@@ 603
enriched 603
gastronomy 603
misunderstanding 603
racial 603
reimbur@@ 603
speculative 603
tuber@@ 603
vod@@ 603
Ambassador 602
Bangladesh 602
Blog 602
Files 602
Intro@@ 602
LabVIEW 602
PA@@ 602
SR 602
Smart 602
angel@@ 602
casinos 602
democrati@@ 602
drought 602
embark 602
eternal 602
gateway 602
imple@@ 602
inspiring 602
neuro@@ 602
pist@@ 602
surprises 602
Bahn 601
CP@@ 601
Combin@@ 601
Manchester 601
Portal 601
Scho@@ 601
Simp@@ 601
Stan@@ 601
Tou@@ 601
Zap@@ 601
centralised 601
entertaining 601
modem 601
rulers 601
spontane@@ 601
squee@@ 601
suffers 601
systemic 601
tist 601
treats 601
wski 601
ст@@ 601
Different 600
Gibraltar 600
IND 600
Kazakhstan 600
Mechan@@ 600
Pot@@ 600
Seller 600
Swe@@ 600
addiction 600
addle 600
certainties 600
conqu@@ 600
identities 600
inos 600
introduc@@ 600
mentary 600
opport@@ 600
phra@@ 600
radar 600
souven@@ 600
supportive 600
torate 600
umer@@ 600
Albert 599
Andalusia 599
Opening 599
Optim@@ 599
Photo@@ 599
Sadly 599
Spec@@ 599
atar 599
clin@@ 599
duplicate 599
etz@@ 599
professionally 599
stroke 599
14.@@ 598
Aut@@ 598
Consumers 598
DE@@ 598
Memory 598
Military 598
Pass@@ 598
RA 598
Twitter 598
Wit@@ 598
absorb 598
aggregate 598
angered 598
antibiotics 598
earning 598
essen 598
fashi@@ 598
imposition 598
laimed 598
legislat@@ 598
oak 598
piracy 598
poultry 598
rewarded 598
transc@@ 598
Bay@@ 597
FF 597
Hen@@ 597
SCH@@ 597
agu@@ 597
arran@@ 597
borro@@ 597
bun@@ 597
consci@@ 597
cruel 597
extraordinarily 597
kni@@ 597
plen@@ 597
rey 597
rol 597
stling 597
subsidi@@ 597
Fitness 596
Lithu@@ 596
Lukas@@ 596
SEO 596
abused 596
boast 596
championship 596
desperately 596
exhibits 596
graduated 596
hell 596
horn 596
infan@@ 596
jacuzzi 596
prohibit 596
shipbuilding 596
subway 596
wilderness 596
yar@@ 596
1977 595
County 595
DM@@ 595
Essen@@ 595
Friedrich 595
ault 595
divor@@ 595
garten 595
hardt 595
landmark 595
ptions 595
racle 595
shocked 595
theft 595
transplan@@ 595
unic@@ 595
voluntarily 595
wag@@ 595
BAE 594
Saf@@ 594
aerospace 594
fled 594
hony 594
norm 594
recomm@@ 594
sponsor 594
stretches 594
tedly 594
tide 594
travelled 594
who@@ 594
Form 593
Od@@ 593
Port@@ 593
cles 593
consume 593
eters 593
etto 593
hall@@ 593
lightweight 593
reproduce 593
scratch 593
Azo@@ 592
Bran@@ 592
Rub@@ 592
SME 592
Thessaloniki 592
Ultimately 592
aligned 592
attracts 592
butions 592
communicating 592
cot 592
disks 592
eventual 592
misery 592
moun@@ 592
orable 592
rail@@ 592
sad@@ 592
supermarket 592
urging 592
wonders 592
Corbett 591
HE@@ 591
cleared 591
estim@@ 591
fittings 591
hosti@@ 591
intri@@ 591
scarcely 591
sear@@ 591
Bologna 590
Cards 590
Guatemala 590
Mini@@ 590
Payment 590
Realty 590
answering 590
betra@@ 590
cite 590
compromising 590
courtesy 590
eager 590
easiest 590
ego 590
eligibility 590
exploiting 590
fried 590
guards 590
hormon@@ 590
jud@@ 590
lle 590
merged 590
nuts 590
Bec@@ 589
MIN@@ 589
Nepal 589
Oxford 589
Seven 589
Tit@@ 589
bankers 589
bei@@ 589
ensu@@ 589
invalid 589
matt@@ 589
ore@@ 589
questioning 589
reliably 589
rhythm 589
shocking 589
tenden@@ 589
yen 589
Alger@@ 588
Books 588
Formula 588
Unix 588
bn 588
capitals 588
corrections 588
efore 588
mysterious 588
peacefully 588
pledge 588
proo@@ 588
scored 588
simil@@ 588
yan 588
Alm@@ 587
Angola 587
Particularly 587
Seattle 587
ball@@ 587
logged 587
rolls 587
seized 587
survived 587
transfer@@ 587
Cardiff 586
Communications 586
Erasmus 586
Taj@@ 586
Theater 586
Whereas 586
Zak@@ 586
anony@@ 586
aro 586
aspi@@ 586
differentiated 586
drain 586
editions 586
maj@@ 586
onies 586
restart 586
routing 586
sculp@@ 586
tled 586
unlawful 586
unwind 586
utilisation 586
Cancún 585
Chad 585
Perfect 585
SilverFast 585
collapsed 585
ct 585
dent@@ 585
digi@@ 585
enco@@ 585
enny 585
geneous 585
grave@@ 585
illustration 585
jungle 585
offerings 585
reluctant 585
richer 585
talents 585
BI@@ 584
Stefan 584
affiliated 584
attribute 584
bonuses 584
consultant 584
pilots 584
ris 584
sham@@ 584
tano 584
Care 583
Cot@@ 583
Current 583
Dell 583
Messe 583
Pension 583
Statement 583
TU 583
ader 583
advantageous 583
ardo 583
choo@@ 583
defici@@ 583
devised 583
flavour 583
folding 583
identifies 583
install@@ 583
ken@@ 583
lanes 583
may@@ 583
nin@@ 583
oman 583
possesses 583
proceeds 583
smile 583
succession 583
syner@@ 583
unwanted 583
Brown 582
Deluxe 582
Inc. 582
RE 582
Things 582
Turn 582
atile 582
derive 582
fraudul@@ 582
ghs 582
glacier 582
magnitude 582
marginal 582
picking 582
polar 582
sculptures 582
storing 582
sunset 582
wed@@ 582
will@@ 582
п@@ 582
Franco 581
Hab@@ 581
Hôtel 581
INI 581
Imperial 581
Package 581
Recovery 581
argues 581
canal 581
clips 581
coding 581
cook 581
egu@@ 581
fei@@ 581
microwave 581
vigorous 581
weigh 581
Eng@@ 580
Mario 580
Prestige 580
atings 580
crafts@@ 580
fluctuations 580
gastronomic 580
han 580
here@@ 580
lest 580
model@@ 580
prestige 580
sper@@ 580
unauthorized 580
wie 580
750 579
IK 579
Prosec@@ 579
Sign@@ 579
Yu@@ 579
complemented 579
compliant 579
denying 579
dominate 579
gt 579
ju 579
juven@@ 579
lemma 579
occurrence 579
orn 579
pelago 579
region@@ 579
subtle 579
Bene@@ 578
Born 578
Indonesian 578
Stephen 578
Table 578
Tw@@ 578
dealings 578
demonstr@@ 578
graph 578
hob@@ 578
oods 578
premier 578
shade 578
teous 578
utting 578
validation 578
variation 578
ë@@ 578
.NET 577
10.00 577
Confederal 577
Eurojust 577
Instrument 577
OL 577
Prec@@ 577
Put 577
analytical 577
henko 577
lecture 577
minerals 577
nen 577
neoliberal 577
noti@@ 577
potato 577
rav@@ 577
ug@@ 577
Economics 576
Opportunities 576
Pent@@ 576
Settings 576
aesthe@@ 576
aftermath 576
analo@@ 576
dedic@@ 576
disable 576
floo@@ 576
labelled 576
painter 576
wall@@ 576
Ideally 575
Photoshop 575
Rab@@ 575
Texas 575
cabinet 575
decorative 575
dock 575
emit@@ 575
filtration 575
itations 575
patches 575
reasoning 575
sits 575
smell 575
som 575
therhood 575
voiced 575
wash 575
Fore@@ 574
Func@@ 574
Tour@@ 574
Visi@@ 574
cafés 574
contacted 574
ense 574
flat@@ 574
honest@@ 574
kits 574
medication 574
obsc@@ 574
shifted 574
tare 574
traine@@ 574
trig@@ 574
ula 574
Fourth 573
Magazine 573
PG 573
aden 573
administrators 573
confusing 573
fills 573
oph@@ 573
signation 573
signi@@ 573
unused 573
08@@ 572
Arabic 572
CI@@ 572
Gaz@@ 572
Hot 572
Info 572
Invest@@ 572
Rac@@ 572
XI 572
acquiring 572
circular 572
evolving 572
guer@@ 572
militar@@ 572
rech@@ 572
rotating 572
tet 572
uous 572
watched 572
Alp@@ 571
Holding 571
IMO 571
Lucerne 571
Shopping 571
Steinberg 571
WAR@@ 571
aki 571
chic 571
disappearance 571
philosophical 571
slower 571
supermarkets 571
token 571
uba 571
Ala@@ 570
Baroque 570
Bath 570
Chap@@ 570
Fru@@ 570
Lud@@ 570
Punta 570
Reding 570
Statisti@@ 570
Transpar@@ 570
Way 570
distill@@ 570
drying 570
gau 570
harm@@ 570
interact 570
tem 570
visions 570
Gas@@ 569
Jarzembowski 569
Sli@@ 569
ThyssenKrupp 569
Transfer 569
enz 569
equilibrium 569
explosive 569
gram@@ 569
ille 569
jar@@ 569
journal 569
personalised 569
presiden@@ 569
probability 569
refrigerator 569
thr@@ 569
uss 569
ware@@ 569
wondering 569
Establi@@ 568
Jam@@ 568
Links 568
Remo@@ 568
Socrates 568
ae@@ 568
ben 568
cerem@@ 568
chat@@ 568
cigarettes 568
cleaned 568
degradation 568
dynam@@ 568
ferences 568
junction 568
oxygen 568
spic@@ 568
standardized 568
stres@@ 568
upgra@@ 568
zn@@ 568
über 568
Clin@@ 567
Lomé 567
Pel@@ 567
Stand@@ 567
anta 567
asts 567
correspondence 567
hyp@@ 567
kick 567
outskirts 567
side@@ 567
spect@@ 567
them@@ 567
Summary 566
TW@@ 566
antes 566
apping 566
carto@@ 566
cleansing 566
dio@@ 566
eler@@ 566
emble@@ 566
emotion 566
infec@@ 566
pum@@ 566
rat 566
teles@@ 566
traveller 566
treasure 566
ò 566
Ds 565
allegedly 565
correspon@@ 565
eg 565
erosion 565
holistic 565
lenses 565
paradig@@ 565
poster 565
prayer 565
rounded 565
wings 565
~ 565
Bic@@ 564
Engine 564
Lab 564
Marx 564
Montreal 564
Original 564
Ramblas 564
alis@@ 564
clip 564
header 564
imperial 564
reproduced 564
tron@@ 564
utilities 564
zio 564
Commons 563
Friends 563
GI 563
Provider 563
alig@@ 563
campsite 563
charity 563
competi@@ 563
freezing 563
hiding 563
jacket 563
mayor 563
oma 563
refriger@@ 563
satisfying 563
wning 563
Argent@@ 562
Cau@@ 562
Individual 562
Leh@@ 562
Pad@@ 562
cats 562
change@@ 562
computing 562
condem@@ 562
dressing 562
invent@@ 562
iry 562
liberation 562
lled 562
myth 562
rebuilt 562
Applications 561
Bern 561
D.@@ 561
Equipment 561
Fr@@ 561
ION@@ 561
Princip@@ 561
Real@@ 561
Reservations 561
Shine 561
combustion 561
crowded 561
elegantly 561
episodes 561
exploration 561
indu@@ 561
nich@@ 561
ota 561
suit@@ 561
Ann@@ 560
CAN@@ 560
Fro@@ 560
Jac@@ 560
Mongo@@ 560
Rica 560
aly 560
aug@@ 560
caps 560
dis 560
even@@ 560
executives 560
gently 560
grin@@ 560
guess 560
investig@@ 560
plat@@ 560
registering 560
Crist@@ 559
Hollywood 559
LL@@ 559
Mira@@ 559
Multi 559
Prior 559
attachment 559
etti 559
extern@@ 559
forwarding 559
half@@ 559
inas 559
offshore 559
tenth 559
trop@@ 559
vain 559
witnesses 559
After@@ 558
Infineon 558
Origin@@ 558
POR@@ 558
Qaeda 558
Quali@@ 558
Residen@@ 558
appren@@ 558
beaten 558
benefici@@ 558
cogni@@ 558
cript 558
desi@@ 558
disper@@ 558
existent 558
imaging 558
intake 558
masses 558
shipments 558
thre@@ 558
tuning 558
Annan 557
Consu@@ 557
Hospital 557
Marie 557
Poverty 557
aman@@ 557
certi@@ 557
draw@@ 557
fantasy 557
follo@@ 557
instrumental 557
lago@@ 557
oll 557
ose 557
sanitary 557
small@@ 557
traffi@@ 557
visor 557
Alpes 556
By@@ 556
Florida 556
Gott 556
Retur@@ 556
Short 556
amidst 556
anne 556
breed 556
commented 556
dispar@@ 556
hegemon@@ 556
sea@@ 556
siveness 556
й 556
22@@ 555
Aar@@ 555
Az@@ 555
Dest@@ 555
Iber@@ 555
Leban@@ 555
PK@@ 555
designation 555
dul@@ 555
favor@@ 555
guil@@ 555
lich 555
oul 555
remot@@ 555
voucher 555
1.6 554
Blu@@ 554
EOS 554
Wallström 554
Wind@@ 554
colony 554
critic@@ 554
dant 554
electronically 554
impres@@ 554
ities 554
navig@@ 554
oter 554
reme@@ 554
tras 554
vul@@ 554
1.0 553
16.@@ 553
Gast@@ 553
Hil@@ 553
Lis@@ 553
Neg@@ 553
albums 553
arbit@@ 553
aser 553
boundary 553
bres 553
configurations 553
dal@@ 553
edt 553
epi@@ 553
es.@@ 553
explored 553
favorable 553
lio 553
rout@@ 553
scattered 553
sensu@@ 553
switches 553
t.@@ 553
É@@ 553
2050 552
AF 552
Cadiz 552
City@@ 552
Complete 552
Heb@@ 552
ITS 552
Kas@@ 552
NT@@ 552
Sep@@ 552
TRA@@ 552
cav@@ 552
comprise 552
coordinates 552
ettes 552
extinc@@ 552
ouses 552
throu@@ 552
Integrated 551
MP 551
Ner@@ 551
Porsche 551
Return 551
accumulated 551
addi@@ 551
additions 551
budge@@ 551
cooked 551
offline 551
otage 551
pink 551
preferably 551
reimbursement 551
sses 551
terra@@ 551
tes@@ 551
tian 551
Bonus 550
Core 550
Zürich 550
antine 550
attor@@ 550
eng 550
governor 550
insights 550
lodge 550
malware 550
minimize 550
registry 550
reluc@@ 550
scrut@@ 550
undergone 550
ury 550
vibration 550
Boo@@ 549
Fern@@ 549
Nar@@ 549
Ny@@ 549
Standards 549
ambiance 549
candi@@ 549
cock 549
cosmopolitan 549
feed@@ 549
rustic 549
uminum 549
vulner@@ 549
г@@ 549
Chianti 548
Clean 548
Dalai 548
Membership 548
Recon@@ 548
Virgin 548
commer@@ 548
embles 548
gauge 548
prolonged 548
requi@@ 548
tta 548
vings 548
voy 548
Kri@@ 547
Liechtenstein 547
Mission 547
Options 547
Sydney 547
Tribunal 547
VII 547
atable 547
bloc 547
dise 547
ducing 547
hungry 547
nicely 547
ony@@ 547
qui 547
stair@@ 547
tending 547
tricks 547
worship 547
Scandinavian 546
Sing@@ 546
Treasury 546
YouTube 546
defensive 546
deplo@@ 546
onymous 546
oration 546
poet 546
sag@@ 546
satellites 546
sculpture 546
stolen 546
vise 546
3.2 545
Babysi@@ 545
Inci@@ 545
ONE 545
ashed 545
ason 545
cloud 545
eland 545
muscles 545
noisy 545
okes 545
thin@@ 545
2.6 544
Buddhist 544
Dalmati@@ 544
Dat@@ 544
Fort@@ 544
Heidelberg 544
Peninsula 544
Prac@@ 544
cliffs 544
coated 544
cons 544
convey@@ 544
dues 544
gulf 544
modernity 544
mud 544
nels 544
originated 544
rels 544
Accommodation 543
Afri@@ 543
Brand 543
Delta 543
Move 543
NO 543
OS@@ 543
Pay 543
bordering 543
cater 543
enlarge 543
eps 543
fai@@ 543
gible 543
joins 543
pixel 543
LIFE 542
Martini 542
Monaco 542
Ski@@ 542
broadcast@@ 542
bub@@ 542
civi@@ 542
dor 542
farmhouse 542
ide 542
orn@@ 542
paradox@@ 542
portrait 542
preceding 542
ра@@ 542
Dum@@ 541
Ferr@@ 541
LIN@@ 541
PHARE 541
Sv@@ 541
Traditional 541
compilation 541
ethanol 541
eux 541
hetero@@ 541
lib@@ 541
paste 541
rele@@ 541
salon 541
ASE 540
Cohn 540
Genoa 540
PO 540
atmospheric 540
bited 540
coasts 540
eme 540
fighters 540
hesi@@ 540
lighter 540
mits 540
obs@@ 540
rocky 540
zin@@ 540
Alzheimer 539
Bendit 539
Coming 539
Europe@@ 539
HC 539
Hi 539
Luxury 539
TACIS 539
Train 539
call@@ 539
ckey 539
curricul@@ 539
evacu@@ 539
greg@@ 539
occupies 539
rev@@ 539
wered 539
æ@@ 539
AV 538
Chris 538
Half 538
Iz@@ 538
QuarkXPress 538
Vladimir 538
akis 538
atomic 538
bishop 538
corridors 538
ego@@ 538
hist@@ 538
lab 538
lumin@@ 538
prototype 538
retains 538
sheer 538
shirts 538
105 537
CV@@ 537
ELDR 537
Exam@@ 537
Manuel 537
Physi@@ 537
Quick@@ 537
Swimming 537
aster 537
athle@@ 537
clay 537
drome 537
faction 537
fort 537
nez 537
pol 537
renew@@ 537
sives 537
vic 537
101 536
Delivery 536
Gom@@ 536
Governance 536
Hannover 536
Insurance 536
helicopters 536
herbs 536
modal 536
slow@@ 536
terly 536
trekking 536
vity 536
Harry 535
Included 535
apar@@ 535
cigarette 535
conf 535
foam 535
posters 535
sliding 535
3,000 534
ANT@@ 534
Atlan@@ 534
Defense 534
Liikanen 534
appearances 534
communal 534
cros@@ 534
ee@@ 534
flair 534
proportionate 534
quer 534
soccer 534
α@@ 534
ECT 533
LI@@ 533
Stop 533
TNG 533
Uganda 533
abundant 533
blogs 533
dec 533
horror 533
mware 533
stere@@ 533
stom@@ 533
touristic 533
versus 533
Bible 532
Bit@@ 532
Quarter 532
Sle@@ 532
Tai@@ 532
Tennis 532
Trop@@ 532
Ze@@ 532
eno 532
fia 532
ismo 532
leaf@@ 532
oneself 532
surround 532
tari@@ 532
Á@@ 532
0.1 531
BB@@ 531
Band 531
Fam@@ 531
Football 531
RC 531
ador 531
bias 531
conci@@ 531
fiers 531
glasses 531
lodging 531
logs 531
mana 531
rented 531
reti@@ 531
tuous 531
wr@@ 531
Č@@ 531
4.5 530
Conduc@@ 530
DEN@@ 530
Oomen 530
SOL@@ 530
bicycles 530
chens 530
chs 530
conversations 530
legi@@ 530
locking 530
m. 530
mistak@@ 530
myth@@ 530
org 530
remainder 530
wouldn 530
Ankara 529
CMS 529
Cruz 529
Television 529
Usually 529
alto 529
birth@@ 529
chil@@ 529
clever 529
como 529
durability 529
fiber 529
hill@@ 529
injec@@ 529
muscle 529
tioner 529
Commander 528
Feel 528
Jazz 528
MS@@ 528
Program@@ 528
attracting 528
bir@@ 528
editors 528
integrates 528
oro 528
spells 528
unas 528
8,@@ 527
BER@@ 527
Christian@@ 527
Dear 527
Giovanni 527
Lamy 527
Title 527
etary 527
ett 527
Always 526
Ec@@ 526
Exp@@ 526
HER@@ 526
Inside 526
Palm 526
Radisson 526
belonged 526
crafted 526
entran@@ 526
majestic 526
patron@@ 526
2.3 525
Def@@ 525
ERP 525
Founded 525
Gardena 525
MB@@ 525
Me 525
Mercure 525
Regar@@ 525
acon 525
bandwidth 525
ces@@ 525
cylinder 525
packs 525
rad@@ 525
sab@@ 525
vez 525
wery 525
Ach@@ 524
Ein@@ 524
FT@@ 524
Rotterdam 524
dow 524
flagship 524
refresh@@ 524
sica 524
Fas@@ 523
KO@@ 523
Oliver 523
amid 523
clicks 523
exhibit 523
experim@@ 523
ionships 523
pairs 523
pub 523
socket 523
standardi@@ 523
tol@@ 523
wildlife 523
GNOME 522
Nichol@@ 522
ambots 522
celeb@@ 522
genre 522
nos 522
oved 522
prospective 522
provincial 522
sevent@@ 522
shield 522
sports@@ 522
tas 522
tempor@@ 522
vas 522
-B4 521
115 521
CSS 521
E.ON 521
Rail 521
Soli@@ 521
absorbed 521
ancho@@ 521
apple 521
casual 521
cide 521
expl@@ 521
fortunate 521
rega@@ 521
sligh@@ 521
synthesis 521
Catalunya 520
OC@@ 520
Script 520
Vitorino 520
XX@@ 520
biomet@@ 520
distra@@ 520
geograph@@ 520
groves 520
implants 520
plateau 520
reserv@@ 520
reve@@ 520
seafood 520
storey 520
unbelie@@ 520
vendor 520
01.@@ 519
Ander@@ 519
Angel@@ 519
Ask 519
Dark 519
Myanmar 519
Parties 519
Ruijten 519
Surrounded 519
Test@@ 519
Thir@@ 519
curve 519
endi@@ 519
gmati@@ 519
inging 519
magi@@ 519
whit@@ 519
Graphi@@ 518
Hung@@ 518
Motion 518
Ple@@ 518
Sign 518
Week@@ 518
añ@@ 518
bekistan 518
cafe 518
distinc@@ 518
dunes 518
eder 518
fulfil@@ 518
moderni@@ 518
quiries 518
rais@@ 518
til 518
vineyard 518
30th 517
Bud@@ 517
Emplo@@ 517
ICA 517
ICEcat 517
Need@@ 517
beverage 517
diabetes 517
fascin@@ 517
inhi@@ 517
kets 517
ommis@@ 517
paradox 517
reform@@ 517
roller 517
1969 516
AB 516
Beau@@ 516
Domin@@ 516
Dé@@ 516
Mé@@ 516
Registration 516
Them@@ 516
accord@@ 516
awar@@ 516
backgrounds 516
format@@ 516
friendliness 516
glia 516
intim@@ 516
ius 516
ller 516
locks 516
propag@@ 516
är@@ 516
Experts 515
INE 515
Imp@@ 515
Mec@@ 515
NGO 515
Nag@@ 515
PayPal 515
Scott 515
UP 515
beau@@ 515
disturbed 515
ington 515
mills 515
situ@@ 515
wird 515
3.1 514
Kash@@ 514
Pum@@ 514
Soon 514
ahn 514
allen 514
banqu@@ 514
fingers 514
reson@@ 514
sau 514
tat 514
viewers 514
Istri@@ 513
T. 513
Universi@@ 513
bacteria 513
carpet 513
fur 513
gram 513
lava 513
mage 513
pots 513
registers 513
sig@@ 513
tise 513
tranquillity 513
15.@@ 512
Assistance 512
Ferrero 512
Hou@@ 512
Lyon 512
MPEG 512
Orange 512
RI@@ 512
Reference 512
SN@@ 512
Tomorrow 512
Turin 512
Veri@@ 512
WE 512
bee 512
cc 512
eves 512
franchise 512
gregation 512
owns 512
sep@@ 512
ę@@ 512
ş@@ 512
τ@@ 512
Banking 511
Hilton 511
Kiev 511
Mode 511
Moder@@ 511
Nephi 511
Re 511
cant@@ 511
heed 511
hus@@ 511
nomination 511
perfection 511
plugins 511
portals 511
programmed 511
rag@@ 511
rak@@ 511
subur@@ 511
vies 511
001 510
100,000 510
DV@@ 510
Details 510
Fis@@ 510
Jet 510
Stone 510
Tuni@@ 510
Vegas 510
Voyager 510
chn@@ 510
orous 510
popul@@ 510
rhyth@@ 510
scri@@ 510
shades 510
Mail@@ 509
Share@@ 509
Vie@@ 509
ceram@@ 509
ergonom@@ 509
lip 509
preme 509
pulled 509
she@@ 509
ssi 509
thouse 509
A6 508
AA 508
Ali 508
DB 508
Designed 508
Plas@@ 508
VA 508
WordPress 508
declar@@ 508
instructors 508
ior 508
mathematical 508
merge 508
psycho@@ 508
pulse 508
republic 508
tner 508
38@@ 507
Conven@@ 507
Cypri@@ 507
Guard 507
Metal 507
Rose 507
Terror@@ 507
aba 507
bb@@ 507
creations 507
discover@@ 507
donated 507
elo@@ 507
emis@@ 507
fit@@ 507
loader 507
navigate 507
ouldn 507
scand@@ 507
stur@@ 507
trusion 507
A1 506
Benz 506
Index 506
Lav@@ 506
epide@@ 506
ficial 506
mos 506
shar@@ 506
Rep@@ 505
anytime 505
comprehensible 505
descri@@ 505
dinners 505
glaci@@ 505
hesit@@ 505
kt@@ 505
shop@@ 505
woven 505
án@@ 505
1972 504
Ama@@ 504
Astrium 504
BG 504
Banks 504
SERV@@ 504
asive 504
brus@@ 504
drops 504
eline 504
eper 504
hem@@ 504
spac@@ 504
valu@@ 504
veter@@ 504
ön@@ 504
Barón 503
Catalonia 503
Emp@@ 503
Torre 503
Wes@@ 503
assault 503
cottage 503
opath@@ 503
ranked 503
sac@@ 503
stack 503
transform@@ 503
Brand@@ 502
Dy@@ 502
Imagine 502
Klingon 502
Langu@@ 502
Sei@@ 502
She@@ 502
WW@@ 502
Waldner 502
aco 502
amoun@@ 502
cler@@ 502
commanded 502
erc@@ 502
faç@@ 502
ij 502
metallic 502
pad 502
tima 502
uta 502
Alicante 501
Contr@@ 501
Davi@@ 501
FS@@ 501
L. 501
Ligh@@ 501
Rent 501
Stream 501
amin 501
artwork 501
authorit@@ 501
bare 501
cient 501
compound 501
dictator@@ 501
liers 501
ographi@@ 501
oul@@ 501
promin@@ 501
ress@@ 501
retary 501
stra 501
vou@@ 501
Lehne 500
Picard 500
Quick 500
Strip 500
aw 500
ere@@ 500
graduates 500
irrelevant 500
remark@@ 500
secre@@ 500
tees 500
unpleasant 500
uro 500
Analysis 499
Conveni@@ 499
Dou@@ 499
Eiffel 499
Solution 499
captain 499
cardi@@ 499
cau@@ 499
doorstep 499
eck@@ 499
hierarch@@ 499
hood 499
lash 499
league 499
mira@@ 499
nes 499
olin 499
rea 499
stan 499
vet 499
wher@@ 499
wled@@ 499
5000 498
Administ@@ 498
Analy@@ 498
Bour@@ 498
Brit@@ 498
CI 498
Copy 498
EPP 498
Metro@@ 498
Milano 498
Vati@@ 498
Walking 498
cracy 498
einen 498
encoding 498
kilomet@@ 498
pseu@@ 498
rites 498
sticks 498
tainment 498
ATM 497
B4 497
Crespo 497
Fair@@ 497
Simon 497
Stalin 497
enclosed 497
pear@@ 497
rival 497
scholars 497
sterili@@ 497
ARC 496
AVI 496
Copy@@ 496
Expo 496
Leader 496
Moz@@ 496
Progressive 496
TY 496
Week 496
Wolf 496
adly 496
communautaire 496
mosa@@ 496
rooftop 496
trick 496
trivi@@ 496
vegetarian 496
ées 496
Eth@@ 495
Europ@@ 495
Feli@@ 495
Final 495
NH 495
Twin 495
Zagreb 495
avian 495
barbecue 495
carb@@ 495
colored 495
derly 495
igno@@ 495
liv@@ 495
mation 495
ow 495
raft 495
tice 495
Acrobat 494
Aero@@ 494
Alban@@ 494
Fan@@ 494
Lom@@ 494
Markets 494
aine 494
alien 494
dding 494
erie 494
ii 494
ongside 494
opho@@ 494
sealed 494
till@@ 494
E.@@ 493
G. 493
Gh@@ 493
IVE 493
Kyi 493
Lee 493
Leone 493
Simple 493
boots 493
embran@@ 493
ende 493
excited 493
loves 493
mmer 493
pause 493
pod@@ 493
retariat 493
utt@@ 493
ylene 493
Böge 492
CNC 492
CRM 492
Gene@@ 492
Resources 492
Wri@@ 492
naval 492
neys 492
reachable 492
scientist 492
tionist 492
tuary 492
Aus@@ 491
Farm 491
SIM@@ 491
Ster@@ 491
alien@@ 491
cohe@@ 491
compositions 491
determin@@ 491
inum 491
voir 491
Amon@@ 490
ICC 490
Isa@@ 490
Orthodo@@ 490
adol@@ 490
dena 490
gery 490
gst 490
multilater@@ 490
restruc@@ 490
rogen 490
roy@@ 490
sent@@ 490
Coll@@ 489
Daily 489
Flexi@@ 489
Interior 489
Phil@@ 489
aber 489
hosp@@ 489
onents 489
que@@ 489
slu@@ 489
tels 489
öl@@ 489
103 488
45@@ 488
Everest 488
Málaga 488
Nuremberg 488
Polo 488
Sili@@ 488
Yo@@ 488
affiliate 488
chest@@ 488
erly 488
esting 488
opher 488
sili@@ 488
thresh@@ 488
turbul@@ 488
Ech@@ 487
Fixed 487
GO@@ 487
MAN 487
Miles 487
Pisa 487
Route 487
Tanz@@ 487
beck 487
facade 487
fem@@ 487
ghters 487
partment 487
sehr 487
³ 487
DEM 486
Module 486
Sach@@ 486
Shops 486
dup@@ 486
glam@@ 486
mic 486
riad 486
tu 486
vio 486
voy@@ 486
Carl@@ 485
Master@@ 485
Olympics 485
Poker@@ 485
Tut@@ 485
attrac@@ 485
dau@@ 485
debit 485
god 485
ons@@ 485
stav@@ 485
stron@@ 485
unication 485
ś@@ 485
Electric 484
Nord@@ 484
Romans 484
actress 484
cached 484
corn 484
formations 484
más 484
residen@@ 484
sender 484
utop@@ 484
vintage 484
1950s 483
1971 483
Posi@@ 483
accom@@ 483
agan 483
crown 483
durch 483
event@@ 483
gs@@ 483
lear@@ 483
node 483
occasional 483
pon@@ 483
Ep@@ 482
Ferrari 482
GUI 482
Linz 482
Mare 482
WA 482
abulary 482
agra@@ 482
colorful 482
einem 482
lash@@ 482
meth@@ 482
musician 482
thers 482
FTA 481
Mist@@ 481
Prote@@ 481
ounced 481
suppor@@ 481
sympath@@ 481
tude 481
wool 481
32@@ 480
Evans 480
LT@@ 480
Lufthansa 480
NE 480
Pun@@ 480
aux@@ 480
effic@@ 480
eradic@@ 480
este 480
ev 480
geb@@ 480
pupp@@ 480
tte 480
vigor@@ 480
ów 480
Archi@@ 479
Berg 479
Care@@ 479
PI 479
Tun@@ 479
agn@@ 479
ardi@@ 479
arks 479
massi@@ 479
monumental 479
tranquili@@ 479
9.00 478
Day@@ 478
Years 478
coast@@ 478
fif@@ 478
fore 478
mina 478
oi 478
petro@@ 478
135 477
Alexand@@ 477
Bangemann 477
Bil@@ 477
Delors 477
ERS 477
Jack 477
dictionary 477
dinal 477
gir@@ 477
noch 477
pon 477
ramp@@ 477
retired 477
rigi@@ 477
sans 477
spr@@ 477
stes 477
ventilation 477
24.@@ 476
Cox 476
Famili@@ 476
Mr@@ 476
Release 476
Sci@@ 476
Suu 476
Work@@ 476
aut@@ 476
conveni@@ 476
elt 476
fis@@ 476
pedition 476
premiere 476
rope 476
Adverti@@ 475
García 475
PNR 475
Tours 475
e. 475
elevator 475
lover 475
melo@@ 475
pessimis@@ 475
styli@@ 475
tite 475
volcano 475
wir 475
ype 475
zh@@ 475
Document 474
ESA 474
Images 474
Schi@@ 474
Students 474
Walk 474
YORK 474
anom@@ 474
fort@@ 474
fountain 474
hydr@@ 474
mega 474
mysq@@ 474
org@@ 474
r.@@ 474
thos 474
12.00 473
Abbas 473
Are@@ 473
Fron@@ 473
Rehn 473
Simil@@ 473
Subscri@@ 473
Traveller 473
develop@@ 473
inver@@ 473
mort@@ 473
Circle 472
aroma 472
debian 472
gano 472
horse@@ 472
proportional 472
ses@@ 472
sink 472
stitutes 472
sync 472
techno@@ 472
vin 472
vom 472
xen@@ 472
17.@@ 471
Am 471
Battle 471
Com 471
Email 471
MI@@ 471
TVs 471
bine 471
contin@@ 471
help@@ 471
import@@ 471
mist@@ 471
neighbour@@ 471
spy@@ 471
1965 470
Fres@@ 470
Ric@@ 470
Shor@@ 470
Urban 470
amente 470
billi@@ 470
imper@@ 470
thering 470
Champs 469
E. 469
Run 469
Step 469
TEC 469
Terme 469
azi@@ 469
dispos@@ 469
inings 469
ligent 469
poetry 469
ssen 469
Bah@@ 468
ETA 468
Ken@@ 468
Operation 468
Salvador 468
TCP 468
composite 468
cover@@ 468
curr@@ 468
gger 468
kW 468
kms 468
missi@@ 468
monster 468
populi@@ 468
prerequi@@ 468
raid 468
ο@@ 468
23rd 467
COS 467
Dal@@ 467
Ev@@ 467
González 467
HA@@ 467
Lite 467
MAS 467
Raf@@ 467
Wall@@ 467
alternate 467
amins 467
assign@@ 467
dden 467
ira 467
och 467
philos@@ 467
proxim@@ 467
timent 467
120@@ 466
Autom@@ 466
B6 466
BugTraq 466
C.@@ 466
Coffee 466
Delegation 466
Dubrovnik 466
Glob@@ 466
Ray 466
Rh@@ 466
Schu@@ 466
Stein@@ 466
Who@@ 466
assador 466
dot 466
erce 466
occ@@ 466
Lon@@ 465
Malmström 465
Naz@@ 465
São 465
Zar@@ 465
bronze 465
dents 465
flavours 465
kus@@ 465
ould 465
skis 465
trailer 465
uli 465
ALL@@ 464
ASPs 464
Advisory 464
Bristol 464
Challenge 464
Manual 464
Represent@@ 464
Satur@@ 464
ZF 464
dg@@ 464
dil@@ 464
elly 464
genous 464
sacrifi@@ 464
tail@@ 464
Clau@@ 463
Conil 463
Elba 463
Guil@@ 463
Mill@@ 463
abi@@ 463
finder 463
iss 463
itar@@ 463
poss@@ 463
town@@ 463
ussy 463
19.@@ 462
190 462
Alba 462
Carmen 462
HT 462
Mother 462
avant 462
behavi@@ 462
excell@@ 462
frau@@ 462
kov 462
lung 462
pep@@ 462
vigil@@ 462
175 461
Claude 461
Deci@@ 461
Liby@@ 461
Nic@@ 461
Pé@@ 461
VO@@ 461
aler@@ 461
asis 461
chio 461
computer@@ 461
gans 461
gem 461
igi 461
oure 461
yachts 461
...... 460
Asi@@ 460
Oh 460
celebri@@ 460
ffs 460
hired 460
mei@@ 460
quiry 460
ror 460
150@@ 459
Carl 459
Di 459
Lux@@ 459
R. 459
Racing 459
Swiss@@ 459
access@@ 459
bahn 459
bann@@ 459
crow@@ 459
damp@@ 459
lar 459
magni@@ 459
ophobia 459
phot@@ 459
presso 459
vision@@ 459
wo 459
Atom@@ 458
IDE 458
Italia 458
SR@@ 458
delle 458
freshly 458
illary 458
lige 458
medic@@ 458
nific@@ 458
ont@@ 458
plum@@ 458
slip@@ 458
veau 458
9,@@ 457
Ces@@ 457
Ernst 457
berries 457
reser@@ 457
teach@@ 457
Dimension 456
Heav@@ 456
Legislative 456
PE@@ 456
Ring 456
Span@@ 456
aero@@ 456
anic 456
susta@@ 456
Aller@@ 455
Fast 455
Ivoire 455
Race 455
Target 455
Teh@@ 455
Um@@ 455
Wogau 455
aciones 455
discus@@ 455
grades 455
matrix 455
mg 455
rigor@@ 455
starship 455
Brandenburg 454
Econom@@ 454
Effici@@ 454
Glo@@ 454
UP@@ 454
app 454
bau@@ 454
lick 454
og 454
parag@@ 454
satisfac@@ 454
teleph@@ 454
1957 453
4.1 453
CET 453
Wars 453
avenue 453
cion 453
lux@@ 453
otechn@@ 453
poli 453
rack 453
replac@@ 453
transpar@@ 453
ا@@ 453
DS9 452
F1 452
Flor@@ 452
JPEG 452
Schmidt 452
af 452
ativity 452
cho 452
dere 452
health@@ 452
inian 452
leges 452
riv@@ 452
sar@@ 452
touring 452
Conf@@ 451
Esc@@ 451
Fontaine 451
Pati@@ 451
Regul@@ 451
Rober@@ 451
Securities 451
Vari@@ 451
dyn@@ 451
eras 451
guesthouse 451
sidi@@ 451
sko 451
spl@@ 451
ventures 451
Amazon 450
CF 450
COR@@ 450
Cali@@ 450
Doc@@ 450
Networks 450
Records 450
Valle 450
ensemble 450
ister 450
pharmac@@ 450
rescu@@ 450
servation 450
two@@ 450
vices 450
112 449
Leon@@ 449
Miguel 449
Stars 449
athy 449
dass 449
porteur 449
sched@@ 449
uan 449
800@@ 448
ANT 448
DB@@ 448
Factory 448
GOL@@ 448
Mont 448
Norm@@ 448
Risk 448
Weber 448
bed@@ 448
décor 448
kal@@ 448
lid 448
patent@@ 448
polite 448
predec@@ 448
rence 448
rot 448
uk 448
ко@@ 448
240 447
650 447
Bahrain 447
Export 447
Plant 447
Rosa 447
Scandin@@ 447
Wilhelm 447
arded 447
exce@@ 447
fin 447
gma 447
gos 447
rin 447
trin@@ 447
vels 447
wering 447
xis 447
Four@@ 446
Interface 446
Kil@@ 446
MAS@@ 446
MHz 446
MT 446
Nest@@ 446
PP 446
Team@@ 446
Tourn@@ 446
acher 446
diox@@ 446
farm@@ 446
ggen@@ 446
kow 446
sec 446
skir@@ 446
stuffs 446
1956 445
20,000 445
Gaulle 445
Mars 445
Nou@@ 445
Wide 445
Wu@@ 445
ademi@@ 445
bia 445
chrome 445
deluxe 445
figu@@ 445
mile@@ 445
pasta 445
ritual 445
scap@@ 445
я 445
Blu 444
Enhan@@ 444
Marc 444
Mik@@ 444
Sett@@ 444
Status 444
Tickets 444
Ve@@ 444
Winter@@ 444
aven@@ 444
entu@@ 444
forec@@ 444
recre@@ 444
teau 444
Å@@ 444
18.@@ 443
Basilica 443
Columbia 443
Materials 443
NET 443
RAW 443
Sw@@ 443
antum 443
aran@@ 443
fighter 443
folios 443
nic 443
porary 443
y.@@ 443
Electronics 442
Geb@@ 442
Johann 442
Palais 442
Rav@@ 442
SO 442
Seri@@ 442
Style 442
fec@@ 442
gg 442
illon 442
pam@@ 442
rane 442
rench 442
tall 442
Affiliate 441
Agent 441
Burundi 441
FIFA 441
Hat@@ 441
Leon 441
Lyn@@ 441
Slo@@ 441
Woo@@ 441
aller 441
arbitr@@ 441
ciano 441
cil 441
dend 441
kings 441
method@@ 441
uno 441
video@@ 441
volta@@ 441
zel@@ 441
.jpg 440
2D 440
Across 440
Figu@@ 440
PD 440
Senior 440
aison 440
asy 440
band@@ 440
basketball 440
dow@@ 440
eh 440
eri 440
erk@@ 440
jer 440
potenti@@ 440
washer 440
108 439
Jacob 439
KUKA 439
Spre@@ 439
Wen@@ 439
assimil@@ 439
config 439
jen@@ 439
mming 439
produc@@ 439
queen 439
rewar@@ 439
sol 439
suffici@@ 439
Lap@@ 438
Mitchell 438
Platz 438
Schum@@ 438
VIII 438
Var 438
derer 438
shine 438
stituted 438
Aff@@ 437
Champion 437
Connect 437
FIN@@ 437
Gab@@ 437
LY 437
P. 437
Pad 437
Satellite 437
Study 437
Sym@@ 437
abu@@ 437
thal@@ 437
Aparthotel 436
Aung 436
Enter@@ 436
Peri@@ 436
Prophet 436
Stadium 436
Utili@@ 436
Value 436
a.com 436
alp@@ 436
ancies 436
chim@@ 436
ecks 436
enne 436
lyrics 436
ondo 436
11.30 435
50,000 435
ACK@@ 435
Governor 435
Kn@@ 435
Nicolas 435
Photos 435
Vinci 435
altar 435
consum@@ 435
Andrea 434
Bonino 434
Broad@@ 434
Cookies 434
Frequ@@ 434
M.@@ 434
Studios 434
lings 434
rank@@ 434
refra@@ 434
seg@@ 434
té 434
в 434
1200 433
BBC 433
DSLR 433
Fox 433
Gates 433
Geo@@ 433
Herman 433
Mulder 433
München 433
Pocket 433
bru@@ 433
config@@ 433
pertoire 433
porte@@ 433
tissu@@ 433
ult 433
Carlo 432
DivX 432
Markus 432
Ortega 432
Ras@@ 432
Sla@@ 432
Trust 432
bure@@ 432
cides 432
corridor 432
embrane 432
garde 432
herein 432
izer 432
jug@@ 432
oos 432
orials 432
111 431
Certificate 431
Graz 431
Infra@@ 431
Schro@@ 431
Think 431
anto 431
configu@@ 431
decla@@ 431
plurali@@ 431
promp@@ 431
pus@@ 431
quad@@ 431
rlpool 431
transmit@@ 431
Ans@@ 430
Bun@@ 430
Fit@@ 430
Generation 430
Harmon@@ 430
Hotel@@ 430
ISS 430
Kel@@ 430
MI 430
Pre 430
Renault 430
Rothley 430
Yan@@ 430
dela@@ 430
emy 430
haben 430
rison 430
soap 430
x.@@ 430
1920 429
5.0 429
5.1 429
Automati@@ 429
FY@@ 429
Inform@@ 429
Masters 429
Mike 429
Phili@@ 429
Territ@@ 429
eman 429
ernity 429
expendi@@ 429
lik@@ 429
lips 429
pha@@ 429
pursu@@ 429
trainer 429
č 429
Alt@@ 428
ECR 428
Eden 428
F. 428
Metho@@ 428
OP 428
Rit@@ 428
WITH 428
adi 428
flan@@ 428
flex@@ 428
glo 428
skep@@ 428
AI 427
AST 427
Glacier 427
Logistics 427
Milli@@ 427
Patrick 427
Seg@@ 427
Some@@ 427
Yahoo 427
dafi 427
instructor 427
o.@@ 427
otti 427
rupted 427
stir@@ 427
tability 427
1948 426
21.@@ 426
34@@ 426
Andrew 426
B. 426
Campo 426
Carol@@ 426
GS 426
Need 426
Picture 426
Planet 426
Rate 426
ange@@ 426
authori@@ 426
cris@@ 426
gorgeous 426
meaning@@ 426
meg@@ 426
sti 426
wholes@@ 426
zano 426
ε@@ 426
Audit 425
Automation 425
DNS 425
H. 425
Install@@ 425
LEX 425
Mandelson 425
PT@@ 425
SAT 425
Valent@@ 425
oblig@@ 425
.- 424
Boutique 424
Byrne 424
Capp@@ 424
Cum@@ 424
Eis@@ 424
Ice 424
Ja@@ 424
Moon 424
Perl 424
Sub 424
WM@@ 424
WS 424
agre@@ 424
allevi@@ 424
client@@ 424
exhibit@@ 424
extra@@ 424
neces@@ 424
ská 424
statue 424
wolf 424
ás 424
б@@ 424
Amnesty 423
Booking 423
Castel@@ 423
Ecuador 423
Gs 423
Hamp@@ 423
Holocaust 423
List@@ 423
Reading 423
Stabili@@ 423
avoi@@ 423
entes 423
gl 423
osc@@ 423
Châ@@ 422
Energi@@ 422
Interactive 422
K. 422
Motor 422
Neph@@ 422
Prus@@ 422
allas 422
apt 422
esi@@ 422
flation 422
hn 422
plann@@ 422
rebel@@ 422
sump@@ 422
tainer 422
vern 422
ylon 422
ч@@ 422
1900 421
1944 421
Arn@@ 421
DER 421
Heart 421
Mandriva 421
Ott@@ 421
Vinc@@ 421
boulevard 421
ingham 421
pod 421
radius 421
tifs 421
toilets 421
EURO 420
Hit@@ 420
Kla@@ 420
Koso@@ 420
Morgan 420
Phone 420
Requi@@ 420
Wire 420
Worldwide 420
YOUR 420
lack@@ 420
lus 420
rite 420
tment 420
toral 420
Cambridge 419
Fut@@ 419
INC@@ 419
MR@@ 419
NCC 419
Resul@@ 419
bum@@ 419
esp@@ 419
jack 419
racy 419
singles 419
Anne 418
Bosch 418
Eri@@ 418
GIMP 418
Gru@@ 418
JO@@ 418
Lloyd 418
Mos@@ 418
NAT@@ 418
Novotel 418
Whit@@ 418
arding 418
emann 418
oom 418
palette 418
posium 418
ul 418
Angela 417
[...]
